\t @ 20431914
\n @ 16208832
e @ 4915390
e r 4809785
o n 3958604
t @ 3901703
i n 3174491
t i 2968863
e t 2860182
s @ 2855732
e n 2757024
o r 2473220
g @ 2044420
a t 1960367
e s 1952505
t r 1885579
ti on 1870472
er @ 1718638
g et 1670350
a l 1608383
" @ 1540732
e c 1483308
a n 1442399
a r 1430714
d @ 1363349
i s 1203712
S tr 1162283
l e 1156994
a m 1153660
in g@ 1151429
tion @ 1144416
a c 1129317
a s 1104720
t e 1082436
l @ 1073636
r e 1035288
r o 1014498
y @ 994683
c e 977629
Str ing@ 921195
o m 811325
i t 791479
I n 790281
a p 771117
E x 766632
" "@ 753114
a g 752438
o u 728420
o d 711821
0 @ 659318
s t 652520
en t@ 649532
C on 646267
a d 638527
e l 632885
en t 607002
i l 606053
a @ 605259
o l 595483
r i 584920
p tion@ 577855
e x 574691
Ex ce 533455
s et 531167
y p 531025
a b 522279
s i 521051
o c 519705
Exce ption@ 519164
am e@ 507958
1 @ 507798
s er 501536
a v 500584
u l 497839
or g@ 496003
e d 488734
h @ 484437
f i 483619
l i 479394
or @ 472278
q u 460007
u t 457578
e t@ 448527
R e 444514
at e 435563
j ec 431834
r es 429532
L is 424822
c e@ 405654
P ro 405607
i @ 391488
p er 391353
in g 391021
T yp 390227
2 @ 388296
u m 387746
p @ 387702
u r 385619
l o 378092
al u 376109
b jec 370499
c on 368362
e s@ 367122
l e@ 364617
c h 363980
S t 359286
o @ 356585
j av 353064
v i 346560
v er 343475
N ame@ 339552
es s 336469
u n 333590
e w 331239
on @ 331129
c om 328538
t er 324024
ac k 321348
0 0 319078
m @ 315252
a tion 310864
O bjec 306350
a y 305101
l as 303659
a tion@ 302416
f @ 298757
es t 296288
m p 289476
x @ 287356
Lis t@ 286119
e l@ 285323
s e@ 281898
te x 275155
o t 274866
k @ 266829
ag e@ 261615
at e@ 260951
Typ e@ 259221
jav a@ 258754
i d 258537
C h 253257
an d 252693
E @ 251533
p ar 249346
E n 246513
C om 245134
m ent@ 244805
P ar 242504
ou r 241719
alu e@ 238794
A c 236506
o p 236272
Objec t@ 234237
E R 230704
ac t 228229
C las 227371
a in 227351
od e@ 227288
i z 225008
b u 223612
tex t@ 223315
c @ 222897
s e 222549
u p 222337
R es 220128
D at 219492
r r 219123
p ro 218659
F i 217509
st an 216815
_ _ 216589
ti l@ 213775
d er@ 212079
t o 212003
i m 211874
T o 210271
S er 208353
t s@ 206931
t en 205826
n @ 205639
ap @ 205139
ri d 204092
I d@ 203810
ag e 201205
in d 200029
ou n 199964
I N 199039
s tr 197968
qu al 197292
f f 197126
ap p 187448
ad d 187001
p u 186410
c re 185235
o g 183568
O N 180756
es t@ 179925
E le 179827
p o 179613
D @ 179083
ser t 178343
E _ 176517
i c 176074
T @ 175905
i g 175553
A t 175232
D e 174535
b @ 174463
t h@ 174454
m ent 173936
or y@ 173810
M ess 172506
ul t@ 172042
Pro per 171042
ac h 170111
ab le@ 168997
as sert 168852
K e 167880
ab le 166021
qual s@ 165917
al @ 165716
p l 165225
F il 164549
S y 163674
C ol 162724
O ver 162238
an g 161791
p on 161371
u til@ 161330
o w 160658
or m 159007
B u 158782
4 @ 157889
g et@ 157295
Over rid 156158
p r 155392
Overrid e@ 155038
en d 154879
pu t@ 154072
E v 152514
M od 151710
in t 151607
li p 151558
3 @ 150984
Clas s@ 150603
at or@ 149129
A rr 149092
M ap@ 148939
A T 148829
p ut 148129
at h@ 147703
en g 147191
k e 146757
te m@ 145810
T r 145086
or e@ 143973
si on@ 143689
com @ 143190
e m 142721
S T 142586
en @ 142523
v e 142236
V alue@ 142068
ec lip 141281
eclip se@ 140673
cre ate 139999
i r 139421
t er@ 138614
t y@ 137840
e v 137449
tr i 135447
m o 134784
i t@ 133912
j @ 133802
n ame@ 133691
g er@ 131871
A s 131324
S et@ 130867
M an 130438
l oc 130132
ou t@ 128763
eng th@ 126640
d e 126431
P o 125743
si on 125608
E N 124522
n ew 123111
S @ 123000
Con text@ 122925
u b 122361
i d@ 122240
f a 120916
e am 120858
te d 120846
In f 120580
s h 119950
A d 119260
In stan 119238
c ri 119202
Ele ment@ 118990
u c 118655
ex @ 118545
M et 118399
ad d@ 117546
o o 117442
our ce@ 116810
T _ 116601
ex t@ 115648
u le 115112
R E 114700
en d@ 114184
res ult@ 113864
ec t 113817
Sy s 113240
t h 112923
at u 112525
Con fi 112162
e d@ 112089
act ory@ 111990
Ser vi 111913
P ack 111177
v er@ 110421
Con t 110041
V i 109734
Fil e@ 109485
Man ag 109456
t y 108870
U R 108619
ach e@ 108185
5 @ 108092
d at 107370
t est 107226
Vi ew 106181
f er 105352
te m 105195
N ode@ 104960
ur r 104896
l ength@ 104861
A L 104644
0 x 104428
a x@ 104216
our ce 103758
Par am 103556
T im 103384
in @ 103132
Str eam 102942
ti m 102558
00 00 101501
L oc 100808
O R 100615
Dat a@ 100297
t yp 99320
F actory@ 99281
p or 99238
E d 99174
U n 99049
A l 99030
ec tion@ 99027
a y@ 97993
er s@ 97654
l er@ 97609
b o 97476
Arr ay 97472
ec tion 97417
G ro 97376
ten er@ 96890
v alue@ 96689
ul t 96602
ac e@ 96298
Fi le 95958
Ex p 95941
od e 95910
A N 95678
B y 95024
l s@ 94433
app end@ 94391
c es 93840
A n 93274
tr y@ 93201
Manag er@ 92870
a t@ 92717
I mp 91778
or e 91576
N am 91379
S _ 91031
com m 90579
Typ e 90559
w or 89723
T h 89289
P ath@ 89008
s er@ 88666
c ess 88524
i al 88461
H and 88240
ap ache@ 87859
L og 87826
g is 87253
Fi el 86883
m od 86487
I ON 86444
Ev ent@ 86301
iz e@ 86260
Dat a 86163
get S 86104
Q u 86019
al l 85629
fer en 85595
At tri 85420
I D@ 85346
i p 85085
T est@ 84966
m ar 84743
e quals@ 84623
i o@ 84371
Ke y@ 84210
I O 84124
en ti 84055
Str ing 84042
A M 83939
an @ 83596
ti v 83385
U ti 83303
c urr 83109
alu e 82800
l is 82733
oun t@ 82263
p ec 82251
Inf o@ 82172
it y@ 81862
ex t 81675
f il 81605
a x 81560
Lis tener@ 81397
E quals@ 81285
Stream @ 80867
Sys tem@ 80845
Mess age@ 80789
F or 80764
pr int 80496
a w 80355
si z 79919
Re qu 79807
Ke y 79799
as e 79707
In te 79584
In d 79578
om @ 79520
ar @ 79430
L in 79207
Param et 79093
A R 78906
6 @ 78886
L @ 78609
T est 78493
as e@ 78388
c ore@ 78321
jav ax@ 78112
L O 78085
Confi g 77768
o b 77684
assert Equals@ 77383
il d 77268
ad er@ 77239
ti es@ 77144
ar g 77054
al id 76745
D _ 76721
il der@ 76630
L o 76519
cri p 76413
a d@ 76045
r @ 75791
con t 75723
T Y 75694
an s 75263
as h 75260
P l 75175
Pack age@ 75010
Con stan 74984
siz e@ 74650
li c 74179
lo g 74141
oc k 74077
r ap 73801
S et 73393
D E 73216
f orm 72527
r am 72315
r it 72300
C S 72007
In put 71449
Instan ce@ 71093
ces s@ 71066
S ize@ 70177
To k 70152
Com m 70111
B e 70009
Inte ger@ 69951
po s 69643
O per 69332
O M 69264
P re 69149
S el 69008
g n 68853
\xa0 "@ 68807
A r 68648
ar t 68524
IO Exception@ 68104
' @ 68082
Col l 68057
P er 68053
R ec 67848
o l@ 67714
con text@ 67685
Uti ls@ 67204
l in 67135
8 @ 67068
r ule 66781
P an 66661
T ext@ 66641
b ut 66605
ac e 66550
ter n 66438
Objec t 66381
d s@ 66364
D es 66118
i fi 66117
O L 65985
n ot 65656
Constan ts@ 65656
E rr 65507
i b 65466
g e 65304
in t@ 65188
it or@ 65097
get Name@ 64871
li ent@ 64614
en er 64466
s et@ 64104
F orm 64036
A C 63949
V er 63821
u p@ 63709
to String@ 63422
Clas s 63399
Hand ler@ 62797
Mess age 62773
w s 62771
Proper ty@ 62649
A b 62587
it er 62554
S h 62212
S e 62120
fa ult 62079
lo g@ 62014
ou t 61950
Gro up 61887
as k 61696
ig h 61646
c l 61560
m s 61486
s w 61414
ti c 61305
v @ 61047
tion s@ 60871
r un 60796
Ch ang 60670
ec k 60620
Bu ff 60382
d er 60295
i mp 60246
Mod el 60021
Imp l@ 60001
A S 59992
u e@ 59828
typ e@ 59787
at ch 59499
re ad 59155
Array List@ 59145
O ut 59133
c h@ 59122
7 @ 58922
L ay 58888
I d 58764
it y 58529
m l 58199
lo w 58140
D is 57880
Servi ce 57743
n am 57719
O p 57714
crip t 57439
m ess 57288
re mo 57202
c ol 57080
st ate@ 56876
Config ur 56768
L ab 56709
e b 56608
o s 56537
H ash 56417
O f@ 56394
ent s@ 56354
Bu ilder@ 56322
ti ve 56240
it h 56176
I T 56067
e le 55854
m in 55810
Ele ment 55808
d i 55708
ur e@ 55587
N ul 55168
Com pon 55009
pos it 54969
par am 54721
A p 54651
at h 54546
I m 54530
N o 54462
Met h 54369
9 @ 54298
Mod el@ 54199
l n@ 54189
m et 54005
v alid 53906
p re 53822
u g 53418
R O 53299
s p 53074
D ir 53023
Servi ce@ 52968
get C 52831
s y 52785
e o 52777
t t 52752
O r 52695
f in 52625
L E 52581
print ln@ 52258
fi le 52254
Ind ex@ 52172
e mp 52146
pl ay 52083
N um 51919
g o 51875
but e@ 51812
U til@ 51735
ro w 51701
_ @ 51700
b ack 51635
G @ 51468
vi ew 51360
t u 51264
s c 51112
Y @ 51069
ke y@ 50717
pro per 50593
a il 50533
p le 50390
W or 50298
h e 50261
h as 50243
I @ 50217
vi der@ 50134
ain @ 49763
_ C 49596
er r 49394
Arr ay@ 49372
s ub 49263
St atu 49254
te s@ 49244
B ut 49172
O n 49079
le g 48987
U ser 48942
pon se@ 48849
But t 48846
curr ent 48825
ser vi 48530
ev ent@ 48491
s is 48463
R un 48367
C ount@ 48359
Ac tion 48265
mod el@ 48264
b e 48185
Ad d 47757
o 2@ 47565
F I 47436
tr y 47432
As ser 47426
te d@ 47401
um @ 47373
U L 47296
dat a@ 47274
as t 47268
View @ 47197
Ev ent 47181
Re gis 47165
S E 47124
v e@ 47110
re qu 46998
r ec 46846
op en 46793
Attri bute@ 46792
con fi 46692
u i@ 46618
oun d 46557
u @ 46505
St ate@ 46435
St ack 46336
u ser 46306
rap h 46267
N ot 46264
r st 46215
an d@ 46202
or y 46089
I tem 45792
ser ver@ 45774
atu re 45614
feren ce 45571
TY P 45568
s el 45133
H e 44924
E X 44847
tim e@ 44819
In ter 44813
ti fi 44692
V alue 44554
Con n 44304
comm on@ 44269
Res ource@ 44239
en c 44050
ing s@ 44037
o d@ 44033
I ter 43924
b er 43901
St ate 43898
Re mo 43818
U N 43769
ro m 43733
Nam e 43722
Tr ans 43618
re d 43561
P ri 43510
N AM 43382
G ener 43318
es sion@ 43296
Met a 43289
arg s@ 43279
p res 43187
B oo 43063
i ti 42941
Exp res 42817
i tion 42769
A P 42726
Proper ty 42626
Con str 42532
ws o2@ 42526
Cont ain 42516
Tim e@ 42490
as s 42428
n el@ 42342
T emp 42309
at or 42251
c ar 42189
_ P 42116
ke y 42046
Asser t@ 42041
d is 41957
T ext 41947
S c 41940
d es 41930
Ar g 41910
M L 41838
t oc 41812
st art 41733
tim e 41712
tex t 41678
_ rule 41665
cont ain 41622
si gn 41543
I tem@ 41530
Proper ties@ 41517
Nul l@ 41466
Ed it 41275
d ate 41247
um ent 41225
ri te 41167
el et 41160
ind ex@ 41100
w id 41098
o bjec 41070
ar t@ 40968
al iz 40904
re ad@ 40860
u s 40853
Instan ce 40740
Ac cess@ 40692
N ode 40660
C L 40625
tifi c 40613
por t 40565
ut h 40408
Tim e 40338
ar i 40303
c lient@ 40295
in f 40291
B it 40189
0 0@ 39806
ec ted 39771
F e 39684
fi el 39561
Lis t 39368
Ab str 39305
ch eck 39298
V is 39281
D ec 39251
Ac tiv 39105
re gis 39088
Ch ar 39070
ul e@ 39052
I C 39050
t ar 39047
ig n 39010
Pro vider@ 39009
De fault 38805
ation s@ 38765
ol d 38759
B loc 38725
i l@ 38660
Buff er@ 38571
T R 38568
D oc 38517
ate g 38494
g ro 38480
I M 38455
m ap@ 38357
por t@ 38327
F A 38236
v alue 38192
v is 38160
Lo g@ 38073
ow @ 38013
1 0@ 37999
res s@ 37911
T ask 37864
Pro cess 37738
S p 37697
i f 37682
fil e@ 37663
in put@ 37609
Ad ap 37573
Res ource 37539
u st 37510
Temp l 37484
Abstr act 37387
Fiel d@ 37359
ti es 37306
0 . 37153
_ S 37125
as k@ 37093
T ER 37024
f or 37016
igh t@ 37015
Lay out@ 37010
Con tr 36975
Col um 36938
C ase@ 36926
Ap p 36897
Boo le 36861
li ent 36835
c lo 36695
i v 36681
Tok en@ 36678
Out put 36670
Fiel d 36572
O f 36552
Lab el@ 36521
Col or@ 36496
L iter 36419
Ac tion@ 36394
er y@ 36283
L on 36128
k er 36107
D ate@ 36033
En ti 35917
A G 35733
X @ 35694
ow n 35668
Compon ent@ 35614
ol s@ 35598
Attri bu 35578
ti f 35546
Butt on@ 35519
C all 35479
h and 35467
en ce@ 35454
Tr ue@ 35402
Pan el@ 35340
O @ 35327
Statu s@ 35262
uc t 35226
P @ 35190
F ol 35029
S S 34992
Input Stream@ 34879
n et@ 34831
w rite 34786
or t 34768
" \xa0 34559
m l@ 34413
car b 34404
i le 34348
G eo 34344
get M 34299
Gro up@ 34265
T re 34167
un d 34153
Paramet er@ 34133
AN C 34126
v al@ 34098
tt p 34083
Log ger@ 34052
s t@ 34018
_ M 34002
U p 33974
b er@ 33894
Requ est@ 33686
Requ est 33678
P ath 33661
c las 33640
Res ult@ 33610
or s@ 33585
ag es@ 33550
ect or@ 33509
d oc 33451
L ev 33434
assert True@ 33323
p ath@ 33302
LO W 33170
feren ce@ 33135
r on 33098
alu es@ 33084
I s 33046
Tok en 33023
s u 33007
rit er@ 32927
mess age@ 32903
G L 32892
carb on@ 32867
S ub 32859
B ind 32792
ff set@ 32777
n um 32744
s b@ 32737
Err or@ 32701
g er 32679
n ode@ 32644
f t@ 32628
ou b 32625
W ith 32581
e "@ 32580
f e 32518
q @ 32464
A B 32338
Coll ection 32281
Confi g@ 32273
Hash Map@ 32175
S W 32170
un c 32144
E mp 32141
p c 32086
p er@ 32044
cri ption@ 32008
I S_ 31990
At om 31894
wor k 31823
r aw 31806
C ode@ 31751
c le 31708
Iter ator@ 31649
remo ve 31621
C al 31567
and ro 31527
An not 31515
las t 31472
jec t@ 31470
_ in 31367
Ser ver 31260
ial iz 31258
T able 31128
R ule 31109
il d@ 31077
ION @ 31018
Configur ation@ 30964
I D 30894
sw ing@ 30879
IN ST 30792
Des cript 30760
En try@ 30715
ex pec 30688
ac tion@ 30687
to k 30646
Cont ent 30621
Po int@ 30613
E M 30605
Wor k 30568
o s@ 30547
u d 30530
andro id@ 30498
Boole an@ 30490
By te 30412
ob j@ 30406
par se 30345
E Object@ 30337
a g@ 30328
U T 30320
si tion@ 30256
H el 30250
s ource@ 30184
f ind 30059
S u 30013
_ 1 30008
Chang e 29957
dat a 29905
Loc al 29904
es sion 29868
ug in@ 29812
servi ce 29783
Loc ation@ 29744
un it@ 29712
R @ 29706
run time@ 29692
r et 29625
Coll ection@ 29601
w n 29595
B o 29563
In t@ 29536
Liter al 29498
At om@ 29451
F rom 29411
av e 29387
n o 29355
inf o@ 29341
W id 29288
__ Group 29274
INST ANC 29240
f l 29219
i c@ 29079
aw t@ 29078
F r 29078
F OL 29067
Bit Set@ 29038
E C 29025
" \\ 29024
Re posit 29000
ms g@ 28983
ac tion 28974
an ce 28941
ION _ 28919
T able@ 28904
s ec 28836
A X 28814
A D 28790
_ 0@ 28689
toc ol@ 28680
w e 28633
Typ es@ 28592
go og 28549
De p 28474
an t 28468
0000 0000 28452
Ex ten 28418
UR L@ 28354
in d@ 28353
str ing@ 28244
te mp 28202
A @ 28175
l an 28153
sis ten 28138
k ed 28078
NAM E@ 28023
ar d 28020
l ab 28009
M en 27996
de bu 27968
Contain er@ 27883
m b 27883
ang e@ 27867
ot h 27849
FOL LOW 27840
in e@ 27831
Paramet er 27827
ER @ 27802
UR I@ 27794
am ple 27738
Re ader@ 27699
z @ 27675
at ure@ 27610
Ex ec 27601
ang e 27581
Res ponse@ 27563
N O 27556
D oub 27553
G raph 27516
Meth od@ 27461
er y 27418
S up 27384
G rid 27380
goog le@ 27343
C @ 27317
Adap ter@ 27302
I S 27285
get R 27272
in ter 27225
Fil ter@ 27131
lis t@ 27130
Comm and@ 27106
ch em 27094
bu f@ 27066
get Instance@ 27024
m ax 26998
Ch ild 26995
c ount@ 26980
Sys tem 26940
par ent@ 26924
_rule __ 26892
ele ment@ 26864
ce p 26834
leg al 26819
Constr ain 26797
n ext@ 26747
lo ad 26746
in iti 26740
f ram 26739
Meth od 26736
INSTANC E@ 26708
ed i 26694
I l 26687
B on 26651
clas s 26636
C re 26621
1 . 26608
get T 26603
P r 26524
0 2 26523
an not 26522
V ari 26511
tr ans 26435
Pl ay 26378
n ext 26378
FA UL 26350
Il legal 26344
or d 26263
in tern 26163
Lon g@ 26155
l et 26107
g en@ 26103
able d@ 26083
ew or 26065
D ock 26045
C H 26044
Com p 26013
d o 25957
1 2 25954
Err or 25947
Re ference@ 25925
s W 25903
get L 25898
N S 25893
err or@ 25891
S pec 25851
ram mar 25848
m is 25837
r e@ 25799
E Class@ 25756
i s@ 25661
W ind 25645
Th read@ 25644
P ol 25618
Be an@ 25527
DE FAUL 25488
D om 25446
Y _ 25432
ar y 25351
H ttp 25340
j unit@ 25339
on s@ 25288
Add ress@ 25278
An d 25246
tu al 25219
Se qu 25217
clo se@ 25202
ar ch 25202
ex ec 25194
E D_ 25180
Oper ation@ 25176
Output Stream@ 25105
V AL 25044
m a 24998
Id enti 24981
p ri 24979
d ir 24970
p h 24955
J av 24945
re g 24928
m an 24926
f ace@ 24920
em f@ 24917
imp l@ 24891
at ed 24857
Im age 24841
E O 24825
at ch@ 24778
a ti 24772
D ial 24714
m _ 24713
Remo te 24660
or t@ 24635
c oun 24596
up date 24547
B ase 24540
Ver sion@ 24462
Lev el@ 24456
met h 24446
En d 24429
A uth 24420
Po int 24322
Expres sion@ 24314
P RO 24299
el l@ 24237
confi g 24219
t x@ 24217
T H 24212
qu e 24211
P L 24204
S ource@ 24176
fi er@ 24173
ind ex 24165
debu g@ 24149
K @ 24148
' \\ 24120
es p 24110
ri @ 24102
x ml@ 24030
S ign 24016
In valid 24009
on e@ 23919
Proper ties 23907
As sign 23868
end er 23814
E D@ 23805
o g@ 23777
Contr ol 23776
ul ts@ 23775
J S 23764
imp le 23747
st art@ 23734
con n 23724
C ON 23709
A x 23668
um ent@ 23640
st ack 23636
oc l@ 23633
at ter 23618
I L 23587
r a@ 23549
o k 23529
C S@ 23521
1 1@ 23520
u s@ 23511
F l 23455
l ar 23441
Oper ation 23293
F a 23286
j s 23285
fram ewor 23268
ed it 23258
Q U 23258
objec t@ 23253
1 2@ 23173
O P 23162
o t@ 23102
res s 23051
i on@ 23038
B @ 23033
lin e@ 23021
pro cess 23002
s s 22989
C lient@ 22967
requ est@ 22953
Bloc k 22950
curr ent@ 22928
Sy n 22908
ec t@ 22884
M em 22876
log ger@ 22863
Form at@ 22850
U ser@ 22844
ment s@ 22790
V alid 22784
Lin e@ 22783
com p 22762
O wn 22710
S ession@ 22695
Templ ate 22668
c d 22659
O CL 22546
o st 22478
ri g 22449
Mess ages@ 22439
framewor k@ 22414
t o@ 22412
pon se 22376
F unc 22363
d elet 22327
M EN 22325
N @ 22301
l d 22299
ch ar 22285
Jav a 22272
en ce 22220
K E 22213
G et 22174
col um 22140
M on 22103
M app 22082
ar y@ 22063
b y 22054
Attribu te 22020
op e@ 21987
Configur ation 21987
d ec 21984
E L 21980
Regis try@ 21914
ul ti 21882
Ed itor@ 21869
Pack age 21866
En abled@ 21840
S ec 21813
lan g@ 21773
O b 21764
Im age@ 21743
In v 21731
typ e 21684
tr ack 21653
Comm and 21636
get Id@ 21634
ER _ 21634
S ource 21622
i o 21609
s um 21606
W riter@ 21605
Qu e 21532
f t 21509
4 j@ 21499
sy n 21497
s end 21461
l ay 21451
S I 21434
bu ff 21372
tern al 21369
c al 21365
Con text 21353
get Value@ 21329
vi ron 21323
De fin 21318
tar get@ 21289
u re 21262
Tre e 21246
Doub le@ 21226
St ore@ 21212
Colum n 21208
Al l 21205
oo k 21181
t est@ 21164
confi g@ 21163
loc al 21113
Lin e 21103
as ic 21087
Fol low 21069
get P 21015
En c 20977
sion s@ 20958
p s@ 20950
E S 20904
wor d@ 20893
ul l 20876
X ML 20847
intern al@ 20835
res ponse@ 20807
g rammar 20801
it e@ 20799
1 0 20794
fi rst 20766
00 0@ 20714
N on 20710
de fault 20706
w @ 20701
pro tocol@ 20693
C o 20684
regis try@ 20683
Descript or@ 20672
fi x@ 20663
Run time 20659
C lient 20638
s ource 20616
ST R 20602
Al l@ 20601
bo t@ 20600
Sel ection 20564
Re g 20537
ms g 20533
jec t 20516
To ol 20510
Reposit ory@ 20476
expec ted 20451
rap h@ 20431
an n 20416
d ate@ 20412
Emp ty@ 20407
i es@ 20399
atter n@ 20340
M ath@ 20337
play er@ 20315
bu ilder@ 20300
ker nel@ 20271
pc gen@ 20260
N ext@ 20248
En um 20246
in it 20242
Bind ing@ 20236
S ock 20234
1 "@ 20218
R el 20211
Buff er 20199
h t 20139
s ol 20099
mess age 20096
a s@ 20078
av e@ 20076
th e 20062
T o@ 20056
N ew 20052
X ml 20048
F on 20020
s "@ 19982
f f@ 19977
L E@ 19962
U r 19948
p ack 19907
view @ 19862
C D 19857
Vis ib 19781
m atch 19780
M ode@ 19768
mar y 19751
Hel per@ 19737
Conn ection@ 19726
g ener 19720
Num ber@ 19714
I V 19683
Dir @ 19668
Set t 19655
In t 19631
get String@ 19605
tri bu 19605
AL _ 19589
Nam es@ 19572
Lab el 19560
No tific 19537
Ac cess 19529
Fi rst 19522
F ac 19522
Fe ature 19494
s pec 19491
ample s@ 19490
o per 19455
t ask 19451
re pl 19445
res ource 19429
rit e@ 19422
u ser@ 19417
contain s@ 19411
oc i 19377
Form at 19373
B und 19356
i tem@ 19354
L 2 19346
in v 19299
og n 19263
T ar 19255
Pre ference 19226
Meta Class@ 19224
Arg ument 19202
m bo 19191
al s@ 19191
Tr ace@ 19143
G _ 19139
i p@ 19137
Con ver 19124
ad er 19103
od es@ 19102
it h@ 19053
C l 19050
m i 19018
par ser@ 18995
s p@ 18986
grammar Access@ 18972
f s@ 18946
posit e@ 18937
Par t@ 18926
Ser ver@ 18924
g e@ 18874
mbo l@ 18869
mod el 18850
P RE 18820
Ch eck 18818
el l 18808
Inf o 18791
Ex p@ 18789
t able@ 18780
IN G@ 18774
R o 18763
ar r 18761
S imple 18758
Dir ect 18734
P _ 18710
Ser v 18709
Ser ializ 18705
m y 18680
1 5@ 18674
tiv e@ 18661
fiel d 18645
L A 18644
ou se 18635
ge og 18613
geog eb 18576
o ffset@ 18489
in e 18469
con @ 18458
f ac 18450
T ask@ 18399
w ar 18384
OR @ 18374
u e 18368
SW T@ 18355
s r 18344
er e 18337
remo ve@ 18320
VAL U 18319
back @ 18308
Th row 18307
par ator@ 18241
CS __Group 18216
a f 18203
lin e 18199
i tem 18189
get E 18174
end enc 18166
Ind ex 18164
" - 18156
e INSTANCE@ 18151
v alues@ 18125
a e 18079
'\\ u 18077
a ir 18063
at a@ 18040
en der@ 18018
geogeb ra@ 17973
Res ol 17967
Ed ition 17960
1 4@ 17959
in stan 17957
loc k@ 17934
L e 17932
1 3@ 17931
n "@ 17925
e qual 17890
os t@ 17885
ER X 17881
TYP E@ 17880
ile d@ 17867
comm ons@ 17855
Par ser@ 17850
get Message@ 17839
form at@ 17835
le d 17833
D ate 17821
Rec ogn 17819
Expres sion 17818
set Text@ 17817
wid th@ 17813
Fil ter 17812
Not Null@ 17790
By tes@ 17784
I gn 17771
Wid th@ 17768
get Property@ 17760
tr @ 17759
u te 17734
s ession@ 17724
param et 17713
Qu ery 17681
od y@ 17674
Dec lar 17659
c ur 17643
aliz e 17643
ch ild 17624
ac t@ 17597
" / 17561
get Class@ 17553
c ast 17552
servi ce@ 17544
en try@ 17533
s up 17507
Runtime Exception@ 17493
iter ator@ 17478
ev ent 17457
m on 17454
Par t 17444
Ver sion 17432
ur n 17427
value Of@ 17406
lis t 17392
e p 17388
s _ 17379
ition Exception@ 17378
l l 17358
F @ 17299
ol der@ 17282
Run n 17271
_ 2 17268
A t@ 17255
Qu ery@ 17252
j o 17247
w rite@ 17191
: \xa0"@ 17180
M ap 17167
ch ange 17162
St art 17155
U M 17152
ec ted@ 17128
buff er@ 17104
Gener ator@ 17056
App lic 17050
A _ 17042
" . 17039
act er@ 17033
St y 17024
Regis try 17014
ex ten 17003
th ri 16978
urr ent 16975
l er 16973
C er 16965
k il 16964
g raph 16959
u b@ 16952
T O 16946
ser ver 16945
fe ature 16924
Pl ugin@ 16900
L ength@ 16895
S O 16890
get B 16887
a u 16886
Recogn itionException@ 16880
D I 16869
ur l@ 16857
wor d 16849
is t 16833
g r 16798
_ f 16795
e i 16783
Un it@ 16775
V ir 16775
ap t 16772
c o 16770
_ 0 16754
l y 16727
Bon d@ 16720
an nel@ 16712
a tive 16701
bu ild 16692
En d@ 16648
Par se 16623
Op tions@ 16622
R et 16621
err or 16620
to ols@ 16615
sh ow 16603
T ab 16603
Paramet ers@ 16584
m er 16566
Dial og@ 16548
lo b 16537
gro up 16534
2 5 16534
ifi c 16498
ag n 16489
S cript 16468
st atu 16449
Vir tual 16434
n ode 16417
lo y 16411
Par ser 16406
ap p@ 16394
m ap 16369
C O 16363
DEFAUL T_ 16360
P O 16349
Cont ent@ 16345
H T 16317
is Empty@ 16303
po int 16290
track ing@ 16289
Compon ent 16287
u ti 16287
ust om 16252
back tracking@ 16241
AC T 16233
Enti ty 16232
ex amples@ 16219
Ax is 16212
s ing 16210
D et 16207
d e@ 16204
sub string@ 16202
Lo ader@ 16195
tr e 16190
ff ff 16189
TYP E_ 16179
Fr ag 16161
res ol 16149
R ule@ 16148
i re 16132
D AT 16128
com pon 16123
En viron 16118
a a 16118
sw t@ 16109
agn os 16109
U S 16108
Serv let 16095
i on 16091
d om 16066
C ateg 16021
am p 16019
b r 16018
le v 16013
g ing@ 15990
P ER 15987
or d@ 15964
param s@ 15960
Enti ty@ 15956
Des cription@ 15942
Po sition@ 15939
L E_ 15929
Doc ument 15907
P ub 15902
" , 15891
M atch 15891
1 1 15888
Pro g 15883
pl ay@ 15875
in ts@ 15867
Com posite@ 15864
ifi er@ 15843
Instance Of@ 15819
requ est 15816
Ur l@ 15814
ach e 15800
Argument Exception@ 15791
ch ed 15789
has Next@ 15782
String Builder@ 15772
P age@ 15769
C oun 15767
c op 15758
am p@ 15757
pl et 15734
iv ot 15728
a uth 15719
par e 15709
R ange@ 15702
Colum n@ 15693
for m@ 15679
W O 15669
U ml 15634
I P 15625
proper ty 15619
Pan e@ 15607
I B 15599
Sel ection@ 15595
Illegal ArgumentException@ 15591
Res ponse 15581
op ae 15563
coun t 15554
D i 15533
C T 15532
c k 15531
L _ 15525
st ate 15514
S w 15500
C lic 15482
get Type@ 15477
a z 15475
an ce@ 15472
ap i@ 15465
nam e 15431
ST AT 15424
b ase 15423
Res ult 15402
Enc od 15400
fa il@ 15379
il ity@ 15377
on e 15366
lis tener@ 15363
0000 00 15357
k it@ 15352
Ac tive 15330
u i 15288
E S@ 15277
colum n 15277
Pol ic 15269
con ver 15262
S ession 15255
ac tiv 15251
String Buffer@ 15240
De bu 15236
hand le 15228
d b 15199
Sy mbol@ 15198
he ight@ 15162
De fa 15147
Num ber 15147
g or 15144
i tion@ 15144
L ib 15131
b ind 15119
gor ith 15119
ation sh 15084
Men u 15079
Bloc k@ 15073
sisten ce@ 15070
thri ft@ 15064
M o 15061
Throw able@ 15059
ar n 15054
ax is 15019
opae um@ 15010
p ath 14978
Be an 14971
fa iled@ 14962
s s@ 14957
tic s@ 14945
in put 14932
tok en 14931
C ode 14916
ug in 14911
g ui@ 14909
Dis play 14907
d raw 14896
qu ery@ 14865
Activ ity@ 14863
V alues@ 14862
m in@ 14849
ang u 14841
cre ate@ 14820
K _ 14819
t op 14807
str @ 14803
" < 14801
get N 14792
J o 14785
Edit or 14746
Or der@ 14734
Dep endenc 14711
id e@ 14696
I G 14677
u ri@ 14668
Bund le@ 14659
F lo 14649
Collection s@ 14642
Bo x@ 14638
b l 14616
Re ad 14589
er r@ 14589
M at 14582
JS ON 14580
cont ent@ 14575
M ulti 14574
Ign ore 14568
fiel d@ 14556
con tr 14526
B ag 14499
fi x 14490
Cal end 14482
M ach 14467
P attern@ 14443
open sc 14438
B or 14410
ag s@ 14400
Conn ection 14386
r up 14379
res ult 14366
loc k 14340
C OM 14335
> "@ 14334
ut e@ 14329
c s@ 14312
str eam 14308
ro m@ 14306
As s 14297
OM Element@ 14281
y n 14266
Q Name@ 14264
Stack Trace@ 14262
de p 14255
t m 14245
Re ference 14242
0 1@ 14242
con n@ 14213
esp ace@ 14202
res ults@ 14164
P AR 14164
State ment@ 14154
run @ 14144
M O 14142
H @ 14124
In put@ 14117
d b@ 14108
O ffset@ 14097
pr ing 14093
Remote Exception@ 14092
t ot 14090
tok en@ 14084
D el 14082
5 0 14073
b le 14066
Ad min 14060
Constrain ts@ 14046
ass word@ 14039
g rid 14036
c ode@ 14032
s on 14031
V ER 14022
po s@ 14017
Meta Data@ 13990
temp l 13985
O W 13976
res ource@ 13975
b ase@ 13952
or iz 13952
_in _rule__ 13918
re l 13916
Templ ate@ 13896
f r 13893
am e 13883
b on 13882
Pro ject@ 13860
sec ur 13821
ti t 13810
Non Null@ 13804
p ol 13793
o i 13790
D A 13777
ent er 13737
D ER 13732
J ob 13723
Properties Edition 13715
Qu al 13701
He ight@ 13693
enti ty@ 13692
delet e 13686
S C 13671
cast le@ 13662
S Q 13641
m d@ 13637
annot ation@ 13632
r en@ 13589
get First 13584
s in 13566
ex pres 13564
en try 13564
proper ties@ 13563
oth er@ 13560
ER R 13558
re t@ 13549
ec ore@ 13517
s pon 13513
_ 1@ 13497
Nul l 13494
Per mis 13471
g y 13470
Dat ab 13470
uti ls@ 13465
S chem 13460
print StackTrace@ 13447
r a 13444
lay out@ 13439
valid ate 13427
ser v 13425
g l 13420
Chang ed@ 13417
m en 13411
1 8 13410
ed itor@ 13402
C ache@ 13396
h ash 13374
Assign ment 13373
con f@ 13347
Bu ild 13344
V @ 13343
Sequ ence@ 13327
i ence@ 13324
r yp 13311
S P 13310
Activ ity 13296
po int@ 13295
A li 13295
tar get 13292
B ack 13286
s o 13285
meth od 13278
re f 13266
con str 13266
E E 13264
In iti 13257
Exce p 13246
Play er@ 13239
se d@ 13238
St art@ 13223
Exec ut 13222
Clas si 13217
" C 13216
assert NotNull@ 13199
po si 13190
f ore@ 13182
W eb 13174
initi alize 13167
objec t 13166
A ut 13163
cd k@ 13160
getS el 13158
Vari able 13153
ce s@ 13139
AT TR 13138
per sistence@ 13132
opensc ience@ 13131
app end 13111
IN TER 13100
spon gy 13083
spongy castle@ 13083
ex p 13079
Th read 13041
lab el@ 13034
av ig 13034
In ternal 13019
r app 13019
2 "@ 13017
ele ment 13008
a ked 13005
Pro x 13003
a k 12998
set Name@ 12990
oun d@ 12977
B U 12974
Que ue@ 12950
Re al 12949
Fiel ds@ 12943
Lay out 12935
o ver 12934
P h 12933
Ignore Case@ 12928
Buffer ed 12925
Stack @ 12921
M ar 12915
V ector@ 12908
T I 12901
P air 12897
pl ugin@ 12895
as t@ 12893
equal s 12872
s q 12870
S ing 12860
msg s@ 12855
it s@ 12855
c lient 12847
Ch ild@ 12845
Element s@ 12839
Or der 12826
M edi 12819
R ender 12809
o p@ 12805
Fe ature@ 12796
s Repository@ 12790
Attribu tes@ 12782
m ain@ 12775
sW ith@ 12760
Ass oci 12750
Statu s 12736
0x 00000000 12733
b p 12727
u t@ 12727
fil ter@ 12714
VALU E@ 12712
F OR 12710
cl u 12709
s or@ 12697
log ging@ 12677
Un i 12677
m s@ 12666
AL @ 12665
ma ke 12655
oo t@ 12651
T it 12637
oo p@ 12629
Defa ult@ 12628
at om 12626
M E 12623
Op tion 12621
c all 12608
t ach 12608
1 6 12596
m f 12593
C ur 12591
Hash Set@ 12581
__ _ 12561
: "@ 12557
M AX 12542
comp il 12515
U ML 12507
Uml View 12506
UmlView sRepository@ 12506
Array s@ 12476
li t@ 12464
stack Size@ 12457
ur ation@ 12450
Str uct 12449
Stack Size@ 12439
F in 12432
m ax@ 12430
f actory@ 12421
m em 12420
Pan el 12418
Fon t@ 12395
p e 12391
Wind ow@ 12388
Re f 12372
T er 12371
cle ar@ 12368
Identi fier@ 12368
secur ity@ 12360
ic tion 12360
TY @ 12359
enti c 12347
equals IgnoreCase@ 12340
d ed 12334
g w 12333
Tre e@ 12331
ro ll 12328
Control ler@ 12314
new Instance@ 12309
il li 12306
lo ad@ 12267
im en 12258
F al 12256
St ore 12239
d el 12223
c ul 12213
Manag er 12202
UR L 12197
Sett ings@ 12195
un @ 12192
b ib 12191
t x 12185
C ore 12183
G E 12170
Sup pres 12123
Wind ow 12121
s ession 12109
Dom ain@ 12102
new Value@ 12083
oth er 12082
d est 12081
h el 12079
Debu g 12071
Men u@ 12060
on t 12053
U ID@ 12043
oun ds@ 12042
er i 12040
Annot ation 12039
a o@ 12032
sisten ce 12017
bib li 12016
ot he 11990
bibli othe 11990
bibliothe k@ 11990
Doc ument@ 11989
Se arch 11963
ifi ed 11955
ec k@ 11953
Char acter@ 11953
Graph ic 11945
feature ID@ 11939
F act 11938
a il@ 11938
B asic 11932
col l 11931
ow n@ 11921
Sock et 11910
uc tu 11903
W e 11897
Butt on 11869
Exp ected 11858
EN T_ 11857
h ad 11855
l en@ 11852
ST _ 11845
f rom 11836
des cription@ 11830
Environ ment@ 11827
Annot ation@ 11824
s pring 11823
Ch ar@ 11822
Col or 11822
t n 11817
u tion 11809
Cre ate 11808
ic k 11808
Calend ar@ 11800
Re f@ 11796
arn ings@ 11774
j face@ 11755
Test Case@ 11755
p c@ 11748
proper ty@ 11745
pu sh 11742
F ound 11740
M ouse 11737
I Z 11734
P ivot 11712
Enum er 11686
toc ol 11671
be an 11667
x ml 11658
Dom ain 11653
m edi 11639
al y 11639
Pro d 11606
wid get 11597
a 2@ 11565
regis ter 11565
s d 11563
D B 11560
a ut 11551
get Text@ 11550
iz e 11545
Fal se@ 11541
leg ate@ 11522
at tribu 11521
pr int@ 11520
man ag 11502
Excep tion 11495
LO C 11489
tif act 11489
mb ol 11486
B O 11483
O ption@ 11474
1 6@ 11469
ro ot@ 11466
t ab 11466
in it@ 11459
had oop@ 11454
FOLLOW _rule__ 11446
is ts@ 11445
3 3 11445
T A 11443
le t@ 11440
b en 11428
at tr 11423
A g 11422
IN _ 11421
contain s 11416
Bag Constraints@ 11415
sW arnings@ 11408
Al gorith 11401
Suppres sWarnings@ 11395
RE S 11393
AS N 11386
A re 11382
2 . 11377
rule __ 11373
Cont ents@ 11363
B ig 11346
d t@ 11344
He ader@ 11333
e + 11333
mar t 11318
Lis ten 11318
ro ot 11317
C OL 11301
a un 11296
U I 11295
View er@ 11292
l 2 11292
re port 11280
t w 11279
ASN 1 11271
gw t@ 11261
tr ace@ 11245
di agnos 11241
av i 11238
T up 11235
an t@ 11231
Remo ve 11218
ect or 11179
Defin ition@ 11171
t ask@ 11165
ad ata@ 11164
s on@ 11155
po sition@ 11148
vi der 11140
Comm on 11139
it er@ 11116
P age 11107
c c@ 11106
T IM 11102
Atom Container@ 11098
CD OM 11090
Par ent@ 11085
M @ 11084
au se@ 11082
ang le@ 11072
Lin k 11071
par ent 11068
Tr ace 11068
Lib r 11027
d ro 11026
statu s@ 11025
H as 11025
get G 11023
r st@ 11018
ex ce 11011
Com ple 11010
ol ec 11006
n et 11005
w riter@ 10997
b ind@ 10977
SQ L 10975
por ted 10970
h t@ 10962
Fr ame@ 10962
H older@ 10956
u x 10953
ed "@ 10950
r s@ 10948
o ke 10943
T ag@ 10938
bjec ts@ 10931
Func tion@ 10925
C lo 10920
Lo ad 10912
nam e"@ 10896
I Atom@ 10889
As set 10887
h avi 10886
1 5 10866
ut able 10864
Input Model 10858
jav a 10848
h er 10845
2 0@ 10838
meth od@ 10834
ire d@ 10828
Tr ack 10826
we bo 10822
Str @ 10810
enti al 10795
c ase 10789
cont ent 10788
en ame@ 10777
w ave 10758
S te 10751
Byte Array 10745
F _ 10743
an a@ 10736
M in 10703
mo l@ 10698
Inter rup 10691
t able 10689
Direct ory@ 10684
str ing 10682
res t 10681
) "@ 10680
Uti li 10679
1 00@ 10678
L ex 10667
exce ption@ 10662
M y 10656
exec ute@ 10643
index Of@ 10641
m ain 10624
Pr int 10609
i qu 10600
or ig 10588
Invalid Exception@ 10580
Not Found 10572
ser ial 10570
ou ld 10566
er ver@ 10560
Sub s 10555
diagnos tics@ 10552
igh t 10548
webo bjects@ 10546
de fin 10530
ur al 10516
D elet 10513
v ar 10510
loc ation@ 10498
ann el 10498
no tif 10496
s k 10495
Call back@ 10489
Notific ation 10485
S H 10481
U B 10462
P C 10461
Visib le@ 10460
l d@ 10457
ud io@ 10455
0 f@ 10455
s Package@ 10448
InputModel InvalidException@ 10446
ent er@ 10437
par t 10435
apt ana@ 10433
E __ 10431
F oc 10430
out put@ 10419
pro vider@ 10418
T w 10410
a it 10410
TY _ 10399
c ode 10391
Per sistence 10385
sel ected 10371
D imen 10365
CS __ 10359
AT ION@ 10354
Dis play@ 10349
O C 10341
re f@ 10335
Mapp ing@ 10317
et ch 10316
op tions@ 10314
" \xa0"@ 10312
Pri mi 10312
Ch em 10300
M s 10295
bu ck 10294
F E 10292
1 4 10281
ac @ 10280
est amp@ 10278
instan ce@ 10257
Contr ol@ 10242
R oot@ 10241
re ader@ 10236
or ds@ 10230
St at 10227
cre en 10220
g am 10217
u se 10216
cep t 10204
hash Code@ 10161
m atch@ 10156
ver sion@ 10156
w ave@ 10151
1 9 10151
iz er@ 10150
B ase@ 10150
I con@ 10145
Mon itor@ 10142
set s@ 10141
ob j 10140
assert False@ 10139
c tx@ 10134
s un@ 10133
C ap 10128
Inf orm 10118
i te 10118
St ati 10109
pro ject@ 10102
spring framework@ 10094
T E 10086
par se@ 10081
EE F 10081
c er 10075
Rel ationsh 10063
s chem 10060
Nam ed 10058
sis t 10055
uc cess@ 10046
c an 10045
Con sum 10042
= "@ 10038
initi al 10024
ad e@ 10016
ret urn 10012
De f@ 10004
U P 9999
Pri mary 9989
LO G@ 9983
v al 9981
Vari able@ 9966
pr is 9966
EX P 9959
B ot 9953
NotFound Exception@ 9945
out put 9943
Flo at@ 9927
pr @ 9922
ar d@ 9921
ON E@ 9909
Po s@ 9907
Reg ion@ 9906
Spec ific 9906
Imp l 9898
dom ain@ 9892
tm p@ 9891
Own ed 9879
Declar ation@ 9878
od y 9870
form at 9865
p s 9864
Gener ic 9859
pro cess@ 9842
re s@ 9831
Pro ject 9818
Up date 9815
1 3 9809
comm and 9800
Lin ked 9778
w ind 9772
Sty le@ 9767
1 7 9760
lob al 9757
l y@ 9756
edit ing 9752
illi s@ 9752
T O@ 9739
IN aked 9739
Sing le 9738
G raph@ 9730
c 2@ 9720
T ri 9715
un d@ 9712
row @ 9708
Action Listener@ 9703
but t 9703
AT ION_ 9702
Rec ei 9697
_ log@ 9690
ok e@ 9690
Clic k 9673
tic ip 9673
_ 3 9673
Inter face@ 9669
hand ler@ 9667
Set s 9664
Sequ ence 9662
Sh ell@ 9660
Pair @ 9656
Follow @ 9655
R ed 9654
Op en 9650
By t 9643
ed u@ 9642
f low 9642
AT UR 9630
2 D@ 9629
N et 9624
AB LE@ 9618
CS Access@ 9615
ac ter 9605
sh ould 9604
manag er@ 9598
c ateg 9591
to p@ 9570
widget s@ 9561
EN T@ 9556
H ost 9556
proper ties 9555
v ed 9543
Applic ation 9539
AM Q 9534
K ind@ 9524
fac es@ 9521
um ents@ 9516
b io 9515
O J 9513
ch ild@ 9512
W rapp 9512
_f sp@ 9499
6 4@ 9499
push Follow@ 9499
AG E_ 9497
Ev alu 9496
tri m@ 9492
V al@ 9488
2 0 9479
Ch annel@ 9476
Fa ult@ 9474
d ial 9471
Prog ress 9463
min st 9461
Grid Data@ 9460
ER V 9460
M ax 9459
Test s 9458
t ur 9450
n eo 9441
Str uctu 9438
M S 9427
l 2@ 9424
LE MEN 9422
0x00000000 000000 9422
C E 9418
M is 9406
set Property@ 9395
ac tive 9388
i x 9366
s ed 9366
qu ery 9357
lab el 9354
uc t@ 9348
Man age 9346
P ort@ 9345
s Utils@ 9345
al t 9315
k er@ 9312
Sc ope@ 9309
p atch 9308
b lock 9306
doc k@ 9304
AT ION 9298
C ustom 9295
f ace 9289
c ore 9281
mon itor@ 9274
I D_ 9267
get Attribute@ 9255
fil ter 9254
Co ord 9247
th is 9244
Param s@ 9241
C ache 9231
n e 9230
wor k@ 9228
Ro ot 9218
F low 9215
E Reference@ 9209
Com plet 9208
sy s 9205
Int ent@ 9196
l2 j 9192
ri x@ 9186
l2j server@ 9186
ain t 9184
Play er 9182
le ase 9169
Tar get@ 9162
wave protocol@ 9159
U P@ 9158
b 2@ 9154
ain t@ 9153
02 l@ 9149
a "@ 9148
o ver@ 9143
R ect 9139
File s@ 9132
Cer tific 9130
Param @ 9125
MAX _ 9124
w h 9119
iction ary@ 9117
T ag 9113
S kil 9110
set _@ 9104
p l@ 9096
Follow Sets 9094
Det ail 9085
S IT 9083
ab iqu 9082
N odes@ 9065
if y 9065
Utili ties@ 9060
ate d@ 9056
L IN 9053
abiqu o@ 9053
Exec ution 9050
c s 9050
Sec ur 9048
ar ed 9042
SI Z 9032
ing Exception@ 9028
get Active 9024
Hand ler 9024
N avig 9011
B ar@ 9010
gro up@ 9006
Process or@ 9005
and om@ 9002
Pro tocol 9002
open source@ 8996
eb ay 8995
b ar 8992
aun ch 8966
M illis@ 8966
Http Servlet 8961
Spec @ 8956
ebay opensource@ 8955
" f 8943
sol ute 8931
OR _ 8931
pres ent 8928
arr ay 8927
Func tion 8919
0x00000000000000 02l@ 8912
tit le@ 8911
tur mer 8911
turmer ic@ 8910
lin ux 8907
get User 8906
EEF Tests 8906
I Bond@ 8901
Model sUtils@ 8900
EEFTests ModelsUtils@ 8900
start sWith@ 8897
Contain er 8892
Polic y@ 8887
c ap 8885
Cal l@ 8877
D raw 8876
DEFAUL T@ 8875
th at@ 8869
By Id@ 8868
sp lit@ 8863
id x@ 8858
Lev el 8845
Un it 8836
k kit@ 8832
um l@ 8826
arr ay@ 8826
az z@ 8820
doc @ 8818
Runn able@ 8817
E qu 8817
l on 8816
d ock 8813
linux tools@ 8806
in c 8784
z z 8777
0 "@ 8775
B ody@ 8763
Dependenc y@ 8760
comm and@ 8755
UML Package@ 8753
or ity@ 8748
v el 8748
Dimen sion@ 8748
Key s@ 8731
Key word 8731
j j 8729
fer red 8717
m app 8714
expected Model@ 8702
Hand le@ 8701
h ttp 8700
A f 8699
ation Exception@ 8688
B ar 8684
dis play 8681
esp ace 8668
stream @ 8666
p an 8661
g raph@ 8658
ateg y@ 8649
ted Exception@ 8643
Datab ase 8641
R ol 8639
IN G_ 8636
Mem ber 8633
u al 8624
O cl 8623
S D 8621
" un 8617
T op 8614
ar g@ 8611
D E_ 8599
Notific ation@ 8596
3 4 8589
Constr uct 8587
y y 8583
met a 8573
Ch oi 8571
Re pl 8566
ke d@ 8559
Auth entic 8558
get Logger@ 8554
il ity 8550
minst er@ 8548
crip tion 8545
g reg 8528
on d 8525
parse Int@ 8522
pu b 8522
U ri@ 8517
ap se 8512
sin ess 8505
Par ent 8504
pre fix@ 8500
Rec ord@ 8500
L angu 8497
En try 8492
sup ported 8488
m t@ 8487
m d 8486
Fol der@ 8485
f ore 8485
em e@ 8482
Value For 8481
En ter 8478
Geo Element@ 8475
lev el@ 8471
ver se 8468
neo 4j@ 8467
F rom@ 8464
en v@ 8444
NS Array@ 8443
C urrent 8440
getC urrent 8435
b asic 8433
bo ss@ 8430
f ound 8430
es erver@ 8414
il l 8414
F or@ 8411
TA G@ 8411
Sh ow 8408
P AT 8408
En g 8407
axis 2@ 8392
FI L 8392
buck minster@ 8389
b in 8387
G ui 8376
TER @ 8375
Al go 8370
contr ol 8368
le s@ 8363
sr c@ 8362
s m 8354
Com bo 8351
t mp 8337
_ name@ 8333
EM P 8330
enti ty 8330
Resol ver@ 8316
Pre fix@ 8312
Exten sion@ 8310
I AtomContainer@ 8308
St ub@ 8306
IT ER 8301
Bo x 8294
le ft@ 8292
Pl ugin 8289
repl ace 8282
uc ar@ 8279
res h 8279
im age 8277
gam eserver@ 8277
ar e 8274
get D 8273
ass and 8271
E LEMEN 8269
get Default 8268
_P RO 8261
fi er 8256
0. 0@ 8255
j boss@ 8251
Pro vider 8248
Message Id@ 8246
T __ 8244
T EX 8240
_ c 8240
J Panel@ 8232
a tic 8229
Ab solute 8227
Ob j@ 8223
get In 8222
W rit 8217
1 000@ 8215
" test 8210
gener ate 8208
dir @ 8207
A v 8205
SW T 8203
bu kkit@ 8203
DA O@ 8194
ex tr 8189
si tion 8185
sr c 8180
Categ ory@ 8176
Trans action@ 8171
at ing 8168
CS__Group __ 8166
Exten sion 8165
En um@ 8160
St or 8158
M utable 8155
Table s@ 8154
Sock et@ 8147
h ost 8134
by tes@ 8133
SE T@ 8131
N E 8128
Loc k@ 8127
I R 8124
For m@ 8121
Classi fier@ 8114
tt p@ 8112
ec @ 8112
st ore@ 8105
Be havi 8104
ow er 8099
v ari 8099
C op 8098
C ar 8087
bjec t@ 8086
ig n@ 8085
NAM E_ 8082
Rule Call 8080
Conver ter@ 8080
Tit le@ 8080
Oper ations@ 8079
t ag 8073
i e@ 8061
INTER N 8061
Pack et@ 8058
model Editor@ 8055
_C ON 8038
expec ted@ 8036
oc k@ 8034
KE Y@ 8033
first InstanceOf@ 8031
fi re 8027
Tup le 8020
in al 8019
D ictionary@ 8018
As yn 8017
Chang e@ 8016
B r 8012
pl it 8011
er Exception@ 8011
typ es@ 8010
templ ate 8002
Frag ment@ 8001
Literal Exp 7991
Pro tocol@ 7987
M L@ 7985
rec over@ 7977
0x 7 7976
n own 7971
i g@ 7968
tri es@ 7961
TH @ 7961
tot al 7961
eng ine@ 7952
\\ n"@ 7951
bean s@ 7947
Edit ing 7946
O ut@ 7941
. "@ 7933
Char acter 7931
w eb 7930
b tn 7928
n 1@ 7922
Log Factory@ 7921
p lic 7921
Com posi 7920
s ave 7914
ex cep 7908
G en 7906
O c 7889
e p@ 7889
get Child 7883
I f 7883
ws t@ 7877
h ttp@ 7872
gro und@ 7854
Reposit ory 7853
Dock able@ 7851
ou s 7851
View er 7850
pro ps@ 7845
Tar get 7844
_P AR 7841
At tach 7841
a tive@ 7836
ATUR E_ 7834
Up date@ 7833
amp le@ 7829
change Context@ 7826
pack age 7820
Fact ory 7820
Are a@ 7811
Per form 7804
Secur ity 7797
config uration@ 7795
j ob 7793
R ow 7793
_ set_@ 7789
Item s@ 7785
__ Impl 7781
sub s 7777
annot ations@ 7772
d om@ 7767
A ST 7767
Graphic s 7760
paramet ers@ 7756
Expected Model 7755
r m 7753
De vi 7748
J Label@ 7742
t a@ 7735
i e 7735
file Name@ 7732
Com par 7732
Par ti 7731
com pare 7727
9 9 7720
is h 7718
Jo b@ 7716
li b 7714
p op 7711
g b 7707
yp e@ 7706
Interrup tedException@ 7704
Out put@ 7699
user Id@ 7698
get F 7697
m e 7697
service s@ 7691
p d 7684
get Resource 7679
Ev ents@ 7678
se qu 7677
b it 7670
Sel ected@ 7668
Class Name@ 7658
js dt@ 7658
P AC 7657
b lock@ 7652
Ch ain@ 7646
s or 7642
Structu red 7641
ar ch@ 7640
d ic 7634
y nam 7627
F F 7626
rest ore 7624
UR I 7623
3 2@ 7619
ev ents@ 7615
compil er@ 7598
Met ri 7596
Execut or 7591
crip t@ 7584
te x@ 7582
Tr an 7575
tem p@ 7572
p assword@ 7568
l v 7565
C tx@ 7552
F IN 7552
" name"@ 7540
IB UT 7537
ke ep 7515
Wrapp er@ 7514
Sup port@ 7508
lis ten 7505
Change Listener@ 7499
stack @ 7497
H ost@ 7494
50 9 7478
Serializ able@ 7474
is Set 7474
ev alu 7467
U p@ 7466
Struct ural 7465
m e@ 7461
Byte Buffer@ 7456
_ 4 7453
cop y@ 7450
_ s 7441
P op 7435
Local e@ 7430
T T 7428
conn ection@ 7422
"\\ n"@ 7414
Aut o 7410
bo x@ 7409
S um 7409
cle ar 7407
g re 7406
pol ic 7399
add To 7388
al id@ 7385
in te 7379
l at 7376
Bor der@ 7371
Initi aliz 7370
SIZ E@ 7365
get All 7364
Su per 7362
rig ht@ 7359
getFirst InstanceOf@ 7353
Work ben 7347
Pl at 7346
Adap ter 7343
ched ul 7338
ad ap 7337
3 D@ 7336
Ex tr 7333
s To 7328
s mart 7323
cl azz@ 7316
T mf 7309
m ode@ 7306
TYP E__ 7302
3 "@ 7301
ver y 7299
Dial og 7297
se arch 7295
or der 7294
Literal s@ 7293
C od 7292
In et 7288
le x 7286
Dec im 7272
re ference 7269
im age@ 7267
iz ard 7261
P e 7259
Bind ing 7259
w ait 7258
al i 7257
sc al 7255
ex ists@ 7253
st y 7251
st at 7250
ge o@ 7249
tre e@ 7245
Pri v 7244
"/ "@ 7233
ch annel@ 7229
Java Script 7228
U C 7225
at om@ 7224
cop y 7221
Po st 7220
vis it 7211
Emp ty 7210
pro x 7203
Un supported 7202
D ig 7201
Ar tifact 7181
AT E_ 7180
L ast 7179
ynam ic 7169
N ONE@ 7166
clu de 7163
E Attribute@ 7157
paramet er 7157
R ow@ 7157
6 0@ 7155
a tiv 7154
g en 7154
W @ 7153
OW N 7152
PRE SS 7151
un k 7138
ifi er 7132
bp m@ 7132
report Error@ 7125
Loc ation 7116
Pro file@ 7114
c f 7114
Sc al 7113
B ound 7111
fil ename@ 7108
resource s@ 7106
lis h 7102
c li 7100
set S 7100
Has h@ 7095
work s@ 7091
ance l 7091
act or@ 7086
contain er@ 7083
st d 7079
lo ok 7068
get Absolute 7063
He ad 7061
av elet 7058
CL AS 7052
FOR M 7049
Typ ed 7040
Group Layout@ 7038
Wid get@ 7037
ol d@ 7035
Version UID@ 7027
ip i 7021
Sy mbol 7020
PO SIT 7020
" ' 7016
sq l@ 7016
up date@ 7008
j Panel 7005
Sc roll 7005
B AS 7005
tr o 7003
er n 7001
Schem a 6996
C R 6990
serial VersionUID@ 6989
fi rst@ 6986
SQL Exception@ 6983
J EC 6977
compon ent@ 6976
2 7 6970
Class Loader@ 6969
at tern 6969
He ader 6961
Lin k@ 6960
Que ue 6959
A V 6958
s l 6956
Com parator@ 6954
ur n@ 6953
Inv oc 6951
UN T@ 6950
s ender@ 6950
ser ializ 6945
2 d@ 6942
conver t 6941
Par ticip 6940
EX PRESS 6940
ri ver@ 6939
es "@ 6939
wid get@ 6935
Prox y@ 6932
dat ab 6931
H _ 6931
Foc us 6926
U s 6919
Liter al@ 6915
1 00 6914
Core Exception@ 6912
Cur sor@ 6909
Ed ge@ 6904
sel ect 6902
N e 6898
FOLLOW _rule 6896
Match er@ 6890
S AX 6884
param @ 6883
ERR OR@ 6883
ch eck@ 6883
e+ 00@ 6883
Str ategy@ 6876
inv oke 6871
set t 6871
bio java@ 6871
n ull 6870
FE ATURE_ 6862
ve d@ 6858
to Array@ 6857
PRO PER 6855
FollowSets 000@ 6854
repl ace@ 6850
get Re 6835
su per 6828
attribu te 6827
Bor der 6824
Lon g 6823
um l2@ 6820
bind ing@ 6811
Menu Item@ 6810
rec ei 6810
". "@ 6808
aa aa 6808
F ail 6804
and es@ 6791
Comple tion 6785
le an 6784
Gui Utils@ 6784
S ize 6776
In @ 6773
po ints@ 6771
Applic ation@ 6771
ev t@ 6768
Fon t 6768
es s@ 6766
sp ace@ 6764
Vis itor@ 6762
dock able@ 6756
res ponse 6754
ma il@ 6750
L im 6747
colum n@ 6745
child ren@ 6744
Arg s@ 6740
get Node 6727
b oo 6723
in n 6718
oper ation@ 6717
Mach ine@ 6717
Po ol@ 6715
6 4 6711
iv ot@ 6705
C S_ 6705
" S 6701
om e@ 6694
to ol 6691
I ds@ 6691
EN @ 6689
id ata@ 6682
am od 6680
m it 6672
2 8 6663
un idata@ 6662
] "@ 6659
CD K 6659
et s@ 6656
X 509 6653
Mach ine 6651
IN @ 6647
char At@ 6646
mar k 6646
get Key@ 6643
re e 6643
Token s@ 6642
con sum 6641
im e 6640
g l@ 6639
Ali gn 6635
contains Key@ 6633
E core 6630
Time Millis@ 6630
con s@ 6629
C ell 6627
E Object 6623
be fore@ 6622
pl ugin 6621
add All@ 6620
activ ity 6616
an y 6615
en um 6615
delet e@ 6611
get Path@ 6608
P ort 6604
System MessageId@ 6603
B in 6598
D E@ 6596
or ies@ 6595
Log g 6591
Pro cess@ 6585
Dep loy 6584
2 4 6582
Trans action 6579
D TO@ 6571
Pro file 6567
get Default@ 6566
Primi tive 6564
P res 6560
po se@ 6558
Be fore@ 6558
B ounds@ 6554
di tion@ 6547
n g 6545
pri mary 6544
li g 6542
e e 6542
Ms g@ 6528
app lic 6527
IN G 6527
and om 6525
An aly 6521
vi r 6516
Com ment@ 6515
Tim estamp@ 6514
Syn c 6514
get Local 6511
AP I 6508
y cle 6507
0 8 6504
x text@ 6503
No tif 6503
File Name@ 6502
UR C 6498
am @ 6492
ic s@ 6489
match er@ 6488
D own 6488
af ter@ 6484
r y 6480
as n1@ 6475
tx t 6472
IG H 6469
AB LE_ 6457
jo b@ 6456
TR AN 6452
uc tion@ 6451
uc li 6451
Nam espace@ 6449
own er@ 6446
n ow 6445
re posit 6443
E List@ 6441
re al 6441
Inte ger 6439
m olec 6427
FI EL 6425
Fac ade@ 6424
AG E@ 6418
D FA 6415
g an 6412
d et 6406
e - 6406
De f 6404
o k@ 6399
if y@ 6395
ws d 6395
Ch at 6394
h ost@ 6390
Dat ac 6384
Stati s 6379
L ook 6375
Id x@ 6374
col or@ 6370
Exten ded 6370
Boole an 6368
tw it 6368
Sel ected 6367
pre pare 6366
ucli di 6365
am il 6363
run n 6360
Enter pris 6358
5 0@ 6353
fiel ds@ 6350
__Group __ 6347
p k 6346
ile d 6339
AM E 6337
men u 6335
a 1@ 6332
t ag@ 6330
at tri 6327
Inform ation@ 6324
token s@ 6320
Su ch 6318
lev el 6317
current TimeMillis@ 6314
P R 6302
bu ild@ 6299
Ch annel 6298
H E 6295
s le 6292
FI X@ 6287
Sign ature@ 6286
ur ation 6283
nam espace@ 6279
b e@ 6275
Comp ound 6274
Libr ary 6271
lo t 6269
T S@ 6269
M e 6268
getAbsolute Path@ 6263
s n 6259
feren ces 6257
No Such 6256
Coun t 6255
pro d 6255
Po ints@ 6253
L ITER 6253
0x 1. 6251
ad i 6250
Perform ed@ 6249
doc ument@ 6242
Remo ve@ 6237
i es 6233
m ail 6232
D F 6231
SWT Bot 6230
m at 6224
Res ults@ 6219
Add ress 6217
st ub@ 6214
Constrain t 6212
Syn apse 6211
INTERN AL_ 6208
l on@ 6202
Trans form 6197
s 2@ 6196
W h 6190
p le@ 6189
clo se 6184
serv let@ 6180
fr ame@ 6176
id "@ 6172
" c 6170
u conn@ 6169
g in 6169
dir ect 6167
mar sh 6165
po st 6165
restore StackSize@ 6164
keep StackSize@ 6164
ten ant 6163
an ch 6163
lin k 6158
j trace@ 6155
ps y@ 6155
Render er@ 6149
get H 6148
Rect angle@ 6146
DE BU 6138
_ E 6138
0x 0 6137
c md@ 6136
ATTR IBUT 6136
ri d@ 6135
Template Parameter@ 6133
W rite 6130
Message Context@ 6129
Descript ors@ 6127
bo x 6126
al l@ 6126
d p 6122
b und 6118
n g@ 6116
i red 6113
in ation@ 6113
smart works@ 6108
ec h 6105
j bpm@ 6103
war n@ 6102
item s@ 6102
U I@ 6102
cre en@ 6097
con current@ 6089
_ 2@ 6087
oper ation 6086
expres sion@ 6081
B ro 6081
sel ection@ 6074
c ache@ 6067
De legate@ 6064
Mat rix@ 6063
Rec ord 6062
Action Event@ 6061
i 2 6057
pro ject 6056
col or 6054
que ue@ 6051
le ment 6051
RE QU 6050
re fl 6050
F ram 6050
Doub le 6049
B y@ 6048
user name@ 6039
f unc 6037
Grid BagConstraints@ 6035
VER S 6034
Byt e@ 6031
R A 6031
get Bytes@ 6028
inc ip 6028
nam es@ 6024
pr ec 6023
Data Source@ 6016
FOLLOW _ 6012
Build er 6010
tif act@ 6003
D to@ 6002
Own er@ 6001
id e 6001
amod el@ 6000
m ulti 5998
in st 5994
Ste p@ 5988
ing s 5983
E qual 5981
es ted 5975
m ouse 5973
Equ ip 5970
p ivot@ 5969
Listen ers@ 5968
Constan t@ 5965
Serializ er@ 5960
rit eri 5957
Langu age 5934
d s 5932
EN C 5927
ic al 5927
be an@ 5924
Con f@ 5922
ass word 5914
G r 5913
oriz ont 5912
cep t@ 5912
_ B 5912
IN GL 5910
Relationsh ip 5907
G RO 5907
D O 5905
di tion 5904
3 0@ 5899
I T@ 5898
An y 5894
vir tual 5893
fa il 5892
Literal Exp@ 5885
D ao@ 5883
Constrain t@ 5882
Associ ation 5881
Debug Enabled@ 5879
D ro 5879
pro p 5878
Ac count 5874
se parator@ 5870
AP @ 5869
8 3@ 5868
loc al@ 5863
ap e@ 5862
ST AR 5860
LE CT 5856
tr ic 5854
r ender 5852
N S@ 5852
check ed"@ 5845
dial og@ 5845
com plet 5842
M ail 5841
E l 5841
ERV IC 5837
ail able 5837
Al ph 5832
get Int@ 5828
set Enabled@ 5827
Al tern 5826
Q @ 5826
or der@ 5825
b ers@ 5822
attr s@ 5822
ol og 5821
key s@ 5820
Bu siness 5817
Log ger 5816
le d@ 5814
H O 5814
Form ul 5812
Enumer ation@ 5812
EXP __ 5810
Mess ag 5809
ver sion 5805
ch ange@ 5803
" b 5801
IS_ UN 5800
KE Y_ 5800
ur l 5800
1 _ 5799
"un checked"@ 5799
Big Integer@ 5797
Th at@ 5787
remo te 5787
Cl ust 5783
ri t@ 5779
int Value@ 5777
N UM 5775
f u 5772
Valid ator@ 5766
D own@ 5763
t a 5762
sp ace 5756
add Atom@ 5754
Requ ired@ 5751
set Value@ 5749
n orm 5749
Re port 5749
ag ram 5747
Eng ine@ 5746
w ith 5742
L ower 5741
PropertiesEdition Event@ 5739
n t@ 5737
ched ule 5734
HT ML 5733
sc ope@ 5731
S V 5726
uc le 5725
Pivot Package@ 5725
we b@ 5722
se q@ 5719
templ ate@ 5718
en i 5718
pro g 5709
Po ol 5708
enc od 5707
Parser RuleCall 5705
2 5@ 5703
ByteArray OutputStream@ 5702
im um 5699
rst udio@ 5697
f rom@ 5696
Pro jec 5688
compare To@ 5688
Mod ule@ 5687
Dis tribu 5683
ann er@ 5682
notif y 5680
Composi te 5675
" d 5668
Resource s@ 5662
Des c@ 5656
ac tions@ 5655
U im 5655
Mod e 5654
exten sions@ 5651
s v 5651
EN D 5651
p age 5649
2 4@ 5648
Preference s@ 5642
2 3 5642
V ar 5640
exec ute 5638
inter faces@ 5638
is DebugEnabled@ 5629
PropertiesEdition Part 5628
Progress Monitor@ 5619
en a@ 5618
pro to 5618
assert That@ 5612
Valid ation 5609
t or 5609
get Type 5606
Sh ort 5602
s te 5601
vis ib 5599
IN F 5598
M ore 5595
num ber 5594
Oper ator 5588
cl ud 5579
no tific 5576
" % 5576
G et@ 5575
Objec ts@ 5574
gb c@ 5574
Primary Exp 5570
s uccess@ 5567
S im 5565
H ist 5565
Asyn c 5564
Algorith m@ 5563
compon ent 5562
Linked List@ 5561
C UP@ 5561
in sert 5559
T P 5558
en ant 5556
Sh ort@ 5554
re q@ 5550
Permis sion@ 5547
STR ING@ 5546
Polic y 5543
For Key@ 5543
man age 5542
e qu 5538
Buffered Reader@ 5537
L I 5534
Algorith m 5526
us h@ 5525
Met adata@ 5524
class Name@ 5511
O B 5510
Su ite@ 5508
n um@ 5508
f ull 5507
p attern@ 5506
2 6 5504
it or 5502
gan iz 5502
dis pose@ 5501
R ange 5500
St and 5499
Manage ment 5498
Rule Call@ 5497
Fl at 5496
P OR 5494
Axis Fault@ 5490
( "@ 5489
Be fore 5483
On e 5481
U se 5479
ook ie@ 5471
Chang ed 5470
R andom@ 5469
met adata@ 5468
On t 5465
r en 5465
J son 5464
ate s@ 5463
now led 5463
NS Mutable 5461
get Attribute 5459
de legate@ 5458
u ce 5457
uc tion 5449
get Log@ 5448
an k@ 5443
Rol e@ 5436
file s@ 5436
H t 5436
Prox y 5432
Consum er@ 5431
T AG 5428
Hash table@ 5427
String Utils@ 5424
_ Fields@ 5423
1. 0@ 5422
\xa0 \xa0 5422
sec ond 5421
send Message@ 5418
av ed 5415
S ur 5407
Sign ature 5406
Pr ere 5404
Pub lic 5404
at t 5402
a 4@ 5398
uclidi an 5397
Uti l 5394
y lon@ 5394
Token izer@ 5393
s ave@ 5391
E S_ 5389
av er 5384
as List@ 5382
grid BagConstraints@ 5380
key Set@ 5377
Imp ort 5377
mo ve 5377
instan ce 5375
NO T_ 5369
"< / 5368
Specific ation@ 5364
Ret urn@ 5362
L if 5360
set Layout@ 5359
Car bon 5358
em e 5356
Registry Exception@ 5355
ass oci 5354
cl one@ 5353
Workben ch 5352
Pl ace 5345
ele ments@ 5343
Dis patch 5341
2 02 5341
", "@ 5339
Change Event@ 5337
cd om@ 5333
SO AP 5331
e ar 5329
con text 5328
Con d@ 5324
ti c@ 5321
ay load@ 5319
g in@ 5317
ch ron 5314
In st 5314
S n 5314
1 l@ 5312
File InputStream@ 5307
Package Impl@ 5307
lon g 5307
Ver tex@ 5306
st op 5305
State Exception@ 5303
Invoc ation 5303
D ER@ 5297
fil l 5294
hel per@ 5292
get X@ 5292
Parse Exception@ 5285
getM ax 5283
LO G 5282
e o@ 5280
s 1@ 5280
ev @ 5279
S AM 5279
met amodel@ 5275
Fl ag@ 5270
An im 5270
o 1@ 5267
Z @ 5265
ME SS 5264
CH AN 5262
Pre fix 5260
Uni que 5260
c ustom 5260
N ative 5259
Fac et@ 5258
Structural Feature 5256
W AR 5254
Al low 5249
Wor ld@ 5248
2 9 5241
rule s@ 5238
Instance s@ 5237
Instan ces 5233
b ody@ 5233
trans port@ 5232
MAX_ VALUE@ 5231
RO O 5228
Priv ate 5227
view s@ 5226
C ES 5225
Sel ector@ 5224
" s 5224
ap se@ 5218
refl ect@ 5214
S E@ 5213
Ax is@ 5211
D OM 5209
h p@ 5207
Sh ared 5207
Num er 5206
b io@ 5206
en viron 5205
HttpServlet Request@ 5205
per mis 5202
H OR 5202
get O 5198
ap sh 5196
Compound Command@ 5192
e 1@ 5192
Fol der 5184
i k 5183
Altern ativ 5182
inv oke@ 5181
B E 5181
d ao@ 5180
S INGL 5178
id s@ 5177
T EN 5177
get Owned 5176
STAT U 5175
state ment@ 5174
Comp il 5170
r ule@ 5169
r ange@ 5168
ut d 5168
m ock 5164
f etch 5160
SO URC 5156
or i 5156
si g 5152
" p 5151
a ff 5149
ge os@ 5147
N ext 5146
00 0 5144
M ock 5138
editing Domain@ 5137
add ress@ 5136
play er 5136
o ff@ 5134
Align ment@ 5134
conn ection 5133
m it@ 5132
getSel ected 5131
c or 5130
Permis sion 5129
sle ep@ 5129
5 5 5124
le ft 5122
Qual ifier@ 5121
entry Rule 5121
Format Exception@ 5119
ol der 5119
n l 5118
" )"@ 5117
Vis AD 5115
M atch@ 5115
R est 5115
3 . 5114
t or@ 5112
A D_ 5108
SI G 5107
he ader@ 5102
R UL 5098
Column s@ 5096
par ts@ 5095
i ve 5095
CO UNT@ 5093
lic k 5092
Layout Data@ 5088
Click Listener@ 5087
able s@ 5087
Assign ment@ 5086
contr ol@ 5083
ib ern 5082
E V 5082
sup port@ 5081
M g 5080
25 5@ 5079
N _ 5077
ator s@ 5073
lo t@ 5071
emp ty 5070
n odes@ 5070
MEN T_ 5070
char acter@ 5061
S m 5061
G EN 5061
st ation@ 5060
p age@ 5057
des cript 5055
k nown 5054
V o 5053
wind ow@ 5051
get Y@ 5049
Coord in 5048
Mar k 5042
ot al 5042
l ers@ 5040
/ "@ 5036
J Button@ 5034
ed it@ 5032
dec lar 5032
an aly 5029
2 _ 5028
a 3@ 5027
Operation Exception@ 5025
S Y 5023
b ound 5019
yp er 5018
get _ 5017
il es 5014
sis t@ 5013
get Data@ 5012
Jo in 5011
set Visible@ 5007
u sh 5007
Trans port 5005
cal cul 5005
orizont al 5004
On ly@ 5003
M Bean 5000
G lobal 4997
dom ain 4992
sel ection 4989
W avelet 4985
Pro pos 4983
c p 4983
que ue 4982
j ena@ 4981
c ause@ 4979
op e 4979
li br 4977
ifi ers@ 4976
control ler@ 4976
_in _ 4966
listen ers@ 4963
molec ule@ 4963
o ff 4962
Lex eme@ 4961
r d 4957
th read 4956
find View 4955
ger rit@ 4955
spec @ 4953
ot o 4949
D est 4948
S creen 4948
ON _ 4945
sett ings@ 4944
call back@ 4943
si mp 4942
getS h 4942
0 4 4940
sh ar 4939
mem ber 4937
syn apse@ 4935
" k 4935
P assword@ 4934
end ing 4931
n io@ 4930
ht ml@ 4926
ax i 4924
attri bute@ 4920
d ig 4919
AC K 4916
Illegal StateException@ 4913
valid ate@ 4912
get Task 4912
ab il 4910
c ache 4907
0x 1 4906
getActive Resource@ 4905
ifi ed@ 4904
E ff 4903
ExpectedModel For 4902
Point er@ 4895
Atom ic 4894
Err ors@ 4893
T rig 4893
rig ht 4890
aliz ed 4888
findView ById@ 4888
8 8 4885
axi om@ 4883
Visib ility@ 4881
nowled ge 4878
s ock 4878
Fi x 4876
h pl@ 4872
ch ang 4871
j og 4866
i m@ 4865
des c@ 4864
C _ 4864
as sign 4863
Se g 4863
js on 4863
Tab @ 4860
ad at 4854
e k@ 4848
s m@ 4848
found ation@ 4846
l in@ 4843
Inter val@ 4840
Frag ment 4840
Di agnos 4839
DEBU G@ 4838
F ER 4838
op en@ 4837
butt on 4832
op tion 4831
Sp ace@ 4829
To ols@ 4828
a fe 4826
Key Event@ 4824
Class es@ 4820
St ation@ 4819
SAX Exception@ 4819
TER _ 4819
D ynamic 4817
In str 4816
JSON Object@ 4815
EN G 4815
", \xa0 4811
men u@ 4810
Delet e 4805
c b 4805
excep tions@ 4802
Choi ce@ 4801
b ed 4801
Ch eck@ 4799
g o@ 4796
D b 4795
Sty le 4795
ON @ 4794
B ad 4794
To wn 4786
j ax 4782
mar y@ 4782
Cal cul 4782
getL ast 4780
Ad d@ 4778
SC R 4778
Mod ule 4777
mo b 4775
B ody 4770
at tach 4766
Re ad@ 4766
En vel 4765
par t@ 4762
Devi ce@ 4761
A UT 4760
0x ff@ 4759
by t 4755
st op@ 4753
Type Impl@ 4752
tr an 4749
ul ar 4747
Ch oo 4745
F amil 4743
Ret urn 4740
t ax 4740
tic al 4738
x 1@ 4738
FI LE_ 4736
exten sion@ 4734
n f 4733
S M 4733
Cer t 4726
ac cept@ 4724
OR DER 4723
get Object 4722
W S 4720
get Content 4719
Lower Case@ 4710
Decim al@ 4708
mb ols@ 4706
notif y@ 4706
0x7 f 4704
b ook 4703
Construct or@ 4701
Ob j 4699
log 4j@ 4698
VisAD Exception@ 4698
qu is 4696
" :"@ 4693
set C 4693
sequ ence 4688
t "@ 4688
lo ader@ 4687
1 02 4687
met ri 4686
ot e@ 4686
CDOM Object@ 4686
Imp lement 4686
3 6 4686
; "@ 4683
l angu 4678
getT ar 4673
tr ace 4672
cl ust 4665
L at 4663
as ed 4663
activ ity@ 4662
Data Type@ 4659
Tri ple@ 4658
graph ics@ 4657
s um@ 4656
Datab ase@ 4655
a f@ 4653
resol ve 4650
1 7@ 4650
view ers@ 4649
"C "@ 4648
as ter 4643
g 2@ 4643
set LayoutData@ 4642
al low 4640
Categ ory 4639
N S_ 4639
" [ 4637
Coun ter@ 4636
U E@ 4633
attribu tes@ 4633
loc @ 4632
u al@ 4632
pre vi 4632
ti tu 4631
set Up@ 4628
p as 4627
Text Field@ 4626
IC @ 4626
Ex ternal 4625
Text View@ 4624
match es@ 4623
C ip 4623
n el 4620
_M E 4619
__ 0 4618
KE Y 4617
3 d@ 4612
st or 4612
Pre ferred 4611
i2 p@ 4609
Regis tr 4608
Socket Address@ 4607
js on@ 4603
202 83@ 4603
V I 4603
T ION@ 4600
P attern 4600
res et@ 4600
O p@ 4593
I T_ 4591
Net work 4590
in f@ 4589
li b@ 4580
OP ER 4578
get Context@ 4578
u k@ 4575
Format ter@ 4575
_in _rule 4574
r ag 4573
In sets@ 4573
b a 4572
F R 4571
riteri a@ 4570
u a 4569
Mem ber@ 4567
an y@ 4567
l es 4566
Admin Service 4564
Tool kit@ 4562
3 0 4561
b 3@ 4561
", \xa0"@ 4556
OCL std 4555
Date Format@ 4551
ack @ 4551
sys tem 4551
Identi ty 4550
get File 4550
p 2@ 4550
S li 4544
I TY@ 4544
Co ords@ 4543
d oub 4543
yp e 4542
er ializ 4540
Re lease 4539
W E 4539
c a 4539
Prog ress@ 4535
re p 4529
X _ 4523
AN D 4523
Reg ion 4522
en able 4519
C t 4518
G lob 4517
Defin ition 4513
Rec t@ 4510
G en@ 4510
LE T 4508
adat a 4507
AR @ 4506
to LowerCase@ 4502
get Parent@ 4501
B AM 4501
Detail s@ 4499
_C O 4499
r ap@ 4497
add Bond@ 4492
Certific ate@ 4492
get Height@ 4491
Logg ing 4489
3 1@ 4488
objec ts@ 4485
pu te 4485
Name "@ 4481
cept or@ 4477
st mt@ 4476
Expression sPackage@ 4475
IV E_ 4474
Num @ 4474
getL ength@ 4473
_ context@ 4473
Ter min 4472
arg uments@ 4470
R ou 4469
Po inter 4468
sy mbol 4466
L A@ 4463
Pol y 4462
_C H 4462
c assand 4461
Mod ifier@ 4460
has More 4457
Listen er 4456
Sel ect 4454
E Package@ 4450
he ad 4449
CE P 4449
orig inal 4448
ere ot 4446
B P 4446
e q@ 4444
L aunch 4442
T EM 4442
assert Null@ 4441
chedul er@ 4440
Tim er@ 4439
F etch 4439
group s@ 4436
Byte Array@ 4434
Associ ation@ 4433
5 . 4429
Activ e@ 4428
get A 4428
b ot 4427
1 8@ 4425
o f 4420
Id "@ 4419
End point@ 4418
id enti 4418
7 7 4418
tic s 4417
R S 4415
par e@ 4413
S k 4411
6 6 4411
get Data 4409
Stand ard 4408
s kil 4408
RE G 4408
b le@ 4406
K nowledge 4404
Tw it 4402
a im 4399
ad e 4396
get Service 4395
in _ 4395
P rec 4394
Compar is 4393
M ime 4393
O U 4392
resol ve@ 4391
L ed 4391
pan el@ 4390
Af ter 4388
__Impl _in_rule__ 4388
st ore 4387
o ot 4387
__ Impl@ 4386
s ax@ 4385
op ro 4384
" H 4384
M ax@ 4383
i ties@ 4382
K er 4374
re ak 4373
Logger Factory@ 4368
v m 4368
X ML@ 4365
I Path@ 4365
ION __ 4363
P C@ 4362
oc l 4362
pro t@ 4358
intern al 4358
L ENG 4355
Stream Reader@ 4353
lv _ 4353
ing _ 4350
dis play@ 4344
conn ect@ 4344
F ull 4343
app ly 4342
get Column 4342
Plat form 4341
O ff 4340
own ed 4336
pr ere 4335
" x 4335
w ay 4334
Writ able@ 4329
ht ml 4327
Se parator@ 4326
f 4j@ 4325
Pr incip 4325
l l@ 4325
get Width@ 4324
get Time@ 4323
b ar@ 4321
un set 4320
eng th 4317
fl ush@ 4315
command s@ 4313
ad min 4312
gro und 4311
ap e 4309
C ST 4308
sl f4j@ 4307
ter s@ 4306
tre e 4305
M AN 4303
Instances Of@ 4301
AT OR@ 4300
UT F 4300
Mouse Event@ 4298
Arg uments@ 4298
L et 4298
n on 4296
" Test 4295
Sim ul 4293
Head ers@ 4292
ar tifact 4291
nam espace 4291
I con 4291
inf o 4291
Unsupported OperationException@ 4291
RUL E_ 4290
vis ad@ 4288
Prod uct 4288
d en 4288
u e"@ 4287
4 8 4287
Path s@ 4286
Per son 4286
Ro le 4286
Big Decimal@ 4286
ix el 4280
Pop up 4279
pre ference 4278
ByteArray InputStream@ 4274
ERVIC E_ 4273
A T@ 4270
2 1@ 4270
om e 4269
Initi al 4266
GE T_ 4265
Persistence Lay 4265
su re 4265
is In 4262
wsd l 4260
enum er 4258
Rec ipi 4256
u tion@ 4252
1 9@ 4251
fin d@ 4250
W OR 4250
ation Impl@ 4248
t p 4245
U UID@ 4244
Skil l@ 4243
L AS 4240
ce ylon@ 4240
Edition Component@ 4232
properties EditionComponent@ 4232
un k@ 4231
aw n 4228
enc y@ 4226
TO K 4219
St atic 4213
I 2 4210
Bon d 4210
act ual 4209
M IN 4205
5 9 4201
Fl ags@ 4200
ch annel 4200
statu s 4199
Re ferences 4198
arg 0@ 4197
PersistenceLay erException@ 4196
action Performed@ 4195
coun ter@ 4193
EN TER@ 4193
bo ard 4192
Libr ary@ 4191
Label Provider@ 4186
ex ist 4186
he ader 4185
view er@ 4184
obj s@ 4180
vi d 4178
V alid@ 4176
E G 4176
_ ber 4175
P U 4174
Pri ority@ 4172
w s@ 4171
RE D_ 4169
S ection 4169
get Key 4169
ach ed 4167
Ex ists@ 4166
dp p@ 4166
cal l@ 4163
fu _ber 4163
fu_ber lin@ 4163
loc ation 4161
RE D@ 4160
ential OCL 4160
Medi a 4159
Relationsh ip@ 4156
our @ 4155
ent ation@ 4151
PAR AME 4151
by te 4150
get Element 4147
add Child@ 4146
add ActionListener@ 4145
B l 4145
P c 4145
Pro ble 4144
Environ ment 4140
re d@ 4140
_1 _0@ 4139
aut h@ 4138
de d@ 4138
ail able@ 4137
C an 4137
N ative@ 4136
S ection@ 4136
V ector 4136
2 00@ 4136
p 1@ 4136
th row 4135
test s@ 4134
Skil l 4133
n s 4133
manage ment@ 4131
eri al@ 4128
Response Handler@ 4125
AC H 4125
ver ify@ 4124
de f 4124
String Tokenizer@ 4124
e k 4124
Mem ory 4123
i al@ 4123
s aved 4120
iz ed 4118
b 1@ 4117
u ce@ 4116
Border Layout@ 4116
_M O 4116
_S IZ 4115
r t@ 4115
n ow@ 4109
Cre ate@ 4108
Chat Color@ 4108
B row 4108
O K@ 4105
2 2@ 4101
Com ment 4098
get Parameter@ 4098
reference ValueFor 4098
GL _ 4098
get Parameter 4097
Ob serv 4096
active Char@ 4095
E uclidian 4095
} "@ 4094
c ryp 4091
d um 4090
D S 4088
H ome@ 4087
app server@ 4085
ES T@ 4084
AL L_ 4083
E L@ 4082
test Get 4081
G ame 4080
AC E@ 4079
Dis t 4075
SIG N 4073
To ol@ 4071
E "@ 4071
st udio@ 4067
OWN ED_ 4067
Deploy ment 4067
Z one@ 4064
D IS 4064
Chem Object 4063
COM P 4060
m av 4059
Prere quis 4059
" tr 4057
vis it@ 4055
P K 4054
dro ols@ 4053
Af ter@ 4053
0 l@ 4053
Time out@ 4052
Block s@ 4052
End point 4051
GEN ER 4048
OCLstd lib 4045
a it@ 4042
m ath@ 4041
Structured Selection@ 4040
Clic k@ 4036
add r@ 4034
res h@ 4034
reposit ory@ 4033
uc cess 4031
f act 4030
Run time@ 4029
in ation 4028
ES PAC 4025
Notification Chain@ 4020
e j 4020
Grid Layout@ 4016
8 "@ 4015
c p@ 4013
SINGL E@ 4013
L IS 4012
R ound 4012
e- 01@ 4011
EC T 4011
Lis p 4010
Mapp er@ 4009
Bit s@ 4009
f s 4008
Inet Address@ 4007
doub le 4007
Log in 4006
m ach 4006
Dir ection@ 4004
get Location@ 4004
Method s@ 4002
iv ed 4002
D um 4002
ac es@ 4001
"\\ \\ 3999
_ p 3998
F ind 3992
set Attribute@ 3989
Ele m@ 3989
lic it 3989
Certific ate 3989
h older@ 3987
c 1@ 3987
vis ion@ 3986
re lease 3984
4 0@ 3984
I ProgressMonitor@ 3979
and id 3978
get Property 3973
h er@ 3973
dat ac 3966
li fer 3965
wind ow 3965
3 5 3965
Schem a@ 3963
Bund le 3962
Descript or 3961
Hel p 3959
A u 3959
Emp loy 3958
complet e 3957
s creen 3957
AT E@ 3956
lifer ay@ 3956
ip p 3955
D S@ 3954
MEN T@ 3951
Sp ell 3950
Back ground@ 3949
net work@ 3947
C or 3947
Th e 3942
s List@ 3942
Boo k 3941
de vi 3940
get Atom@ 3935
test ng@ 3935
un der 3934
Di ff 3928
c r@ 3928
J t 3928
Comparis on@ 3928
S plit 3924
e e@ 3920
par ti 3919
In it 3916
Ag greg 3914
set Type@ 3914
schem a 3913
Test Suite@ 3911
File OutputStream@ 3911
Ker nel@ 3909
Ar g@ 3907
ELEMEN T_ 3905
ap i 3904
U G 3902
App li 3901
boo lean 3899
SCR IP 3899
e+ 01@ 3897
v m@ 3897
li mit@ 3896
In verse 3895
" value 3892
0x 000000 3891
Typ es 3890
descript or@ 3890
x pd 3890
di tions@ 3889
' "@ 3889
y 1@ 3889
_ present 3888
C red 3888
Trans port@ 3886
ri ver 3886
form ed 3886
simp le 3886
TEM PL 3886
T U 3886
Nam espace 3885
sty le@ 3885
al ph 3883
dat an 3882
r ange 3880
lo op 3880
3 7 3879
pr et 3874
Pre dic 3873
C ase 3871
A "@ 3870
n s@ 3869
op eng 3868
pl at 3868
To String@ 3868
g ed 3868
set Id@ 3867
get Ac 3864
ex p@ 3862
ac cess 3862
com pute 3862
TEX T_ 3861
c od 3858
Fi g 3850
RES UL 3850
v as@ 3848
c l@ 3848
build er 3845
N D@ 3845
categ ory 3845
i con 3845
hand le@ 3843
e per@ 3843
Order ed 3842
e et 3841
Ar tifact@ 3841
m g 3840
E D 3835
s In 3834
rm i@ 3833
get Start 3831
L en@ 3831
h at@ 3831
dis t 3831
a e@ 3830
w izard 3829
___ uri@ 3828
___ local@ 3828
Selection Listener@ 3827
getS ub 3827
co ord 3826
2 3@ 3825
EN TI 3823
o f@ 3822
4 0 3821
IN T@ 3819
S end 3819
0x 8 3818
Ht ml 3814
li p@ 3813
next Token@ 3812
E DEFAULT@ 3811
om et 3809
ed w 3809
Medi ator@ 3807
it ch 3806
ex c@ 3805
Util ity@ 3805
Behavi or@ 3802
categ ory@ 3801
ex pr@ 3795
ach ed@ 3793
EN D_ 3793
ac cess@ 3790
C M 3789
getN ext 3788
V O@ 3785
IGH T@ 3784
r 1@ 3782
cur sor@ 3782
butt on@ 3782
c ol@ 3780
AL L@ 3779
Child ren@ 3779
mod ule 3777
Tree Node@ 3777
prox y 3777
D OC 3776
V AR 3774
3 8 3774
Glob als@ 3772
Per spec 3769
HOR IZ 3768
M X 3768
c "@ 3768
St at@ 3766
red hat@ 3766
Cop y@ 3763
Track er@ 3762
ffff ffff 3760
el ine@ 3756
v ance 3755
MESS AGE_ 3755
get Description@ 3754
b o@ 3753
get Message 3753
Sett ings 3751
bjec t 3750
Iter able@ 3749
openg l@ 3747
tu re 3745
u id@ 3744
IN T_ 3743
En tries@ 3742
get Un 3742
LE F 3742
Child Descriptors@ 3740
entry Set@ 3739
AS K@ 3739
Or ganiz 3739
b 4@ 3736
expres sions@ 3734
res et 3734
y aff 3732
auth entic 3730
Del ta@ 3730
get Work 3730
sh utd 3729
rel ationsh 3727
Th ri 3727
6 7 3727
t f 3723
S cript@ 3723
M I 3722
String Value@ 3721
Ap p@ 3719
L AN 3719
al gorith 3718
an ti 3718
ro ss 3717
Fi rst@ 3716
Mapp ing 3715
Lin es@ 3714
opro t@ 3714
add Component@ 3713
r ub 3712
EL _ 3711
Evalu ator@ 3710
v 1@ 3710
x 2@ 3709
s Exception@ 3709
amp a 3706
get Status@ 3706
t 1@ 3706
- "@ 3705
c le@ 3703
sd k@ 3703
C ookie@ 3703
e Object@ 3702
ele m@ 3701
I QU 3701
debu g 3701
user Name@ 3699
array copy@ 3699
\\ u 3698
c y 3696
R aw 3694
ang le 3694
Stat s@ 3691
cle an 3689
5 "@ 3689
Stati c@ 3688
Notif y 3688
Twit ter 3688
P tr@ 3687
end sWith@ 3687
tern al@ 3686
