e r
i n
o n
r e
s t
o r
a t
e n
t h
l i
s e
l e
t i
a n
g e
a l
t e
a r
c e
d e
r o
c o
s s
m e
in g
m p
r i
li c
ge t
u r
i s
th e
en t
a c
ti on
p u
at e
c on
n e
f i
i d
st r
e x
l a
at i
u l
i mp
pu b
t y
pub lic
or t
c h
e c
l o
t o
a p
a d
u n
e d
str ing
in t
re t
u e
a me
p ro
i t
ur n
ret urn
i f
o f
n o
imp ort
se t
ne w
b u
ati on
s er
s i
f or
n ame
a ge
th is
p e
p tion
d i
v er
m ent
m o
p er
a b
o u
p ar
e l
or g
an d
a s
t r
a v
t er
re s
ul l
ex ce
f in
a m
c la
ty pe
x t
n ull
v al
exce ption
i l
\ \
li st
v i
q u
ec t
d er
cla ss
0 0
lic en
o b
licen se
v o
b o
val ue
j ect
p o
d o
u p
en d
h t
te xt
c t
av a
p ri
fi le
fin al
vo id
ab le
i o
co m
con t
k e
b e
a ss
ro w
m a
e s
j ava
ou t
f o
ac k
te st
i th
h e
a re
v ate
s u
ri bu
ad d
ul t
co mp
d at
pri vate
s p
s h
a g
ob ject
b y
te d
\ '
th row
f a
no t
ati c
o ur
u m
a se
p re
st atic
en er
le ment
r a
c tion
ac t
u ti
w ith
co de
co l
ap p
pu t
uti l
dat a
f er
no de
l in
er t
c re
lo c
al l
v e
our ce
an ce
lo g
s c
par am
or y
ass ert
ke y
e m
e v
u ser
m ap
ss i
mo de
bo o
a li
al s
o l
int er
w or
for m
ac he
u se
e lement
si on
p at
con text
g ht
n t
ssi on
pro per
le an
e qu
do c
o p
cre ate
res ult
boo lean
o ver
in st
vi ce
me ss
la y
tr ue
throw s
s y
p y
ti me
u le
mess age
un d
ev ent
q ue
mode l
re ad
p ack
d ate
z e
el d
equ als
co py
b le
ser vice
i te
fi eld
en ce
m l
g ro
g ener
at or
li p
pack age
i c
g n
a u
at t
a in
at ch
ac tion
u s
o d
w ri
di st
lip se
an t
inst ance
t p
pat h
l en
c ur
ra y
ribu te
i m
ap ache
g er
st ate
p ort
ver sion
ec lipse
u re
ar ray
f al
m an
fal se
g in
en ti
gro up
e w
fi g
in de
ce ss
p t
on g
si ze
g r
un der
h as
f act
t w
ht tp
me th
l u
m s
ar t
w w
vi ew
inde x
m i
con fig
se e
w h
ri ght
meth od
el se
que st
c ted
an y
cont ent
l y
proper ty
com m
c ase
over ri
re e
er r
att ribute
lin k
overri de
r an
ex t
sc ri
y ou
l l
bu il
wor k
g u
re quest
by te
fa ult
dist ribu
s of
ti es
r ule
res ource
t a
s ource
w ar
w e
g i
p r
co un
b er
lo w
tw are
l an
sof tware
de fault
h and
su b
ite m
ed it
g th
x ml
ch an
th at
len gth
in fo
st art
bu f
f ro
t able
f e
st re
err or
in d
fro m
se le
l ong
on e
in put
co re
tr an
stre am
ate d
fact ory
o c
st em
qu er
sp ec
r un
sy stem
cur re
r y
au th
n um
u i
th er
ar y
quer y
a y
ag er
cont ain
list ener
fer ence
a ce
coun t
0 1
man ager
pro te
m in
n g
loc k
s w
tr y
d is
n s
sh o
n al
lin e
ec k
ex pre
bu t
fi c
ch eck
prote cted
o m
curre nt
h o
in te
f r
de scri
distribu ted
w n
re mo
copy right
par ame
parame ter
lo ad
imp l
st at
b ase
c li
ation s
app end
ex p
con ne
p lay
u ri
op en
k en
on ent
fa ce
mo d
inter nal
res p
c atch
l er
t ing
ch ar
cli ent
i p
v ali
ent ry
comp onent
end s
tran s
le t
buil der
in c
with out
u ct
to ken
or der
di tion
enti ty
ma y
buf fer
ur l
chan ge
c an
resp on
spec i
po s
ser ver
im age
v is
o g
i g
p are
edit or
1 0
ar d
o per
o ption
war ran
col um
c al
d ou
s o
la b
re ct
dou ble
ext ends
il d
su per
de d
c or
c all
ne xt
fo und
v ar
pro ject
m ar
col le
fi l
auth or
re gi
pr int
fo l
as k
2 00
re f
v id
sp ace
wri te
il l
av e
0 x
po int
ar ch
i st
hand ler
te mp
p age
fil ter
respon se
v ed
ch ild
ar g
it er
stat us
ne t
t ar
has h
form at
w id
ww w
. 0
app lic
d s
ul d
tar get
re ference
c lo
u ment
u st
ac ti
le ss
t ag
num ber
lab el
o ther
se ssion
m y
gn u
out put
inte ger
i re
wh i
o t
b ack
be an
up date
doc ument
lay out
f f
java x
a k
s on
ma x
st o
ur ation
imp lement
i li
n on
le d
n ing
str uct
m er
p an
pro cess
colum n
at ure
s up
or i
re p
un it
pare nt
li ed
colle ction
vid er
con dition
comm and
t ask
b lock
ex ec
mi ssion
m atch
pro vider
no ti
fr ame
col or
sto re
proper ties
con st
gener al
ac cess
le g
e t
re ss
g o
ap i
conne ction
an not
a mp
log ger
st er
expre ssion
s q
re qu
a x
u te
par ser
ab str
re n
d b
abstr act
m at
m it
b r
ti c
per mission
w ill
u t
m en
e p
gener ated
t on
imp lied
s ch
fi x
ili ty
he ad
la st
gr am
a st
const ant
cont ro
sho uld
config uration
par t
l s
ro ot
f lo
ali z
ac h
l ate
ap h
st ack
r c
but ton
fi r
f ree
o s
remo ve
de fin
ma in
requ ire
1 2
value s
t ree
sq l
i tion
ser i
ith er
vali d
gr aph
si tion
se arch
b re
to ol
g en
e mp
util s
i z
pt or
bu g
p lu
di rect
e ither
1 1
license s
par se
c ache
of f
fi er
bre ak
wor d
f un
c k
fir st
le te
gu age
lan guage
2 01
ke t
f t
ar gu
k er
th read
argu ment
lan g
00 00
inter face
loc al
i r
v el
we b
fe ature
require d
be gin
plu gin
la ble
b ind
l at
b it
n c
loc ation
imp le
condition s
c l
k ind
return s
mo re
ne l
comm on
me m
a le
contain er
o k
fi ed
fol low
p a
ce ll
iter ator
a f
read er
clo se
p h
use d
flo at
play er
pro to
d ing
speci fic
ad ap
li mit
head er
wri ter
run time
t ri
mod ule
oper ation
fin d
h el
pan el
ht ml
st y
de bug
in i
ini ti
descri ption
d y
le vel
if y
ser v
al og
fun ction
type s
de p
m on
ta il
var i
instance of
c ate
constant s
po sition
descri ptor
emp ty
c s
u al
vis i
si te
s rc
ro id
sty le
temp late
la ce
s imple
ab ility
en able
se c
- 1
sele ct
b und
wid th
j o
annot ation
p i
sele ction
di r
warran ty
e ma
i ght
l n
on t
found ation
me ta
and roid
off set
de tail
ter n
cont ribu
si gn
amp le
ec ted
add ress
ext en
re l
h ave
ter ms
h er
j son
ob j
bund le
leg al
t le
m ul
bo x
res ol
buil d
t or
adap ter
re cor
pos it
ri d
r on
applic ation
inc lu
permission s
0 2
si st
ms g
to p
l r
warran ties
men u
arg s
re ce
print ln
pro d
1 3
ra w
re posit
di alog
b in
set ting
ava i
t ain
rece i
po se
i e
w r
whi ch
i ty
con ver
pro gram
ol d
fo re
serv let
ob tain
defin ition
ti tle
name s
w t
c le
frame work
it or
ren der
vari able
expre ss
contain s
j ob
mo ck
name space
hand le
mo di
avai lable
reposit ory
ant lr
de lete
contribu tor
form ation
i gn
on ly
ran ge
l d
o wn
ex ist
n er
re port
s ing
do wn
fic ation
res ent
par tic
state ment
w in
g over
s in
en um
li br
p ass
se qu
ne d
m app
per sist
pro p
re g
f s
implement s
bo und
wh en
port al
con struct
v en
b as
go og
byte s
attribute s
ul ar
n ls
1 6
acti vi
d a
pre fix
goog le
exce pt
whi le
li ance
applic able
w s
fa il
license d
ho st
wri ting
regi str
u tion
c a
mul ti
e u
libr ary
or ted
n i
bind ing
dis play
distribu tion
enable d
fi t
re d
en c
it ch
bas is
comp liance
exp ected
detail s
li fer
lifer ay
me t
sele cted
2 .0
limit ations
he ight
li sh
un less
gover ning
wid get
b ar
u id
i es
less er
seri aliz
exten sion
parameter s
recor d
re ed
comp o
dat ab
trans action
own er
s b
f la
contro l
activi ty
r ing
la w
ati ve
in formation
s co
set s
hel per
w i
g rid
ag reed
sw itch
ment s
h i
win do
c ap
un i
pat tern
direct ory
in vo
mem ber
sh ort
mapp ing
ge o
b a
p ur
s oc
uri ty
f ul
pub lish
2 5
ro le
s v
j unit
ass ign
1 5
option s
9 9
sec urity
field s
in it
ne ss
j j
con str
x y
param s
sch ema
id enti
tr ack
au to
2 0
le ft
comp ar
s end
in s
il legal
sy n
sw t
s k
l t
se s
in di
r t
s ol
mod ify
1 4
cate g
sho w
datab ase
g l
chan nel
se d
sup p
load er
pre ference
ll er
sequ ence
implement ation
ser ved
f low
i con
sw ing
j et
a int
m ust
ic s
gi ven
c ust
right s
f ont
af ter
setting s
pur pose
scri pt
registr y
do main
partic ular
be fore
ac ce
fol der
li ter
re served
rep lace
windo w
pro vi
fla g
file s
de f
ev en
regi ster
message s
construct or
c lu
que ue
f ull
sco pe
at a
de cl
i led
ch ant
sp ring
ac ter
1 8
acti ve
tr ace
0 .
sh ip
char acter
y our
de st
00 0
i on
sup port
element s
mar k
it s
fit ness
c m
ect or
se con
w ay
ex ample
constr aint
m ary
al low
t s
b ra
ori gin
po st
exec ute
en gin
mer chant
x text
er e
s ave
cle ar
cur s
merchant ability
met ad
engin e
cust om
st op
t ab
metad ata
ma ke
change d
proto col
resource s
remo te
ti ve
lic k
contro ller
categ ory
w a
p si
comp le
or d
noti ce
b l
use ful
ch ron
un k
3 2
persist ence
ig no
wr ap
me di
li t
3 0
lo b
pro xy
pass word
r s
bo dy
ent er
mat h
p l
po lic
ex pr
h ol
wor ld
liter al
fa iled
do m
re st
result s
0000 0000
contributor s
s m
bo ss
d raw
in valid
identi fier
noti fication
all y
ass ist
lat er
dist ribute
2 4
mon itor
ac count
view er
trans form
child ren
recei ved
publish ed
st or
0 9
c ation
d t
er i
da o
t t
iz ed
tr a
de c
c lick
process or
re co
n or
v ector
g le
cal end
node s
sy m
calend ar
em f
ct or
assign ment
mat eri
in ser
compo site
con f
su ite
su c
ma il
ite ms
1 7
bin ary
ax is
call back
d ay
speci fied
bra ins
port let
pro g
ch o
supp orted
d f
polic y
de sc
c i
ic k
ad min
o w
lo ok
si c
war ning
en co
n am
me d
wh ere
initi al
ar ti
struct ure
at tr
service s
c at
e val
key s
decl ar
ho pe
st ep
6 4
fo o
re distribute
con su
st u
comp any
a ad
e f
r and
prog ress
s ses
w as
t al
method s
syn chron
g ing
test s
2 3
compar ator
boo k
b order
a wt
int ent
igno re
ad dition
create d
oc l
lo y
ass oc
d ro
as f
d l
inte l
final ly
lay er
object s
g ame
ct x
ou s
ker nel
v m
at om
vali date
ro ll
content assist
aad l
sin ce
201 1
se ction
1 9
jet brains
z er
no w
regi on
hol der
loc ale
suc cess
event s
po ol
u res
prod uct
wa it
tr act
k it
rel ation
s ort
provi ded
p le
curs or
m il
d if
ac ket
s n
p c
dep end
visi on
p resent
follow ing
vi rt
j av
man age
c ard
s en
no te
0 3
sym bo
ali ze
intel li
stor age
co ord
c er
gener ator
origin al
ther e
to do
j boss
soc ket
qu ali
ba sic
th en
su ch
to tal
do es
de leg
m t
com ment
c ast
id s
visi ble
as y
e st
b ig
0 4
ce s
pa ir
pro file
m u
al ong
s ame
inser t
mo ve
cla sses
ed ge
ate s
b i
sc an
assoc i
arti fact
ter min
pan e
su m
sp lit
intelli j
j s
addition al
prod u
per son
sh are
is h
rand om
rep resent
order ed
gram mar
w he
ap e
pri mary
3 4
net work
at ing
an gle
2 2
1 .
secon d
lat form
sing le
u uid
mo use
p lace
f y
g wt
de vice
tool s
time out
gro und
throw able
exist s
vis it
comp il
d r
key word
li b
fr ag
l v
us ing
mp s
ver y
sch ed
w are
0 .0
e ar
c ri
spring framework
enc y
201 0
p s
action s
collection s
qu o
res h
x s
declar ation
ri es
2 .
comp are
s ample
al y
b ro
are a
inclu de
in her
st and
mil li
p acket
i um
i ce
fi ll
p ed
d ri
annot ations
se par
synchron ized
ne ed
ig h
l f
cont act
t mp
in to
comp lete
auth enti
e le
c ance
whe ther
initi aliz
eval u
comm it
an aly
z z
g lob
s cre
clu ster
gener ic
log ging
201 2
p ay
no wn
t ch
resol ver
s a
match er
re c
se len
coun ter
virt ual
exec ution
scre en
6 3
selen ium
se g
el l
lo t
1 00
c p
content s
bound s
conver t
st amp
po pu
sub ject
jo in
ad o
2 7
ho me
mer ge
di ag
v es
conver ter
wrap per
cont in
ach ed
fin der
g h
medi a
si de
enco ding
re al
array s
e ss
wi se
inclu ding
pu sh
re q
valid ation
c r
ter m
bo t
k i
e ff
dep loy
su re
j ax
b ility
g y
link ed
pre ss
gu i
be en
r ad
di men
e ach
ic al
dimen sion
6 7
str ate
e core
fe tch
ent ries
al t
render er
p m
so me
acce pt
mem ory
im um
cal led
ut or
prop s
name d
0000 00
mar ker
colum ns
c ar
clo u
dy nam
ad oc
im al
inher it
argument s
g re
in ation
te x
share d
sv g
jav adoc
re vision
cal c
de l
read y
6 5
pat ch
t xt
a z
m ac
c c
ag ree
symbo l
point s
sub string
materi als
en vi
get s
d en
h ist
de sign
en code
2 8
reco gn
vali dat
0 7
re set
in ject
b en
reg ard
envi ron
c ss
consu mer
glob al
her e
par ti
ema il
other wise
graph ics
variable s
po ssi
ma de
sh ape
exec utor
frag ment
t d
vis itor
resol ve
dynam ic
3 3
j ar
j ust
log in
m b
os ate
po inter
sh all
ab o
inter r
common s
h ado
li ght
i a
hado op
1 .0
gener ate
modi fied
oper ations
n av
oper ator
equ al
example s
environ ment
user name
at ures
pro ble
ff ff
si g
deleg ate
ri x
sv n
ver ify
ad ded
check ed
er s
al f
h av
tw o
act ual
warning s
bo ard
fact or
ch ain
c d
pi x
sc ale
mi ted
p k
p latform
defin ed
att ach
separ ator
sc roll
strate gy
an ti
c f
constraint s
conne ct
z one
uni que
ag ent
so ap
i de
noti fy
d am
5 9
look up
low er
li mited
c enter
uti li
validat or
as set
ge st
c ated
6 6
abo ve
sup press
j db
fo c
b ed
preference s
cance l
p or
group s
b row
listener s
vi ous
stand ard
ep l
work space
th an
c ert
contin ue
re le
owner ship
dec imal
ti le
al g
regard ing
coord in
for med
pre vious
ca use
0 5
create s
me tri
buffer ed
mat rix
un ch
stu b
back ground
milli s
ali gn
to m
h ref
m al
jdb c
sp an
ur ned
end point
time stamp
ro u
ed u
e o
b on
4 5
dri ver
id entity
in ner
4 8
con n
n ative
serializ able
n able
r am
sign ature
n a
th ing
pix el
g t
map per
can not
bean s
sol ution
dam age
de s
dest ination
allow ed
2 9
la unch
ber n
enti al
face s
fe atures
len ame
tag s
d d
ret urned
fe ed
inter val
ex ter
invo ke
pre pare
select or
seri al
mu table
be st
base d
arch i
unk nown
ran k
hi bern
3 5
y y
un t
hibern ate
tran sp
instance s
h igh
sub st
dro p
stat s
6 0
s av
per form
run nable
sy nc
sub scri
n one
exter nal
fi lename
agree ments
flag s
st ri
end ing
comple x
cm d
be hav
a a
recogn ition
re ction
b ir
asy nc
co uld
error s
component s
p ing
en v
sen der
3 7
ret ri
compil er
comp an
sh ell
te ch
ch unk
us a
wi ki
ass er
pa int
m f
foc us
modi fier
200 9
p lan
j face
8 9
hist ory
ch art
exp ect
5 1
id x
nav ig
sk ip
ver ti
y ear
c ached
y pe
qu ick
row s
authenti cation
en e
d u
app ly
ori z
de li
pre di
ori es
s pe
user s
in e
2 6
in str
w iz
tri m
c y
us age
i or
mon th
e e
mo unt
th ri
re distribution
al ready
ac compan
dis cla
ne g
fer red
ali as
work flow
serializ er
thri ft
up le
av en
g reg
x x
enum er
0 8
seg ment
speci al
del ta
g pl
ke ep
dis able
tri g
cri ter
x p
tion s
eff ect
st ar
wiz ard
t x
d uration
ch at
cl one
i ent
ben ch
cre d
dis patch
fin ish
ve lo
f lu
ref resh
calc ul
con current
der i
inst all
j p
i ss
d one
proble m
s ax
rele ase
i al
z ip
un supported
sched ule
t uple
fi re
200 8
pri mi
alg or
iz ation
for ce
m ask
at ype
algor ith
an im
rule s
pro j
trig ger
ro t
rest ri
ac company
fail ure
ref le
down load
d to
accompany ing
ex port
m m
pri ori
top ic
i fier
b m
task s
st mt
h oriz
m aven
de le
red u
ex clu
match es
4 4
mi ss
ver se
po ly
depend ency
di g
com bo
per io
start s
bu sin
di rection
j b
tran sition
interr up
busin ess
s un
cla zz
invo cation
tw e
res co
c u
header s
in f
alf resco
2. 1
h u
d c
set up
subst it
de v
a ded
lo op
me as
ver tex
conne ctor
log y
transp ort
mac ro
ele m
track er
st on
loc ator
horiz ont
initi alize
ow ned
priori ty
class path
accompan ies
8 8
le x
ex tra
jax b
se lf
5 0
config ure
up per
exist ing
1 10
indi vid
hel p
u ction
inter ce
popu p
a mount
widget s
format ter
200 6
b t
ra ft
t u
s ur
token s
secon ds
quali fied
s li
e k
ti mer
match ing
mi me
ex tract
7 7
horizont al
view s
quest ion
o se
al ph
author s
b ag
s ent
algorith m
d on
m id
al tern
bir t
st ics
bo ston
ol s
a i
run ning
in v
am az
flo or
lin es
process ing
b b
work ing
amaz on
2 1
als o
behav ior
manage ment
c lean
w o
co ok
oc curre
s he
predi cate
f ut
3 1
ex it
change s
c v
0x 00000000
5 5
il y
di o
200 0
sho t
st ro
c ent
text ure
rect angle
primi tive
3 9
s core
con tract
run ner
document ation
max imum
pre v
z o
rel ative
dif f
access or
track ing
ef x
dist ance
s is
iz er
co ver
individ ual
war d
lo aded
me an
g b
as on
n u
cre ation
n ms
trans fer
zer o
brow ser
4 0
relation ship
in cre
re po
materi al
b ad
dep th
bu k
multi ple
work bench
ge d
re ge
we ight
flu sh
ab sol
cho ice
wh ite
stro ke
recei ver
absol ute
buk kit
sa fe
l on
ut f
perio d
fut ure
200 5
wor ds
miss ing
remo ved
3 8
associ ated
deploy ment
possi ble
3 6
4 7
li ability
contain ment
1 000
comp ute
h our
part s
f am
criter ia
option al
archi ve
comple tion
meas ure
ro ute
ind ent
ur al
bu s
as h
so le
e me
model s
0 6
custom er
st ati
v y
s d
de lay
diag ram
she et
s f
update d
F F
man y
bit s
sn ap
bot tom
m d
ec tion
200 7
pr inc
seri es
w ire
plugin s
exten ded
princ ip
re store
acti v
pay load
x html
b atch
ed ition
proto buf
de cla
dis pose
h int
m ule
ma ster
de pre
bl ue
u ffff
transform er
ce pt
4 9
command s
l ing
bro ker
f ac
redu ce
se q
enumer ation
module s
de cor
au dio
con sole
soc ial
close d
at temp
interrup ted
exec u
la p
de te
modi fication
a e
r ate
pre ferred
dro ols
cor por
li ke
j ms
i le
ree t
let on
po w
s lot
m is
sch eme
g ra
contain ing
war n
asser tion
de code
e ded
string s
ph one
sy nt
path s
add ing
b ran
do t
way s
rep ly
interce ptor
st reet
6 9
corpor ation
lu c
w ave
throw n
sh if
parti tion
di ction
open api
re ason
instr uction
f ly
trans l
ds l
deri ved
di v
id ent
attach ment
manage d
ag greg
c lipse
doc k
te am
tool kit
b lob
co st
sav ed
pi pe
class ifier
b an
p ret
s le
exp and
align ment
restri ction
f x
5 7
ti p
es cap
bran ch
verti cal
im er
k s
luc ene
s orted
su f
im g
fi f
diction ary
n b
sum mary
nor mal
vo l
m ach
extension s
synt ax
h y
w so
si ve
best solution
discla imer
reference s
se ver
p df
use s
associ ation
res sed
sof t
ne st
iss ue
block s
ro y
tt en
twe en
p as
the y
ce d
efx clipse
8 7
f rank
scan ner
con s
princip al
con cept
ow l
st d
gr ation
be tween
mar shall
jo urn
gr ad
sh ut
em bed
e ve
c up
filter s
fif th
re factor
m age
rege x
n ul
an ch
wri tten
occurre d
exception s
v as
ab out
sm all
journ al
depre cated
h at
ag ing
clou d
form s
xt end
n l
config ur
bit map
cook ie
atom ic
tran si
ec a
pre f
ac ity
alph a
is o
frank lin
c b
represent ation
encode d
h s
0x 7
d ur
redistribution s
at er
enti ties
pro t
per formed
be ing
c ro
quick fix
cat alog
02 110
13 01
image s
sy s
quo te
m atic
si ty
man if
can vas
state s
comp ile
back tracking
go od
utili ties
ali ty
dr ag
mi x
subscri ption
hi er
cer ti
al ert
dif fer
g ate
comm un
resol ved
vo lu
e jb
d up
cor rect
descriptor s
er ic
up load
sig ned
b io
add r
bo th
sing leton
j u
l ar
draw able
visi bility
d n
os gi
u ch
i bm
rad i
f c
member s
char set
ap pro
manif est
enc ry
msg s
6 8
de termin
dele ted
k ale
refactor ing
pri ce
sp i
data set
register ed
ro und
inclu ded
with in
p ending
the me
v ec
fam ily
b eca
kale o
beca use
c dt
substit ute
r df
i to
ar m
shif t
ro om
ty ped
certi fic
proto type
iter able
anch or
the se
geo id
com bin
conne cted
reco ver
nul lable
stri ct
sle ep
m ic
pro c
25 5
rel ated
pro pos
org an
transi ent
ori ent
incre ment
e b
doc s
pe er
r u
clou ds
table s
oc curs
coordin ate
store d
is ion
men ted
ili ties
other s
un checked
system s
5 8
parse d
f ri
snap shot
dest roy
mach ine
p ic
b al
h ex
tic le
al ways
z ed
bo y
metri cs
quali fier
colle ct
j pa
inst anti
p lot
diag no
c ut
fix ed
analy sis
c ket
render ing
ar ticle
re fer
v ing
hier arch
geo me
to o
si tive
co me
p ati
stati stics
lic it
is on
retri eve
recor ds
00 1
face t
partic ip
c and
p la
nam ing
de velo
pati ent
op ti
thread s
per mit
ph ase
un set
u ne
link s
u k
suf fix
t en
call s
st ic
anim ation
ws dl
1 99
000000 02
rou gh
cre ator
pixel s
star ted
p p
char s
g is
character s
ss l
re pe
os m
as se
function s
sub mit
bu cket
ac le
4 2
test ing
list s
r pc
sc a
refle ct
d art
j clouds
for ward
tool ing
app en
d fa
q l
j vm
token izer
po ll
nest ed
m x
ing s
wr app
h ar
r r
c as
bro ad
w atch
b rid
g mf
le af
ex change
geome try
or b
fi es
200 1
e of
bin der
no thing
time s
serializ ation
cla use
re main
dis k
produ cer
c lip
multi p
edit ing
x eo
xs d
persist ent
indi cate
am l
we ek
li f
8 0
th rough
specific ation
min ute
ad v
volu me
shut down
an other
t jp
mic ro
sched ul
recei ve
for ge
in j
y cle
jj fly
tjp editor
jjfly boy
or acle
5 4
w al
seri alize
po p
work s
car bon
au d
navig ation
f sp
pow er
p ho
enti als
ab s
an sw
quo ted
compar ison
k o
ma g
initializ ed
tech no
consu me
acti vate
li g
wri table
as p
in et
certific ate
imple mented
metri c
pl us
sp out
particip ant
ne eded
200 4
d fs
ab ilities
e ad
interface s
sh a
the m
vi de
es per
decla red
rep lic
z y
di gest
o id
label s
nc y
min imum
dat atype
co der
ma li
produ ce
sequ ential
0 l
9 7
st age
g it
compil ation
ho we
howe ver
pas sed
pay ment
disable d
registr ation
s la
j d
code s
j dt
inv ent
analy zer
g c
e default
5 2
wr ong
differ ent
ob server
cred entials
con version
load ing
check s
um b
full y
w ant
design er
nu xeo
bl ack
fa st
cand id
um l
b ri
rad io
opti mi
p ted
get ter
enc ies
pla in
ret ain
0x 00
se man
cert ware
ati ves
e very
th resh
j i
nor mali
im mutable
log s
re cur
template s
uni ver
struct ural
op t
emp loy
seman tic
utili ty
dup lic
t m
wh at
4 6
unit s
invent ory
colle ctor
st one
gro o
li able
brid ge
act or
in fin
5 6
mock ito
termin al
hel lo
00000002 l
co pi
c ator
ti l
inte gration
to uch
0x00000000 00000002l
cor respon
zo om
inter pret
fs f
comp ati
ph p
aliz ed
g d
start ing
g ap
c am
le ad
sol r
ld ap
ac c
other lv
acce ssi
damage s
hierarch y
mail to
role s
en sure
spe ed
evalu ate
ta ke
sh ad
8 6
d m
to g
g s
q name
or m
ple ase
request s
fig ure
e q
it ter
u me
x us
page s
ar k
c ls
answ er
g a
d st
y ard
attr s
com ments
prepare d
c ms
dispatch er
over lay
num eric
k a
cap acity
bt n
e asy
i v
mar gin
pho to
trans formation
add s
boo t
p id
thresh old
asp ect
4 3
enco der
d um
al loc
handler s
present ation
inst ead
t re
sh op
trans late
in k
lif ec
ou ter
aud it
gre en
ac y
request ed
s or
map s
tr ust
comp u
i i
t an
ar is
descri be
lifec ycle
mo st
in line
hi de
groo vy
new s
j sp
ri ch
in side
sm art
par sing
j st
contain ed
provi des
g on
list ing
binding s
o q
ne ver
curre ncy
wrapp ed
b s
p w
dum my
h au
holder s
re name
sec ret
depend encies
po t
si mul
3 .
per cent
min ec
m ut
cm is
proto s
altern atives
open source
radi us
ho w
k now
in sets
pre view
h id
c n
ob serv
sc al
let ter
default s
structure d
dur ing
du mp
fun c
format s
s r
pare n
si l
current ly
1 l
a ws
un til
the ir
up dat
escap e
evalu ator
expression s
mapp ed
log ical
re direct
ne o
fi able
lo ss
end or
propos al
color s
aris ing
pre fs
h or
un do
9 8
c ry
x a
attemp t
lo an
fic ations
il la
clo sure
al le
con fir
de sk
in direct
compo und
li ve
comple ted
ac l
ly ing
4 1
b c
neg ative
er a
s ation
a de
t c
finish ed
a ff
sec ure
cy cle
does n
on y
ci rc
univer sity
project s
ad just
li te
permit ted
calcul ate
log ic
coun try
cro ss
resol ution
ar c
r gb
orient ation
e ef
7 5
schedul er
i res
vari ant
viewer s
buil t
ra i
mapping s
un able
01 5
so und
i ze
j un
day s
check er
adv ance
ph y
deli m
index es
oper and
ex tr
connection s
statement s
embed ded
desk top
9 6
int en
annot ated
d p
switch yard
t ort
code c
gener ation
definition s
7 8
poly gon
mark s
b lan
set ter
cur r
parti al
0. 5
s lf
j a
roll back
d av
represent s
i ence
source forge
open nms
it u
0x7 f
organ ization
m gr
li er
sub component
ev t
200 2
di m
exp an
ac ing
support s
sign al
k ing
gra de
ret val
j cr
proj ection
initializ er
0x 0
ne cess
en velo
graph ic
jo oq
u b
p ng
b and
at o
marshall er
st an
ex op
under lying
exop latform
f w
product s
temp or
co s
a ware
fit s
par ty
wh o
ca used
call er
k nown
p end
high light
cho o
match ed
button s
te ar
vis ual
real m
en ted
h an
f n
ret ry
go v
vol ati
has ht
ex per
ab c
son atype
act u
p ick
a ion
ho ok
f ed
ar r
m v
op s
hau s
rot ation
6 2
case s
o o
su g
inc ident
n io
9 5
led ge
choo ser
i fication
windo ws
volati le
cf g
der by
blan k
p adding
mark up
s qu
remain ing
mo tion
d le
id ence
dig it
re ssion
ds on
cre ating
h a
conf lic
pri me
i id
l atch
vide o
con sist
s ak
an o
envelo pe
v a
al th
last ic
vi a
layout s
pro b
hu dson
tog gle
vi sed
hasht able
represent ing
modifier s
com ing
c ity
fin e
update s
at her
po l
possi bility
w ild
document s
for um
defin e
th on
y et
une xp
5 3
11 1
necess ary
ord in
clo sing
pro vision
w c
sp a
provider s
i str
n d
igno red
pe ar
g ue
te le
indi ces
pro fe
version s
e -
confir m
n pc
need s
of fer
tra de
s al
fri end
unexp ected
0.0 f
pri vi
mid dle
sc m
back up
un used
tr ain
rec ip
b ill
x path
7 9
th umb
r m
loc ations
h it
activ ation
ge m
contro ls
qu anti
p en
on ce
call ing
position s
in fi
ri ce
author ity
hid den
privi le
ar ies
l gpl
c tr
accessi ble
deli very
correspon ding
code haus
la zy
line ar
dec ision
te iid
5 00
x core
evalu ation
7 0
c raft
recip ient
se l
o x
bon d
de coder
profe ssion
i med
pk g
the ory
ev idence
ad vised
i an
g p
employ ee
s model
adap tor
work er
sug gest
serializ ed
m k
candid ate
coordin ates
sk ill
gu id
c ip
k ed
cd k
i ed
quer ies
ext end
sch em
hy per
ir d
ri b
re produce
wo uld
aliz ation
lock ed
minec raft
8 4
dir ty
ex emp
con sequential
c au
ten ant
st ation
categ ories
e per
c ach
as c
con cat
12 3
inc or
gre ater
tic ket
go ing
w ind
re v
qu ot
phy si
p ag
d id
be ta
gate way
m c
reference d
200 3
cal lable
duplic ate
nb sp
package s
short cut
neg lig
fi xt
source s
inter est
pri or
ale s
g ad
good s
qu ad
ge om
liter als
z k
b el
profession al
pi e
12 8
configure d
re ci
dis co
ass ig
edit able
edge s
g g
7 4
pro fits
datab ind
inde pend
incident al
mo bi
decor ator
step s
fore ground
d x
pe t
i ted
u ption
index ed
f q
ct ure
can on
provi de
sin k
interr uption
fac ade
broad cast
ap pear
sur face
sever ity
independ ent
8 5
li es
g ri
sample s
fore ign
target s
re write
com ma
author ization
on to
pi vo
7 6
modi fiable
lar ge
sak ai
b id
exp licit
r p
present er
produ ction
spec ify
f u
ne xus
info s
min e
in verse
c z
ar row
str ong
in coming
sh al
allow s
po sitive
f l
de mo
he alth
key words
inj ection
or ig
delim iter
f d
w ell
g ot
number s
s an
medi ate
execu table
le s
client s
9 0
determin e
f re
neglig ence
e lastic
mal formed
commun ic
id er
proc ure
b or
ex act
procure ment
filter ed
d ue
std lib
par alle
l ary
exemp lary
repe at
is n
mar shal
enter pri
gr an
discla imed
la ss
al bu
ds f
exclu de
transl ation
cam era
h ard
00 2
di ale
6 1
diale ct
m q
tri ple
i j
tw itter
p ressed
tu de
re verse
th ree
cip her
th ird
ne ls
pivo t
contribu tion
et rice
sli ce
eb ay
r ase
5 09
inst al
c lock
an no
b g
1. 1
c ame
read ing
cry p
cap t
co or
fixt ure
se ed
sd k
enterpri se
include s
fed er
a ir
check ing
as n
q t
retri ev
py thon
break point
cap abilities
space s
so a
j mx
so meth
th ose
a jax
n v
n r
http s
le ast
b pm
in sp
someth ing
spec tion
pro mo
fr ont
hand ling
uni on
dir s
ve loc
spa wn
r ating
res ses
var s
i ast
pre d
me ter
develo per
job s
databind ing
0 f
paralle l
pro ces
sub type
inject or
contact s
h base
block ing
or er
m ong
import s
j n
indi cator
requ ires
test ng
e a
li fe
grad ient
re ally
mean s
chan nels
l and
squ are
si m
ar io
veloc ity
proces sed
af fer
cu be
ve y
h appen
reci pe
ref s
m and
7 2
activ ator
note s
int ro
ke eper
pro ced
mis c
lex er
sc en
tic k
compati ble
mobi le
u ff
affer o
z a
f requ
8 2
s pri
s at
c nt
construct s
disco very
or ph
u ed
pri ate
commun ity
hi ve
te s
icon s
brow se
boo l
seg ments
r us
appro priate
dock able
0x FF
pro mp
player s
loc alized
late st
rou ting
cur ve
mess aging
en tion
1.0 f
extract or
app lied
itu de
de part
key board
t urn
diagno stic
aggreg ate
schedule d
ax io
came l
initializ ation
o prot
auto matic
wait ing
sil ver
pat ter
indicate s
to ast
j or
o mi
incor rect
br acket
inf later
s amp
cover age
coor ds
hour s
fo ur
sen sor
geo toolkit
direct ly
ou gh
a ver
test er
copi es
99 99
25 6
j en
p ad
h alf
on es
patter ns
de ad
7 3
un signed
indi cated
launch er
h p
x mp
format ted
add resses
cla im
pri v
p tr
ph rase
ch em
ec tive
de ep
out line
p ap
graph view
vel y
g mail
r b
ebay opensource
st ill
f av
d ash
ne igh
at h
wild card
to k
refle ction
scen ario
i mo
ta x
boot str
r ati
h am
replace ment
pipe line
sur vey
capt ure
s lo
tool bar
cho ose
cs v
f p
shop ping
admin istr
popu late
prop ag
s ales
j ack
att ack
o virt
l c
1 01
al arm
portal web
b d
b ul
albu m
physi cal
y es
exper i
b logs
def n
conver sation
bal ance
om g
b at
col l
log ies
p res
si z
jet ty
mo us
w ish
asse mb
mail box
l ati
i val
uni code
th us
po m
p in
dete ctor
fw k
ag a
hor net
- 0.
clean up
schem as
ro l
c pu
r mi
termin ate
sh ard
10 24
mo jo
cryp to
ation al
white space
spri te
f b
ver bo
proble ms
an g
f m
count s
ance stor
invo ked
supp lied
publish er
re load
ent s
bootstr ap
att ribu
array copy
9 4
observ able
perform ance
se ll
s as
diagno stics
fi ce
ec m
o me
ctr l
root s
u la
co ur
sla sh
sp acing
con d
assig ned
pu ll
col on
w ic
est im
ca ret
il li
an ony
0x ff
p de
proced ure
3 30
no i
ret ention
nor m
bpm n
z ation
h old
arti st
jn di
shad ow
t cp
c ass
w ere
sp inner
min or
success ful
pro ce
h its
and ra
sc ene
tra il
compar able
et c
de al
pair s
p ast
de t
local host
content fwk
techno logy
reco very
dat as
promp t
ol ation
reg ular
lead ing
desc r
m r
d an
check box
char ge
we st
lt k
m if
pr inter
interpret er
9 3
ver t
pre c
lati tude
n ick
sub program
h um
i prot
minute s
er y
mag ic
report er
r ss
p d
id le
see k
be low
en g
wic ket
equ ival
0x 8
symbo ls
r mf
open gis
frame s
milli seconds
bound ary
auto wire
g sn
g ly
h n
g ree
relation al
anony mous
dif ference
v cs
quanti ty
of fice
cass andra
advance d
in spection
inter pol
min us
experi ment
rati o
ser ve
lap sed
inter n
e vi
bound ing
read able
j an
handle s
cor ner
f lat
assign able
canon ical
is m
con ven
nor th
exp ire
y a
one y
p x
9 2
be t
g ray
fic ient
form ula
s mi
ma jor
1 0000
cap ability
ar o
feed back
10 7
sli der
ide a
comp ass
zo o
t v
long itude
un modifiable
al ter
aver age
hand led
tra ver
cri pt
defin es
ap s
s aml
techno logies
verbo se
mean ing
axio m
iter ation
s imp
start up
form al
debug ger
base line
cd dl
up on
tempor ary
8 3
speci fies
st e
per spec
gre y
s ms
mif os
g if
o de
f tp
on line
p b
as cript
ban k
o logy
transaction al
4 .
j ac
fe e
namespace s
su sp
f at
remo ves
buf f
log ged
dig its
promo te
12 34
01 6
b la
context s
rec ent
cons ider
popu l
m art
conflic t
mo le
frequ ency
insp ector
4 04
open sc
xx x
navig ator
list en
la use
f all
f req
sakai project
cell s
grad le
display ed
co lo
app lause
j c
3 .0
n at
col li
for d
af fi
w all
fa ke
stri p
contin u
se p
ac qu
encry ption
inherit ance
od a
bundle s
to wn
v k
ro bot
noti fier
c g
ce l
si bl
mi rr
ri c
0x 0000
la s
server s
e ver
cancel led
mirr or
v p
v ds
tool tip
style s
matic al
comp ress
amazon aws
mo vi
m oney
res ume
re play
ordin al
expand o
col s
na il
parser s
vis or
un lock
perspec tive
parameter ized
cre te
b ay
ne ither
affi li
g ith
i ti
as ci
c ti
c x
v an
polic ies
hum an
cat ing
j e
imp orted
12 7
place ment
en ded
am q
re size
out come
expan ded
verti ces
re view
pa use
tab s
transl ator
pro x
gad get
c ali
y e
val s
str y
di an
search er
ar ity
mi ght
invo ice
ster eo
ag ain
sub mission
merge d
pe as
imp licit
app s
bill ing
spe ll
multip lic
op code
xml ns
t f
4 00
fail s
jav ascript
depend ent
ro i
si mil
conver ted
check sum
gith ub
po jo
199 9
comp ression
inclu sive
ase s
bri an
cp p
updat er
ri f
im mediate
exp l
um ul
si p
constructor s
cor ba
prec ision
buil ding
plu g
autowire d
aro und
tri p
cance led
sever e
editor s
ack now
sto res
k b
ss h
m gt
jd k
n p
rest let
sh r
quote s
0x 1
xmp p
gly ph
per m
d ent
it self
return ing
j er
h ou
aga inst
c rs
thumb nail
av oid
on imo
asci i
ac cor
onto logy
ver ifier
l hs
jack son
ger onimo
li gh
gran ted
out going
cv ut
m ort
a o
li me
mole c
gu ard
click ed
c ing
gram matical
u d
at ory
temp le
pe ek
suc ce
re fr
instal led
mix ed
un defined
ap tan
instr ument
3 00
sn mp
mo ved
inter action
book mark
m ass
r l
c it
13 07
v or
who le
gi ve
mu sic
dis connect
execu ted
sent ence
draw ing
acce ptor
bund ler
recur sive
0x 000000
super class
z illa
wh ose
st oc
e +
session s
rot ate
inst ant
syn pred
quali ty
host name
pa let
ji ra
ori an
bo ld
aptan a
subscri be
altern ative
endor se
bo un
line core
automatic ally
oc linecore
st ew
7 1
anno un
t b
u dig
member ship
m ing
ar qu
ro ad
w ing
plan e
fact ories
ess ential
s ou
layer s
li o
de si
depart ment
sub class
3 0000
range s
02 111
cas ca
know ledge
illi an
suggest ion
url s
google mail
arqu illian
account s
indi cating
c data
communic ation
tab bed
ali ve
f lex
9 1
gl ue
artifact s
v endor
co ding
le ave
go al
too th
measure ment
per man
t ur
stew ard
por tions
replic ation
ass ume
ad a
palet te
replace d
s and
comp ressed
li d
8 1
li x
helper s
dete ct
hint s
privile ge
acce pted
matcher s
dimension s
j dom
calcul ator
5 .
h ig
r d
level s
folder s
exp ir
instanti ate
render ed
require ment
ri er
up grade
expl orer
om y
ab ort
ch ro
l bl
movi e
gr ant
medi ator
coordin ator
grammatical framework
condition al
od d
ti ves
wave let
cast le
compo sition
ly n
option ally
er x
index er
substit ution
e cho
refr actions
n h
d ltk
min i
greg orian
simul ation
back end
report s
ab i
h dfs
re start
high ligh
cv s
in ct
sp here
tri angle
sp ati
modi fications
foo ter
di rec
board s
gover n
configur able
ac ted
db g
dialog s
tile s
view port
mut ation
cach ing
combin ed
k w
normali ze
m orph
ma ker
multi part
asse ss
host s
ro o
buffer s
0. 1
asser tions
- 2
perman ent
rai lo
att ached
cred it
cau ght
un pack
ssi an
region s
stop ped
decla re
v s
l p
bal an
pi cture
sibl ing
one t
twe et
fx graph
cust omi
actu ally
deri v
gen e
ear l
accor ding
lt d
encry pted
activi ties
au x
equival ent
d h
g f
t bl
un marshaller
invo ker
k ill
earl grey
stoc k
pres ence
ar n
scan pos
un register
spati al
dist inct
sub classes
second ary
play list
n ce
tx n
a head
dat ac
mong o
develo p
c art
n il
var char
in validate
f ab
n n
app let
partic le
j osm
b all
stu dy
circ le
stream s
h over
se en
tr un
jen a
io e
bi b
my lyn
di ct
silver peas
fla sh
b lo
ab a
ex o
r hs
alloc ate
fr action
data store
deli ver
configur ations
stan ford
applic ations
man i
face book
is pan
67 89
se mi
t ape
un ary
input s
we ak
casca de
infin ispan
leg end
proj ity
e g
att en
rou ter
cre ature
c st
cap tion
stu ff
fav or
inter section
b f
blue tooth
pie ce
al location
success fully
criter ion
.0 f
sc r
implement ations
order ing
shr ink
result ing
clo b
de e
c amp
ae um
si ble
me sh
op aeum
web app
r up
wal k
tre at
js f
pose d
inst it
ch e
gb c
fat al
g lo
mark ed
aggreg ation
noti fications
n ature
st ory
s pot
s am
he ap
card in
rep res
el y
attach ments
cour se
assemb ly
tic ks
12 5
equ ality
lo st
assess ment
op a
out bound
announ ce
x doc
ali ce
0x 2
ap se
sub system
pu l
h h
supp lier
de fs
me e
cover ed
property set
ex tern
expir ation
develop ment
mo b
iter ate
h en
tape stry
elastic search
em on
de x
repres ented
25 0
scal ar
e ast
l w
aa aa
get ting
fi d
exclu ded
vo ice
i x
se ctor
con crete
ru by
rep aint
da emon
ac er
c ab
syn apse
meta model
em u
me et
nt k
s id
may be
code gen
i vy
mee ting
pe l
v jo
desi red
g ar
wi fi
b log
ext ent
fla vor
in o
n x
gr ab
g lass
speci fier
an s
pret ty
parent s
affili ates
counter s
se ct
on ic
qu ark
2 20
stu dent
l m
sk y
sho wn
effect s
release d
c mp
game server
j id
chron ology
ef ficient
sat is
mi gration
re nt
10 5
r aph
compu ter
agree ment
ro bo
p tp
open quark
reposit ories
te l
behav io
open street
openstreet map
ra in
place holder
pag in
de serializer
gue st
p v
ali ases
declar ations
op acity
en ne
inter net
xy z
ocl stdlib
frag ments
sco ped
esper tech
description s
fe lix
compati bility
h l
read s
container s
compu ted
opa que
pa inter
j desktop
pro files
ra ster
direct ories
shad er
symbo lic
t un
s st
mand atory
import er
neigh bor
dec ry
c ay
in form
an n
c di
mo l
gu ar
at he
ar jun
part ner
arjun a
for war
r fc
priv acy
d ns
pri m
b p
poly no
restriction s
export er
datas ource
hyper link
99 9
g ain
ph i
licen sing
tag ged
wo od
colli sion
vis u
section s
dt d
behavio ur
out side
fol d
book marks
card s
cardin ality
polyno mi
g ps
w ater
copi ed
fin ds
q a
subscri ber
escap ed
g old
cay enne
asc ending
in ge
av m
00 01
w p
cor relation
refer s
se y
marker s
bel ong
it a
abi quo
ch ri
si ster
har mon
f lip
transp are
rele v
packet s
write s
send ing
favor ite
activate d
actu ate
5 f
vi olation
ag raph
lock s
bu i
an athe
code d
anathe ma
offset s
open ed
ty p
datac enter
sn ip
hol ds
paren the
libr aries
en counter
log o
re search
u er
ur a
o auth
pic ker
v r
attribu tion
f ish
prote ction
acqu ire
t l
mp l
all en
con ference
to po
glob als
solution s
hou se
appen der
12 0
over flow
00000000 l
transaction s
skip ped
b ob
asy n
begin ning
att rib
aff ected
sh un
do s
ll c
percent age
exclu sive
w st
net ty
expan sion
run s
balan cer
my sql
s mo
synchron ization
ri t
per sister
response s
obj s
propos als
m sp
f g
visi ted
pm d
lab ility
on d
model er
oc cur
g able
restri cted
g son
alph ab
fi ller
we bui
dep ends
authenti cator
v c
par agraph
declar ing
tu sc
th ink
11 6
tusc any
dd m
group ing
q i
ch a
enti re
b att
14 7
av g
commit ted
f ur
processor s
sou th
re comm
author ized
re serv
b pel
to ge
decor ation
dispose d
j t
toge ther
h ic
u v
k ar
acknow ledge
s sed
polynomi al
j am
comp iled
