\t @ 20431914
\n @ 16208832
e @ 4915390
e r 4809785
o n 3958604
t @ 3901703
i n 3174491
t i 2968863
e t 2860182
s @ 2855732
e n 2757024
o r 2473220
g @ 2044420
a t 1960367
e s 1952505
t r 1885579
ti on 1870472
er @ 1718638
g et 1670350
a l 1608383
" @ 1540732
e c 1483308
a n 1442399
a r 1430714
d @ 1363349
i s 1203712
S tr 1162283
l e 1156994
a m 1153660
in g@ 1151429
tion @ 1144416
a c 1129317
a s 1104720
t e 1082436
l @ 1073636
r e 1035288
r o 1014498
y @ 994683
c e 977629
Str ing@ 921195
o m 811325
i t 791479
I n 790281
a p 771117
E x 766632
" "@ 753114
a g 752438
o u 728420
o d 711821
0 @ 659318
s t 652520
en t@ 649532
C on 646267
a d 638527
e l 632885
en t 607002
i l 606053
a @ 605259
o l 595483
r i 584920
p tion@ 577855
e x 574691
Ex ce 533455
s et 531167
y p 531025
a b 522279
s i 521051
o c 519705
Exce ption@ 519164
am e@ 507958
1 @ 507798
s er 501536
a v 500584
u l 497839
or g@ 496003
e d 488734
h @ 484437
f i 483619
l i 479394
or @ 472278
q u 460007
u t 457578
e t@ 448527
R e 444514
at e 435563
j ec 431834
r es 429532
L is 424822
c e@ 405654
P ro 405607
i @ 391488
p er 391353
in g 391021
T yp 390227
2 @ 388296
u m 387746
p @ 387702
u r 385619
l o 378092
al u 376109
b jec 370499
c on 368362
e s@ 367122
l e@ 364617
c h 363980
S t 359286
o @ 356585
j av 353064
v i 346560
v er 343475
N ame@ 339552
es s 336469
u n 333590
e w 331239
on @ 331129
c om 328538
t er 324024
ac k 321348
0 0 319078
m @ 315252
a tion 310864
O bjec 306350
a y 305101
l as 303659
a tion@ 302416
f @ 298757
es t 296288
m p 289476
x @ 287356
Lis t@ 286119
e l@ 285323
s e@ 281898
te x 275155
o t 274866
k @ 266829
ag e@ 261615
at e@ 260951
Typ e@ 259221
jav a@ 258754
i d 258537
C h 253257
an d 252693
E @ 251533
p ar 249346
E n 246513
C om 245134
m ent@ 244805
P ar 242504
ou r 241719
alu e@ 238794
A c 236506
o p 236272
Objec t@ 234237
E R 230704
ac t 228229
C las 227371
a in 227351
od e@ 227288
i z 225008
b u 223612
tex t@ 223315
c @ 222897
s e 222549
u p 222337
R es 220128
D at 219492
r r 219123
p ro 218659
F i 217509
st an 216815
_ _ 216589
ti l@ 213775
d er@ 212079
t o 212003
i m 211874
T o 210271
S er 208353
t s@ 206931
t en 205826
n @ 205639
ap @ 205139
ri d 204092
I d@ 203810
ag e 201205
in d 200029
ou n 199964
I N 199039
s tr 197968
qu al 197292
f f 197126
ap p 187448
ad d 187001
p u 186410
c re 185235
o g 183568
O N 180756
es t@ 179925
E le 179827
p o 179613
D @ 179083
ser t 178343
E _ 176517
i c 176074
T @ 175905
i g 175553
A t 175232
D e 174535
b @ 174463
t h@ 174454
m ent 173936
or y@ 173810
M ess 172506
ul t@ 172042
Pro per 171042
ac h 170111
ab le@ 168997
as sert 168852
K e 167880
ab le 166021
qual s@ 165917
al @ 165716
p l 165225
F il 164549
S y 163674
C ol 162724
O ver 162238
an g 161791
p on 161371
u til@ 161330
o w 160658
or m 159007
B u 158782
4 @ 157889
g et@ 157295
Over rid 156158
p r 155392
Overrid e@ 155038
en d 154879
pu t@ 154072
E v 152514
M od 151710
in t 151607
li p 151558
3 @ 150984
Clas s@ 150603
at or@ 149129
A rr 149092
M ap@ 148939
A T 148829
p ut 148129
at h@ 147703
en g 147191
k e 146757
te m@ 145810
T r 145086
or e@ 143973
si on@ 143689
com @ 143190
e m 142721
S T 142586
en @ 142523
v e 142236
V alue@ 142068
ec lip 141281
eclip se@ 140673
cre ate 139999
i r 139421
t er@ 138614
t y@ 137840
e v 137449
tr i 135447
m o 134784
i t@ 133912
j @ 133802
n ame@ 133691
g er@ 131871
A s 131324
S et@ 130867
M an 130438
l oc 130132
ou t@ 128763
eng th@ 126640
d e 126431
P o 125743
si on 125608
E N 124522
n ew 123111
S @ 123000
Con text@ 122925
u b 122361
i d@ 122240
f a 120916
e am 120858
te d 120846
In f 120580
s h 119950
A d 119260
In stan 119238
c ri 119202
Ele ment@ 118990
u c 118655
ex @ 118545
M et 118399
ad d@ 117546
o o 117442
our ce@ 116810
T _ 116601
ex t@ 115648
u le 115112
R E 114700
en d@ 114184
res ult@ 113864
ec t 113817
Sy s 113240
t h 112923
at u 112525
Con fi 112162
e d@ 112089
act ory@ 111990
Ser vi 111913
P ack 111177
v er@ 110421
Con t 110041
V i 109734
Fil e@ 109485
Man ag 109456
t y 108870
U R 108619
ach e@ 108185
5 @ 108092
d at 107370
t est 107226
Vi ew 106181
f er 105352
te m 105195
N ode@ 104960
ur r 104896
l ength@ 104861
A L 104644
0 x 104428
a x@ 104216
our ce 103758
Par am 103556
T im 103384
in @ 103132
Str eam 102942
ti m 102558
00 00 101501
L oc 100808
O R 100615
Dat a@ 100297
t yp 99320
F actory@ 99281
p or 99238
E d 99174
U n 99049
A l 99030
ec tion@ 99027
a y@ 97993
er s@ 97654
l er@ 97609
b o 97476
Arr ay 97472
ec tion 97417
G ro 97376
ten er@ 96890
v alue@ 96689
ul t 96602
ac e@ 96298
Fi le 95958
Ex p 95941
od e 95910
A N 95678
B y 95024
l s@ 94433
app end@ 94391
c es 93840
A n 93274
tr y@ 93201
Manag er@ 92870
a t@ 92717
I mp 91778
or e 91576
N am 91379
S _ 91031
com m 90579
Typ e 90559
w or 89723
T h 89289
P ath@ 89008
s er@ 88666
c ess 88524
i al 88461
H and 88240
ap ache@ 87859
L og 87826
g is 87253
Fi el 86883
m od 86487
I ON 86444
Ev ent@ 86301
iz e@ 86260
Dat a 86163
get S 86104
Q u 86019
al l 85629
fer en 85595
At tri 85420
I D@ 85346
i p 85085
T est@ 84966
m ar 84743
e quals@ 84623
i o@ 84371
Ke y@ 84210
I O 84124
en ti 84055
Str ing 84042
A M 83939
an @ 83596
ti v 83385
U ti 83303
c urr 83109
alu e 82800
l is 82733
oun t@ 82263
p ec 82251
Inf o@ 82172
it y@ 81862
ex t 81675
f il 81605
a x 81560
Lis tener@ 81397
E quals@ 81285
Stream @ 80867
Sys tem@ 80845
Mess age@ 80789
F or 80764
pr int 80496
a w 80355
si z 79919
Re qu 79807
Ke y 79799
as e 79707
In te 79584
In d 79578
om @ 79520
ar @ 79430
L in 79207
Param et 79093
A R 78906
6 @ 78886
L @ 78609
T est 78493
as e@ 78388
c ore@ 78321
jav ax@ 78112
L O 78085
Confi g 77768
o b 77684
assert Equals@ 77383
il d 77268
ad er@ 77239
ti es@ 77144
ar g 77054
al id 76745
D _ 76721
il der@ 76630
L o 76519
cri p 76413
a d@ 76045
r @ 75791
con t 75723
T Y 75694
an s 75263
as h 75260
P l 75175
Pack age@ 75010
Con stan 74984
siz e@ 74650
li c 74179
lo g 74141
oc k 74077
r ap 73801
S et 73393
D E 73216
f orm 72527
r am 72315
r it 72300
C S 72007
In put 71449
Instan ce@ 71093
ces s@ 71066
S ize@ 70177
To k 70152
Com m 70111
B e 70009
Inte ger@ 69951
po s 69643
O per 69332
O M 69264
P re 69149
S el 69008
g n 68853
\xa0 "@ 68807
A r 68648
ar t 68524
IO Exception@ 68104
' @ 68082
Col l 68057
P er 68053
R ec 67848
o l@ 67714
con text@ 67685
Uti ls@ 67204
l in 67135
8 @ 67068
r ule 66781
P an 66661
T ext@ 66641
b ut 66605
ac e 66550
ter n 66438
Objec t 66381
d s@ 66364
D es 66118
i fi 66117
O L 65985
n ot 65656
Constan ts@ 65656
E rr 65507
i b 65466
g e 65304
in t@ 65188
it or@ 65097
get Name@ 64871
li ent@ 64614
en er 64466
s et@ 64104
F orm 64036
A C 63949
V er 63821
u p@ 63709
to String@ 63422
Clas s 63399
Hand ler@ 62797
Mess age 62773
w s 62771
Proper ty@ 62649
A b 62587
it er 62554
S h 62212
S e 62120
fa ult 62079
lo g@ 62014
ou t 61950
Gro up 61887
as k 61696
ig h 61646
c l 61560
m s 61486
s w 61414
ti c 61305
v @ 61047
tion s@ 60871
r un 60796
Ch ang 60670
ec k 60620
Bu ff 60382
d er 60295
i mp 60246
Mod el 60021
Imp l@ 60001
A S 59992
u e@ 59828
typ e@ 59787
at ch 59499
re ad 59155
Array List@ 59145
O ut 59133
c h@ 59122
7 @ 58922
L ay 58888
I d 58764
it y 58529
m l 58199
lo w 58140
D is 57880
Servi ce 57743
n am 57719
O p 57714
crip t 57439
m ess 57288
re mo 57202
c ol 57080
st ate@ 56876
Config ur 56768
L ab 56709
e b 56608
o s 56537
H ash 56417
O f@ 56394
ent s@ 56354
Bu ilder@ 56322
ti ve 56240
it h 56176
I T 56067
e le 55854
m in 55810
Ele ment 55808
d i 55708
ur e@ 55587
N ul 55168
Com pon 55009
pos it 54969
par am 54721
A p 54651
at h 54546
I m 54530
N o 54462
Met h 54369
9 @ 54298
Mod el@ 54199
l n@ 54189
m et 54005
v alid 53906
p re 53822
u g 53418
R O 53299
s p 53074
D ir 53023
Servi ce@ 52968
get C 52831
s y 52785
e o 52777
t t 52752
O r 52695
f in 52625
L E 52581
print ln@ 52258
fi le 52254
Ind ex@ 52172
e mp 52146
pl ay 52083
N um 51919
g o 51875
but e@ 51812
U til@ 51735
ro w 51701
_ @ 51700
b ack 51635
G @ 51468
vi ew 51360
t u 51264
s c 51112
Y @ 51069
ke y@ 50717
pro per 50593
a il 50533
p le 50390
W or 50298
h e 50261
h as 50243
I @ 50217
vi der@ 50134
ain @ 49763
_ C 49596
er r 49394
Arr ay@ 49372
s ub 49263
St atu 49254
te s@ 49244
B ut 49172
O n 49079
le g 48987
U ser 48942
pon se@ 48849
But t 48846
curr ent 48825
ser vi 48530
ev ent@ 48491
s is 48463
R un 48367
C ount@ 48359
Ac tion 48265
mod el@ 48264
b e 48185
Ad d 47757
o 2@ 47565
F I 47436
tr y 47432
As ser 47426
te d@ 47401
um @ 47373
U L 47296
dat a@ 47274
as t 47268
View @ 47197
Ev ent 47181
Re gis 47165
S E 47124
v e@ 47110
re qu 46998
r ec 46846
op en 46793
Attri bute@ 46792
con fi 46692
u i@ 46618
oun d 46557
u @ 46505
St ate@ 46435
St ack 46336
u ser 46306
rap h 46267
N ot 46264
r st 46215
an d@ 46202
or y 46089
I tem 45792
ser ver@ 45774
atu re 45614
feren ce 45571
TY P 45568
s el 45133
H e 44924
E X 44847
tim e@ 44819
In ter 44813
ti fi 44692
V alue 44554
Con n 44304
comm on@ 44269
Res ource@ 44239
en c 44050
ing s@ 44037
o d@ 44033
I ter 43924
b er 43901
St ate 43898
Re mo 43818
U N 43769
ro m 43733
Nam e 43722
Tr ans 43618
re d 43561
P ri 43510
N AM 43382
G ener 43318
es sion@ 43296
Met a 43289
arg s@ 43279
p res 43187
B oo 43063
i ti 42941
Exp res 42817
i tion 42769
A P 42726
Proper ty 42626
Con str 42532
ws o2@ 42526
Cont ain 42516
Tim e@ 42490
as s 42428
n el@ 42342
T emp 42309
at or 42251
c ar 42189
_ P 42116
ke y 42046
Asser t@ 42041
d is 41957
T ext 41947
S c 41940
d es 41930
Ar g 41910
M L 41838
t oc 41812
st art 41733
tim e 41712
tex t 41678
_ rule 41665
cont ain 41622
si gn 41543
I tem@ 41530
Proper ties@ 41517
Nul l@ 41466
Ed it 41275
d ate 41247
um ent 41225
ri te 41167
el et 41160
ind ex@ 41100
w id 41098
o bjec 41070
ar t@ 40968
al iz 40904
re ad@ 40860
u s 40853
Instan ce 40740
Ac cess@ 40692
N ode 40660
C L 40625
tifi c 40613
por t 40565
ut h 40408
Tim e 40338
ar i 40303
c lient@ 40295
in f 40291
B it 40189
0 0@ 39806
ec ted 39771
F e 39684
fi el 39561
Lis t 39368
Ab str 39305
ch eck 39298
V is 39281
D ec 39251
Ac tiv 39105
re gis 39088
Ch ar 39070
ul e@ 39052
I C 39050
t ar 39047
ig n 39010
Pro vider@ 39009
De fault 38805
ation s@ 38765
ol d 38759
B loc 38725
i l@ 38660
Buff er@ 38571
T R 38568
D oc 38517
ate g 38494
g ro 38480
I M 38455
m ap@ 38357
por t@ 38327
F A 38236
v alue 38192
v is 38160
Lo g@ 38073
ow @ 38013
1 0@ 37999
res s@ 37911
T ask 37864
Pro cess 37738
S p 37697
i f 37682
fil e@ 37663
in put@ 37609
Ad ap 37573
Res ource 37539
u st 37510
Temp l 37484
Abstr act 37387
Fiel d@ 37359
ti es 37306
0 . 37153
_ S 37125
as k@ 37093
T ER 37024
f or 37016
igh t@ 37015
Lay out@ 37010
Con tr 36975
Col um 36938
C ase@ 36926
Ap p 36897
Boo le 36861
li ent 36835
c lo 36695
i v 36681
Tok en@ 36678
Out put 36670
Fiel d 36572
O f 36552
Lab el@ 36521
Col or@ 36496
L iter 36419
Ac tion@ 36394
er y@ 36283
L on 36128
k er 36107
D ate@ 36033
En ti 35917
A G 35733
X @ 35694
ow n 35668
Compon ent@ 35614
ol s@ 35598
Attri bu 35578
ti f 35546
Butt on@ 35519
C all 35479
h and 35467
en ce@ 35454
Tr ue@ 35402
Pan el@ 35340
O @ 35327
Statu s@ 35262
uc t 35226
P @ 35190
F ol 35029
S S 34992
Input Stream@ 34879
n et@ 34831
w rite 34786
or t 34768
" \xa0 34559
m l@ 34413
car b 34404
i le 34348
G eo 34344
get M 34299
Gro up@ 34265
T re 34167
un d 34153
Paramet er@ 34133
AN C 34126
v al@ 34098
tt p 34083
Log ger@ 34052
s t@ 34018
_ M 34002
U p 33974
b er@ 33894
Requ est@ 33686
Requ est 33678
P ath 33661
c las 33640
Res ult@ 33610
or s@ 33585
ag es@ 33550
ect or@ 33509
d oc 33451
L ev 33434
assert True@ 33323
p ath@ 33302
LO W 33170
feren ce@ 33135
r on 33098
alu es@ 33084
I s 33046
Tok en 33023
s u 33007
rit er@ 32927
mess age@ 32903
G L 32892
carb on@ 32867
S ub 32859
B ind 32792
ff set@ 32777
n um 32744
s b@ 32737
Err or@ 32701
g er 32679
n ode@ 32644
f t@ 32628
ou b 32625
W ith 32581
e "@ 32580
f e 32518
q @ 32464
A B 32338
Coll ection 32281
Confi g@ 32273
Hash Map@ 32175
S W 32170
un c 32144
E mp 32141
p c 32086
p er@ 32044
cri ption@ 32008
I S_ 31990
At om 31894
wor k 31823
r aw 31806
C ode@ 31751
c le 31708
Iter ator@ 31649
remo ve 31621
C al 31567
and ro 31527
An not 31515
las t 31472
jec t@ 31470
_ in 31367
Ser ver 31260
ial iz 31258
T able 31128
R ule 31109
il d@ 31077
ION @ 31018
Configur ation@ 30964
I D 30894
sw ing@ 30879
IN ST 30792
Des cript 30760
En try@ 30715
ex pec 30688
ac tion@ 30687
to k 30646
Cont ent 30621
Po int@ 30613
E M 30605
Wor k 30568
o s@ 30547
u d 30530
andro id@ 30498
Boole an@ 30490
By te 30412
ob j@ 30406
par se 30345
E Object@ 30337
a g@ 30328
U T 30320
si tion@ 30256
H el 30250
s ource@ 30184
f ind 30059
S u 30013
_ 1 30008
Chang e 29957
dat a 29905
Loc al 29904
es sion 29868
ug in@ 29812
servi ce 29783
Loc ation@ 29744
un it@ 29712
R @ 29706
run time@ 29692
r et 29625
Coll ection@ 29601
w n 29595
B o 29563
In t@ 29536
Liter al 29498
At om@ 29451
F rom 29411
av e 29387
n o 29355
inf o@ 29341
W id 29288
__ Group 29274
INST ANC 29240
f l 29219
i c@ 29079
aw t@ 29078
F r 29078
F OL 29067
Bit Set@ 29038
E C 29025
" \\ 29024
Re posit 29000
ms g@ 28983
ac tion 28974
an ce 28941
ION _ 28919
T able@ 28904
s ec 28836
A X 28814
A D 28790
_ 0@ 28689
toc ol@ 28680
w e 28633
Typ es@ 28592
go og 28549
De p 28474
an t 28468
0000 0000 28452
Ex ten 28418
UR L@ 28354
in d@ 28353
str ing@ 28244
te mp 28202
A @ 28175
l an 28153
sis ten 28138
k ed 28078
NAM E@ 28023
ar d 28020
l ab 28009
M en 27996
de bu 27968
Contain er@ 27883
m b 27883
ang e@ 27867
ot h 27849
FOL LOW 27840
in e@ 27831
Paramet er 27827
ER @ 27802
UR I@ 27794
am ple 27738
Re ader@ 27699
z @ 27675
at ure@ 27610
Ex ec 27601
ang e 27581
Res ponse@ 27563
N O 27556
D oub 27553
G raph 27516
Meth od@ 27461
er y 27418
S up 27384
G rid 27380
goog le@ 27343
C @ 27317
Adap ter@ 27302
I S 27285
get R 27272
in ter 27225
Fil ter@ 27131
lis t@ 27130
Comm and@ 27106
ch em 27094
bu f@ 27066
get Instance@ 27024
m ax 26998
Ch ild 26995
c ount@ 26980
Sys tem 26940
par ent@ 26924
_rule __ 26892
ele ment@ 26864
ce p 26834
leg al 26819
Constr ain 26797
n ext@ 26747
lo ad 26746
in iti 26740
f ram 26739
Meth od 26736
INSTANC E@ 26708
ed i 26694
I l 26687
B on 26651
clas s 26636
C re 26621
1 . 26608
get T 26603
P r 26524
0 2 26523
an not 26522
V ari 26511
tr ans 26435
Pl ay 26378
n ext 26378
FA UL 26350
Il legal 26344
or d 26263
in tern 26163
Lon g@ 26155
l et 26107
g en@ 26103
able d@ 26083
ew or 26065
D ock 26045
C H 26044
Com p 26013
d o 25957
1 2 25954
Err or 25947
Re ference@ 25925
s W 25903
get L 25898
N S 25893
err or@ 25891
S pec 25851
ram mar 25848
m is 25837
r e@ 25799
E Class@ 25756
i s@ 25661
W ind 25645
Th read@ 25644
P ol 25618
Be an@ 25527
DE FAUL 25488
D om 25446
Y _ 25432
ar y 25351
H ttp 25340
j unit@ 25339
on s@ 25288
Add ress@ 25278
An d 25246
tu al 25219
Se qu 25217
clo se@ 25202
ar ch 25202
ex ec 25194
E D_ 25180
Oper ation@ 25176
Output Stream@ 25105
V AL 25044
m a 24998
Id enti 24981
p ri 24979
d ir 24970
p h 24955
J av 24945
re g 24928
m an 24926
f ace@ 24920
em f@ 24917
imp l@ 24891
at ed 24857
Im age 24841
E O 24825
at ch@ 24778
a ti 24772
D ial 24714
m _ 24713
Remo te 24660
or t@ 24635
c oun 24596
up date 24547
B ase 24540
Ver sion@ 24462
Lev el@ 24456
met h 24446
En d 24429
A uth 24420
Po int 24322
Expres sion@ 24314
P RO 24299
el l@ 24237
confi g 24219
t x@ 24217
T H 24212
qu e 24211
P L 24204
S ource@ 24176
fi er@ 24173
ind ex 24165
debu g@ 24149
K @ 24148
' \\ 24120
es p 24110
ri @ 24102
x ml@ 24030
S ign 24016
In valid 24009
on e@ 23919
Proper ties 23907
As sign 23868
end er 23814
E D@ 23805
o g@ 23777
Contr ol 23776
ul ts@ 23775
J S 23764
imp le 23747
st art@ 23734
con n 23724
C ON 23709
A x 23668
um ent@ 23640
st ack 23636
oc l@ 23633
at ter 23618
I L 23587
r a@ 23549
o k 23529
C S@ 23521
1 1@ 23520
u s@ 23511
F l 23455
l ar 23441
Oper ation 23293
F a 23286
j s 23285
fram ewor 23268
ed it 23258
Q U 23258
objec t@ 23253
1 2@ 23173
O P 23162
o t@ 23102
res s 23051
i on@ 23038
B @ 23033
lin e@ 23021
pro cess 23002
s s 22989
C lient@ 22967
requ est@ 22953
Bloc k 22950
curr ent@ 22928
Sy n 22908
ec t@ 22884
M em 22876
log ger@ 22863
Form at@ 22850
U ser@ 22844
ment s@ 22790
V alid 22784
Lin e@ 22783
com p 22762
O wn 22710
S ession@ 22695
Templ ate 22668
c d 22659
O CL 22546
o st 22478
ri g 22449
Mess ages@ 22439
framewor k@ 22414
t o@ 22412
pon se 22376
F unc 22363
d elet 22327
M EN 22325
N @ 22301
l d 22299
ch ar 22285
Jav a 22272
en ce 22220
K E 22213
G et 22174
col um 22140
M on 22103
M app 22082
ar y@ 22063
b y 22054
Attribu te 22020
op e@ 21987
Configur ation 21987
d ec 21984
E L 21980
Regis try@ 21914
ul ti 21882
Ed itor@ 21869
Pack age 21866
En abled@ 21840
S ec 21813
lan g@ 21773
O b 21764
Im age@ 21743
In v 21731
typ e 21684
tr ack 21653
Comm and 21636
get Id@ 21634
ER _ 21634
S ource 21622
i o 21609
s um 21606
W riter@ 21605
Qu e 21532
f t 21509
4 j@ 21499
sy n 21497
s end 21461
l ay 21451
S I 21434
bu ff 21372
tern al 21369
c al 21365
Con text 21353
get Value@ 21329
vi ron 21323
De fin 21318
tar get@ 21289
u re 21262
Tre e 21246
Doub le@ 21226
St ore@ 21212
Colum n 21208
Al l 21205
oo k 21181
t est@ 21164
confi g@ 21163
loc al 21113
Lin e 21103
as ic 21087
Fol low 21069
get P 21015
En c 20977
sion s@ 20958
p s@ 20950
E S 20904
wor d@ 20893
ul l 20876
X ML 20847
intern al@ 20835
res ponse@ 20807
g rammar 20801
it e@ 20799
1 0 20794
fi rst 20766
00 0@ 20714
N on 20710
de fault 20706
w @ 20701
pro tocol@ 20693
C o 20684
regis try@ 20683
Descript or@ 20672
fi x@ 20663
Run time 20659
C lient 20638
s ource 20616
ST R 20602
Al l@ 20601
bo t@ 20600
Sel ection 20564
Re g 20537
ms g 20533
jec t 20516
To ol 20510
Reposit ory@ 20476
expec ted 20451
rap h@ 20431
an n 20416
d ate@ 20412
Emp ty@ 20407
i es@ 20399
atter n@ 20340
M ath@ 20337
play er@ 20315
bu ilder@ 20300
ker nel@ 20271
pc gen@ 20260
N ext@ 20248
En um 20246
in it 20242
Bind ing@ 20236
S ock 20234
1 "@ 20218
R el 20211
Buff er 20199
h t 20139
s ol 20099
mess age 20096
a s@ 20078
av e@ 20076
th e 20062
T o@ 20056
N ew 20052
X ml 20048
F on 20020
s "@ 19982
f f@ 19977
L E@ 19962
U r 19948
p ack 19907
view @ 19862
C D 19857
Vis ib 19781
m atch 19780
M ode@ 19768
mar y 19751
Hel per@ 19737
Conn ection@ 19726
g ener 19720
Num ber@ 19714
I V 19683
Dir @ 19668
Set t 19655
In t 19631
get String@ 19605
tri bu 19605
AL _ 19589
Nam es@ 19572
Lab el 19560
No tific 19537
Ac cess 19529
Fi rst 19522
F ac 19522
Fe ature 19494
s pec 19491
ample s@ 19490
o per 19455
t ask 19451
re pl 19445
res ource 19429
rit e@ 19422
u ser@ 19417
contain s@ 19411
oc i 19377
Form at 19373
B und 19356
i tem@ 19354
L 2 19346
in v 19299
og n 19263
T ar 19255
Pre ference 19226
Meta Class@ 19224
Arg ument 19202
m bo 19191
al s@ 19191
Tr ace@ 19143
G _ 19139
i p@ 19137
Con ver 19124
ad er 19103
od es@ 19102
it h@ 19053
C l 19050
m i 19018
par ser@ 18995
s p@ 18986
grammar Access@ 18972
f s@ 18946
posit e@ 18937
Par t@ 18926
Ser ver@ 18924
g e@ 18874
mbo l@ 18869
mod el 18850
P RE 18820
Ch eck 18818
el l 18808
Inf o 18791
Ex p@ 18789
t able@ 18780
IN G@ 18774
R o 18763
ar r 18761
S imple 18758
Dir ect 18734
P _ 18710
Ser v 18709
Ser ializ 18705
m y 18680
1 5@ 18674
tiv e@ 18661
fiel d 18645
L A 18644
ou se 18635
ge og 18613
geog eb 18576
o ffset@ 18489
in e 18469
con @ 18458
f ac 18450
T ask@ 18399
w ar 18384
OR @ 18374
u e 18368
SW T@ 18355
s r 18344
er e 18337
remo ve@ 18320
VAL U 18319
back @ 18308
Th row 18307
par ator@ 18241
CS __Group 18216
a f 18203
lin e 18199
i tem 18189
get E 18174
end enc 18166
Ind ex 18164
" - 18156
e INSTANCE@ 18151
v alues@ 18125
a e 18079
'\\ u 18077
a ir 18063
at a@ 18040
en der@ 18018
geogeb ra@ 17973
Res ol 17967
Ed ition 17960
1 4@ 17959
in stan 17957
loc k@ 17934
L e 17932
1 3@ 17931
n "@ 17925
e qual 17890
os t@ 17885
ER X 17881
TYP E@ 17880
ile d@ 17867
comm ons@ 17855
Par ser@ 17850
get Message@ 17839
form at@ 17835
le d 17833
D ate 17821
Rec ogn 17819
Expres sion 17818
set Text@ 17817
wid th@ 17813
Fil ter 17812
Not Null@ 17790
By tes@ 17784
I gn 17771
Wid th@ 17768
get Property@ 17760
tr @ 17759
u te 17734
s ession@ 17724
param et 17713
Qu ery 17681
od y@ 17674
Dec lar 17659
c ur 17643
aliz e 17643
ch ild 17624
ac t@ 17597
" / 17561
get Class@ 17553
c ast 17552
servi ce@ 17544
en try@ 17533
s up 17507
Runtime Exception@ 17493
iter ator@ 17478
ev ent 17457
m on 17454
Par t 17444
Ver sion 17432
ur n 17427
value Of@ 17406
lis t 17392
e p 17388
s _ 17379
ition Exception@ 17378
l l 17358
F @ 17299
ol der@ 17282
Run n 17271
_ 2 17268
A t@ 17255
Qu ery@ 17252
j o 17247
w rite@ 17191
: \xa0"@ 17180
M ap 17167
ch ange 17162
St art 17155
U M 17152
ec ted@ 17128
buff er@ 17104
Gener ator@ 17056
App lic 17050
A _ 17042
" . 17039
act er@ 17033
St y 17024
Regis try 17014
ex ten 17003
th ri 16978
urr ent 16975
l er 16973
C er 16965
k il 16964
g raph 16959
u b@ 16952
T O 16946
ser ver 16945
fe ature 16924
Pl ugin@ 16900
L ength@ 16895
S O 16890
get B 16887
a u 16886
Recogn itionException@ 16880
D I 16869
ur l@ 16857
wor d 16849
is t 16833
g r 16798
_ f 16795
e i 16783
Un it@ 16775
V ir 16775
ap t 16772
c o 16770
_ 0 16754
l y 16727
Bon d@ 16720
an nel@ 16712
a tive 16701
bu ild 16692
En d@ 16648
Par se 16623
Op tions@ 16622
R et 16621
err or 16620
to ols@ 16615
sh ow 16603
T ab 16603
Paramet ers@ 16584
m er 16566
Dial og@ 16548
lo b 16537
gro up 16534
2 5 16534
ifi c 16498
ag n 16489
S cript 16468
st atu 16449
Vir tual 16434
n ode 16417
lo y 16411
Par ser 16406
ap p@ 16394
m ap 16369
C O 16363
DEFAUL T_ 16360
P O 16349
Cont ent@ 16345
H T 16317
is Empty@ 16303
po int 16290
track ing@ 16289
Compon ent 16287
u ti 16287
ust om 16252
back tracking@ 16241
AC T 16233
Enti ty 16232
ex amples@ 16219
Ax is 16212
s ing 16210
D et 16207
d e@ 16204
sub string@ 16202
Lo ader@ 16195
tr e 16190
ff ff 16189
TYP E_ 16179
Fr ag 16161
res ol 16149
R ule@ 16148
i re 16132
D AT 16128
com pon 16123
En viron 16118
a a 16118
sw t@ 16109
agn os 16109
U S 16108
Serv let 16095
i on 16091
d om 16066
C ateg 16021
am p 16019
b r 16018
le v 16013
g ing@ 15990
P ER 15987
or d@ 15964
param s@ 15960
Enti ty@ 15956
Des cription@ 15942
Po sition@ 15939
L E_ 15929
Doc ument 15907
P ub 15902
" , 15891
M atch 15891
1 1 15888
Pro g 15883
pl ay@ 15875
in ts@ 15867
Com posite@ 15864
ifi er@ 15843
Instance Of@ 15819
requ est 15816
Ur l@ 15814
ach e 15800
Argument Exception@ 15791
ch ed 15789
has Next@ 15782
String Builder@ 15772
P age@ 15769
C oun 15767
c op 15758
am p@ 15757
pl et 15734
iv ot 15728
a uth 15719
par e 15709
R ange@ 15702
Colum n@ 15693
for m@ 15679
W O 15669
U ml 15634
I P 15625
proper ty 15619
Pan e@ 15607
I B 15599
Sel ection@ 15595
Illegal ArgumentException@ 15591
Res ponse 15581
op ae 15563
coun t 15554
D i 15533
C T 15532
c k 15531
L _ 15525
st ate 15514
S w 15500
C lic 15482
get Type@ 15477
a z 15475
an ce@ 15472
ap i@ 15465
nam e 15431
ST AT 15424
b ase 15423
Res ult 15402
Enc od 15400
fa il@ 15379
il ity@ 15377
on e 15366
lis tener@ 15363
0000 00 15357
k it@ 15352
Ac tive 15330
u i 15288
E S@ 15277
colum n 15277
Pol ic 15269
con ver 15262
S ession 15255
ac tiv 15251
String Buffer@ 15240
De bu 15236
hand le 15228
d b 15199
Sy mbol@ 15198
he ight@ 15162
De fa 15147
Num ber 15147
g or 15144
i tion@ 15144
L ib 15131
b ind 15119
gor ith 15119
ation sh 15084
Men u 15079
Bloc k@ 15073
sisten ce@ 15070
thri ft@ 15064
M o 15061
Throw able@ 15059
ar n 15054
ax is 15019
opae um@ 15010
p ath 14978
Be an 14971
fa iled@ 14962
s s@ 14957
tic s@ 14945
in put 14932
tok en 14931
C ode 14916
ug in 14911
g ui@ 14909
Dis play 14907
d raw 14896
qu ery@ 14865
Activ ity@ 14863
V alues@ 14862
m in@ 14849
ang u 14841
cre ate@ 14820
K _ 14819
t op 14807
str @ 14803
" < 14801
get N 14792
J o 14785
Edit or 14746
Or der@ 14734
Dep endenc 14711
id e@ 14696
I G 14677
u ri@ 14668
Bund le@ 14659
F lo 14649
Collection s@ 14642
Bo x@ 14638
b l 14616
Re ad 14589
er r@ 14589
M at 14582
JS ON 14580
cont ent@ 14575
M ulti 14574
Ign ore 14568
fiel d@ 14556
con tr 14526
B ag 14499
fi x 14490
Cal end 14482
M ach 14467
P attern@ 14443
open sc 14438
B or 14410
ag s@ 14400
Conn ection 14386
r up 14379
res ult 14366
loc k 14340
C OM 14335
> "@ 14334
ut e@ 14329
c s@ 14312
str eam 14308
ro m@ 14306
As s 14297
OM Element@ 14281
y n 14266
Q Name@ 14264
Stack Trace@ 14262
de p 14255
t m 14245
Re ference 14242
0 1@ 14242
con n@ 14213
esp ace@ 14202
res ults@ 14164
P AR 14164
State ment@ 14154
run @ 14144
M O 14142
H @ 14124
In put@ 14117
d b@ 14108
O ffset@ 14097
pr ing 14093
Remote Exception@ 14092
t ot 14090
tok en@ 14084
D el 14082
5 0 14073
b le 14066
Ad min 14060
Constrain ts@ 14046
ass word@ 14039
g rid 14036
c ode@ 14032
s on 14031
V ER 14022
po s@ 14017
Meta Data@ 13990
temp l 13985
O W 13976
res ource@ 13975
b ase@ 13952
or iz 13952
_in _rule__ 13918
re l 13916
Templ ate@ 13896
f r 13893
am e 13883
b on 13882
Pro ject@ 13860
sec ur 13821
ti t 13810
Non Null@ 13804
p ol 13793
o i 13790
D A 13777
ent er 13737
D ER 13732
J ob 13723
Properties Edition 13715
Qu al 13701
He ight@ 13693
enti ty@ 13692
delet e 13686
S C 13671
cast le@ 13662
S Q 13641
m d@ 13637
annot ation@ 13632
r en@ 13589
get First 13584
s in 13566
ex pres 13564
en try 13564
proper ties@ 13563
oth er@ 13560
ER R 13558
re t@ 13549
ec ore@ 13517
s pon 13513
_ 1@ 13497
Nul l 13494
Per mis 13471
g y 13470
Dat ab 13470
uti ls@ 13465
S chem 13460
print StackTrace@ 13447
r a 13444
lay out@ 13439
valid ate 13427
ser v 13425
g l 13420
Chang ed@ 13417
m en 13411
1 8 13410
ed itor@ 13402
C ache@ 13396
h ash 13374
Assign ment 13373
con f@ 13347
Bu ild 13344
V @ 13343
Sequ ence@ 13327
i ence@ 13324
r yp 13311
S P 13310
Activ ity 13296
po int@ 13295
A li 13295
tar get 13292
B ack 13286
s o 13285
meth od 13278
re f 13266
con str 13266
E E 13264
In iti 13257
Exce p 13246
Play er@ 13239
se d@ 13238
St art@ 13223
Exec ut 13222
Clas si 13217
" C 13216
assert NotNull@ 13199
po si 13190
f ore@ 13182
W eb 13174
initi alize 13167
objec t 13166
A ut 13163
cd k@ 13160
getS el 13158
Vari able 13153
ce s@ 13139
AT TR 13138
per sistence@ 13132
opensc ience@ 13131
app end 13111
IN TER 13100
spon gy 13083
spongy castle@ 13083
ex p 13079
Th read 13041
lab el@ 13034
av ig 13034
In ternal 13019
r app 13019
2 "@ 13017
ele ment 13008
a ked 13005
Pro x 13003
a k 12998
set Name@ 12990
oun d@ 12977
B U 12974
Que ue@ 12950
Re al 12949
Fiel ds@ 12943
Lay out 12935
o ver 12934
P h 12933
Ignore Case@ 12928
Buffer ed 12925
Stack @ 12921
M ar 12915
V ector@ 12908
T I 12901
P air 12897
pl ugin@ 12895
as t@ 12893
equal s 12872
s q 12870
S ing 12860
msg s@ 12855
it s@ 12855
c lient 12847
Ch ild@ 12845
Element s@ 12839
Or der 12826
M edi 12819
R ender 12809
o p@ 12805
Fe ature@ 12796
s Repository@ 12790
Attribu tes@ 12782
m ain@ 12775
sW ith@ 12760
Ass oci 12750
Statu s 12736
0x 00000000 12733
b p 12727
u t@ 12727
fil ter@ 12714
VALU E@ 12712
F OR 12710
cl u 12709
s or@ 12697
log ging@ 12677
Un i 12677
m s@ 12666
AL @ 12665
ma ke 12655
oo t@ 12651
T it 12637
oo p@ 12629
Defa ult@ 12628
at om 12626
M E 12623
Op tion 12621
c all 12608
t ach 12608
1 6 12596
m f 12593
C ur 12591
Hash Set@ 12581
__ _ 12561
: "@ 12557
M AX 12542
comp il 12515
U ML 12507
Uml View 12506
UmlView sRepository@ 12506
Array s@ 12476
li t@ 12464
stack Size@ 12457
ur ation@ 12450
Str uct 12449
Stack Size@ 12439
F in 12432
m ax@ 12430
f actory@ 12421
m em 12420
Pan el 12418
Fon t@ 12395
p e 12391
Wind ow@ 12388
Re f 12372
T er 12371
cle ar@ 12368
Identi fier@ 12368
secur ity@ 12360
ic tion 12360
TY @ 12359
enti c 12347
equals IgnoreCase@ 12340
d ed 12334
g w 12333
Tre e@ 12331
ro ll 12328
Control ler@ 12314
new Instance@ 12309
il li 12306
lo ad@ 12267
im en 12258
F al 12256
St ore 12239
d el 12223
c ul 12213
Manag er 12202
UR L 12197
Sett ings@ 12195
un @ 12192
b ib 12191
t x 12185
C ore 12183
G E 12170
Sup pres 12123
Wind ow 12121
s ession 12109
Dom ain@ 12102
new Value@ 12083
oth er 12082
d est 12081
h el 12079
Debu g 12071
Men u@ 12060
on t 12053
U ID@ 12043
oun ds@ 12042
er i 12040
Annot ation 12039
a o@ 12032
sisten ce 12017
bib li 12016
ot he 11990
bibli othe 11990
bibliothe k@ 11990
Doc ument@ 11989
Se arch 11963
ifi ed 11955
ec k@ 11953
Char acter@ 11953
Graph ic 11945
feature ID@ 11939
F act 11938
a il@ 11938
B asic 11932
col l 11931
ow n@ 11921
Sock et 11910
uc tu 11903
W e 11897
Butt on 11869
Exp ected 11858
EN T_ 11857
h ad 11855
l en@ 11852
ST _ 11845
f rom 11836
des cription@ 11830
Environ ment@ 11827
Annot ation@ 11824
s pring 11823
Ch ar@ 11822
Col or 11822
t n 11817
u tion 11809
Cre ate 11808
ic k 11808
Calend ar@ 11800
Re f@ 11796
arn ings@ 11774
j face@ 11755
Test Case@ 11755
p c@ 11748
proper ty@ 11745
pu sh 11742
F ound 11740
M ouse 11737
I Z 11734
P ivot 11712
Enum er 11686
toc ol 11671
be an 11667
x ml 11658
Dom ain 11653
m edi 11639
al y 11639
Pro d 11606
wid get 11597
a 2@ 11565
regis ter 11565
s d 11563
D B 11560
a ut 11551
get Text@ 11550
iz e 11545
Fal se@ 11541
leg ate@ 11522
at tribu 11521
pr int@ 11520
man ag 11502
Excep tion 11495
LO C 11489
tif act 11489
mb ol 11486
B O 11483
O ption@ 11474
1 6@ 11469
ro ot@ 11466
t ab 11466
in it@ 11459
had oop@ 11454
FOLLOW _rule__ 11446
is ts@ 11445
3 3 11445
T A 11443
le t@ 11440
b en 11428
at tr 11423
A g 11422
IN _ 11421
contain s 11416
Bag Constraints@ 11415
sW arnings@ 11408
Al gorith 11401
Suppres sWarnings@ 11395
RE S 11393
AS N 11386
A re 11382
2 . 11377
rule __ 11373
Cont ents@ 11363
B ig 11346
d t@ 11344
He ader@ 11333
e + 11333
mar t 11318
Lis ten 11318
ro ot 11317
C OL 11301
a un 11296
U I 11295
View er@ 11292
l 2 11292
re port 11280
t w 11279
ASN 1 11271
gw t@ 11261
tr ace@ 11245
di agnos 11241
av i 11238
T up 11235
an t@ 11231
Remo ve 11218
ect or 11179
Defin ition@ 11171
t ask@ 11165
ad ata@ 11164
s on@ 11155
po sition@ 11148
vi der 11140
Comm on 11139
it er@ 11116
P age 11107
c c@ 11106
T IM 11102
Atom Container@ 11098
CD OM 11090
Par ent@ 11085
M @ 11084
au se@ 11082
ang le@ 11072
Lin k 11071
par ent 11068
Tr ace 11068
Lib r 11027
d ro 11026
statu s@ 11025
H as 11025
get G 11023
r st@ 11018
ex ce 11011
Com ple 11010
ol ec 11006
n et 11005
w riter@ 10997
b ind@ 10977
SQ L 10975
por ted 10970
h t@ 10962
Fr ame@ 10962
H older@ 10956
u x 10953
ed "@ 10950
r s@ 10948
o ke 10943
T ag@ 10938
bjec ts@ 10931
Func tion@ 10925
C lo 10920
Lo ad 10912
nam e"@ 10896
I Atom@ 10889
As set 10887
h avi 10886
1 5 10866
ut able 10864
Input Model 10858
jav a 10848
h er 10845
2 0@ 10838
meth od@ 10834
ire d@ 10828
Tr ack 10826
we bo 10822
Str @ 10810
enti al 10795
c ase 10789
cont ent 10788
en ame@ 10777
w ave 10758
S te 10751
Byte Array 10745
F _ 10743
an a@ 10736
M in 10703
mo l@ 10698
Inter rup 10691
t able 10689
Direct ory@ 10684
str ing 10682
res t 10681
) "@ 10680
Uti li 10679
1 00@ 10678
L ex 10667
exce ption@ 10662
M y 10656
exec ute@ 10643
index Of@ 10641
m ain 10624
Pr int 10609
i qu 10600
or ig 10588
Invalid Exception@ 10580
Not Found 10572
ser ial 10570
ou ld 10566
er ver@ 10560
Sub s 10555
diagnos tics@ 10552
igh t 10548
webo bjects@ 10546
de fin 10530
ur al 10516
D elet 10513
v ar 10510
loc ation@ 10498
ann el 10498
no tif 10496
s k 10495
Call back@ 10489
Notific ation 10485
S H 10481
U B 10462
P C 10461
Visib le@ 10460
l d@ 10457
ud io@ 10455
0 f@ 10455
s Package@ 10448
InputModel InvalidException@ 10446
ent er@ 10437
par t 10435
apt ana@ 10433
E __ 10431
F oc 10430
out put@ 10419
pro vider@ 10418
T w 10410
a it 10410
TY _ 10399
c ode 10391
Per sistence 10385
sel ected 10371
D imen 10365
CS __ 10359
AT ION@ 10354
Dis play@ 10349
O C 10341
re f@ 10335
Mapp ing@ 10317
et ch 10316
op tions@ 10314
" \xa0"@ 10312
Pri mi 10312
Ch em 10300
M s 10295
bu ck 10294
F E 10292
1 4 10281
ac @ 10280
est amp@ 10278
instan ce@ 10257
Contr ol@ 10242
R oot@ 10241
re ader@ 10236
or ds@ 10230
St at 10227
cre en 10220
g am 10217
u se 10216
cep t 10204
hash Code@ 10161
m atch@ 10156
ver sion@ 10156
w ave@ 10151
1 9 10151
iz er@ 10150
B ase@ 10150
I con@ 10145
Mon itor@ 10142
set s@ 10141
ob j 10140
assert False@ 10139
c tx@ 10134
s un@ 10133
C ap 10128
Inf orm 10118
i te 10118
St ati 10109
pro ject@ 10102
spring framework@ 10094
T E 10086
par se@ 10081
EE F 10081
c er 10075
Rel ationsh 10063
s chem 10060
Nam ed 10058
sis t 10055
uc cess@ 10046
c an 10045
Con sum 10042
= "@ 10038
initi al 10024
ad e@ 10016
ret urn 10012
De f@ 10004
U P 9999
Pri mary 9989
LO G@ 9983
v al 9981
Vari able@ 9966
pr is 9966
EX P 9959
B ot 9953
NotFound Exception@ 9945
out put 9943
Flo at@ 9927
pr @ 9922
ar d@ 9921
ON E@ 9909
Po s@ 9907
Reg ion@ 9906
Spec ific 9906
Imp l 9898
dom ain@ 9892
tm p@ 9891
Own ed 9879
Declar ation@ 9878
od y 9870
form at 9865
p s 9864
Gener ic 9859
pro cess@ 9842
re s@ 9831
Pro ject 9818
Up date 9815
1 3 9809
comm and 9800
Lin ked 9778
w ind 9772
Sty le@ 9767
1 7 9760
lob al 9757
l y@ 9756
edit ing 9752
illi s@ 9752
T O@ 9739
IN aked 9739
Sing le 9738
G raph@ 9730
c 2@ 9720
T ri 9715
un d@ 9712
row @ 9708
Action Listener@ 9703
but t 9703
AT ION_ 9702
Rec ei 9697
_ log@ 9690
ok e@ 9690
Clic k 9673
tic ip 9673
_ 3 9673
Inter face@ 9669
hand ler@ 9667
Set s 9664
Sequ ence 9662
Sh ell@ 9660
Pair @ 9656
Follow @ 9655
R ed 9654
Op en 9650
By t 9643
ed u@ 9642
f low 9642
AT UR 9630
2 D@ 9629
N et 9624
AB LE@ 9618
CS Access@ 9615
ac ter 9605
sh ould 9604
manag er@ 9598
c ateg 9591
to p@ 9570
widget s@ 9561
EN T@ 9556
H ost 9556
proper ties 9555
v ed 9543
Applic ation 9539
AM Q 9534
K ind@ 9524
fac es@ 9521
um ents@ 9516
b io 9515
O J 9513
ch ild@ 9512
W rapp 9512
_f sp@ 9499
6 4@ 9499
push Follow@ 9499
AG E_ 9497
Ev alu 9496
tri m@ 9492
V al@ 9488
2 0 9479
Ch annel@ 9476
Fa ult@ 9474
d ial 9471
Prog ress 9463
min st 9461
Grid Data@ 9460
ER V 9460
M ax 9459
Test s 9458
t ur 9450
n eo 9441
Str uctu 9438
M S 9427
l 2@ 9424
LE MEN 9422
0x00000000 000000 9422
C E 9418
M is 9406
set Property@ 9395
ac tive 9388
i x 9366
s ed 9366
qu ery 9357
lab el 9354
uc t@ 9348
Man age 9346
P ort@ 9345
s Utils@ 9345
al t 9315
k er@ 9312
Sc ope@ 9309
p atch 9308
b lock 9306
doc k@ 9304
AT ION 9298
C ustom 9295
f ace 9289
c ore 9281
mon itor@ 9274
I D_ 9267
get Attribute@ 9255
fil ter 9254
Co ord 9247
th is 9244
Param s@ 9241
C ache 9231
n e 9230
wor k@ 9228
Ro ot 9218
F low 9215
E Reference@ 9209
Com plet 9208
sy s 9205
Int ent@ 9196
l2 j 9192
ri x@ 9186
l2j server@ 9186
ain t 9184
Play er 9182
le ase 9169
Tar get@ 9162
wave protocol@ 9159
U P@ 9158
b 2@ 9154
ain t@ 9153
02 l@ 9149
a "@ 9148
o ver@ 9143
R ect 9139
File s@ 9132
Cer tific 9130
Param @ 9125
MAX _ 9124
w h 9119
iction ary@ 9117
T ag 9113
S kil 9110
set _@ 9104
p l@ 9096
Follow Sets 9094
Det ail 9085
S IT 9083
ab iqu 9082
N odes@ 9065
if y 9065
Utili ties@ 9060
ate d@ 9056
L IN 9053
abiqu o@ 9053
Exec ution 9050
c s 9050
Sec ur 9048
ar ed 9042
SI Z 9032
ing Exception@ 9028
get Active 9024
Hand ler 9024
N avig 9011
B ar@ 9010
gro up@ 9006
Process or@ 9005
and om@ 9002
Pro tocol 9002
open source@ 8996
eb ay 8995
b ar 8992
aun ch 8966
M illis@ 8966
Http Servlet 8961
Spec @ 8956
ebay opensource@ 8955
" f 8943
sol ute 8931
OR _ 8931
pres ent 8928
arr ay 8927
Func tion 8919
0x00000000000000 02l@ 8912
tit le@ 8911
tur mer 8911
turmer ic@ 8910
lin ux 8907
get User 8906
EEF Tests 8906
I Bond@ 8901
Model sUtils@ 8900
EEFTests ModelsUtils@ 8900
start sWith@ 8897
Contain er 8892
Polic y@ 8887
c ap 8885
Cal l@ 8877
D raw 8876
DEFAUL T@ 8875
th at@ 8869
By Id@ 8868
sp lit@ 8863
id x@ 8858
Lev el 8845
Un it 8836
k kit@ 8832
um l@ 8826
arr ay@ 8826
az z@ 8820
doc @ 8818
Runn able@ 8817
E qu 8817
l on 8816
d ock 8813
linux tools@ 8806
in c 8784
z z 8777
0 "@ 8775
B ody@ 8763
Dependenc y@ 8760
comm and@ 8755
UML Package@ 8753
or ity@ 8748
v el 8748
Dimen sion@ 8748
Key s@ 8731
Key word 8731
j j 8729
fer red 8717
m app 8714
expected Model@ 8702
Hand le@ 8701
h ttp 8700
A f 8699
ation Exception@ 8688
B ar 8684
dis play 8681
esp ace 8668
stream @ 8666
p an 8661
g raph@ 8658
ateg y@ 8649
ted Exception@ 8643
Datab ase 8641
R ol 8639
IN G_ 8636
Mem ber 8633
u al 8624
O cl 8623
S D 8621
" un 8617
T op 8614
ar g@ 8611
D E_ 8599
Notific ation@ 8596
3 4 8589
Constr uct 8587
y y 8583
met a 8573
Ch oi 8571
Re pl 8566
ke d@ 8559
Auth entic 8558
get Logger@ 8554
il ity 8550
minst er@ 8548
crip tion 8545
g reg 8528
on d 8525
parse Int@ 8522
pu b 8522
U ri@ 8517
ap se 8512
sin ess 8505
Par ent 8504
pre fix@ 8500
Rec ord@ 8500
L angu 8497
En try 8492
sup ported 8488
m t@ 8487
m d 8486
Fol der@ 8485
f ore 8485
em e@ 8482
Value For 8481
En ter 8478
Geo Element@ 8475
lev el@ 8471
ver se 8468
neo 4j@ 8467
F rom@ 8464
en v@ 8444
NS Array@ 8443
C urrent 8440
getC urrent 8435
b asic 8433
bo ss@ 8430
f ound 8430
es erver@ 8414
il l 8414
F or@ 8411
TA G@ 8411
Sh ow 8408
P AT 8408
En g 8407
axis 2@ 8392
FI L 8392
buck minster@ 8389
b in 8387
G ui 8376
TER @ 8375
Al go 8370
contr ol 8368
le s@ 8363
sr c@ 8362
s m 8354
Com bo 8351
t mp 8337
_ name@ 8333
EM P 8330
enti ty 8330
Resol ver@ 8316
Pre fix@ 8312
Exten sion@ 8310
I AtomContainer@ 8308
St ub@ 8306
IT ER 8301
Bo x 8294
le ft@ 8292
Pl ugin 8289
repl ace 8282
uc ar@ 8279
res h 8279
im age 8277
gam eserver@ 8277
ar e 8274
get D 8273
ass and 8271
E LEMEN 8269
get Default 8268
_P RO 8261
fi er 8256
0. 0@ 8255
j boss@ 8251
Pro vider 8248
Message Id@ 8246
T __ 8244
T EX 8240
_ c 8240
J Panel@ 8232
a tic 8229
Ab solute 8227
Ob j@ 8223
get In 8222
W rit 8217
1 000@ 8215
" test 8210
gener ate 8208
dir @ 8207
A v 8205
SW T 8203
bu kkit@ 8203
DA O@ 8194
ex tr 8189
si tion 8185
sr c 8180
Categ ory@ 8176
Trans action@ 8171
at ing 8168
CS__Group __ 8166
Exten sion 8165
En um@ 8160
St or 8158
M utable 8155
Table s@ 8154
Sock et@ 8147
h ost 8134
by tes@ 8133
SE T@ 8131
N E 8128
Loc k@ 8127
I R 8124
For m@ 8121
Classi fier@ 8114
tt p@ 8112
ec @ 8112
st ore@ 8105
Be havi 8104
ow er 8099
v ari 8099
C op 8098
C ar 8087
bjec t@ 8086
ig n@ 8085
NAM E_ 8082
Rule Call 8080
Conver ter@ 8080
Tit le@ 8080
Oper ations@ 8079
t ag 8073
i e@ 8061
INTER N 8061
Pack et@ 8058
model Editor@ 8055
_C ON 8038
expec ted@ 8036
oc k@ 8034
KE Y@ 8033
first InstanceOf@ 8031
fi re 8027
Tup le 8020
in al 8019
D ictionary@ 8018
As yn 8017
Chang e@ 8016
B r 8012
pl it 8011
er Exception@ 8011
typ es@ 8010
templ ate 8002
Frag ment@ 8001
Literal Exp 7991
Pro tocol@ 7987
M L@ 7985
rec over@ 7977
0x 7 7976
n own 7971
i g@ 7968
tri es@ 7961
TH @ 7961
tot al 7961
eng ine@ 7952
\\ n"@ 7951
bean s@ 7947
Edit ing 7946
O ut@ 7941
. "@ 7933
Char acter 7931
w eb 7930
b tn 7928
n 1@ 7922
Log Factory@ 7921
p lic 7921
Com posi 7920
s ave 7914
ex cep 7908
G en 7906
O c 7889
e p@ 7889
get Child 7883
I f 7883
ws t@ 7877
h ttp@ 7872
gro und@ 7854
Reposit ory 7853
Dock able@ 7851
ou s 7851
View er 7850
pro ps@ 7845
Tar get 7844
_P AR 7841
At tach 7841
a tive@ 7836
ATUR E_ 7834
Up date@ 7833
amp le@ 7829
change Context@ 7826
pack age 7820
Fact ory 7820
Are a@ 7811
Per form 7804
Secur ity 7797
config uration@ 7795
j ob 7793
R ow 7793
_ set_@ 7789
Item s@ 7785
__ Impl 7781
sub s 7777
annot ations@ 7772
d om@ 7767
A ST 7767
Graphic s 7760
paramet ers@ 7756
Expected Model 7755
r m 7753
De vi 7748
J Label@ 7742
t a@ 7735
i e 7735
file Name@ 7732
Com par 7732
Par ti 7731
com pare 7727
9 9 7720
is h 7718
Jo b@ 7716
li b 7714
p op 7711
g b 7707
yp e@ 7706
Interrup tedException@ 7704
Out put@ 7699
user Id@ 7698
get F 7697
m e 7697
service s@ 7691
p d 7684
get Resource 7679
Ev ents@ 7678
se qu 7677
b it 7670
Sel ected@ 7668
Class Name@ 7658
js dt@ 7658
P AC 7657
b lock@ 7652
Ch ain@ 7646
s or 7642
Structu red 7641
ar ch@ 7640
d ic 7634
y nam 7627
F F 7626
rest ore 7624
UR I 7623
3 2@ 7619
ev ents@ 7615
compil er@ 7598
Met ri 7596
Execut or 7591
crip t@ 7584
te x@ 7582
Tr an 7575
tem p@ 7572
p assword@ 7568
l v 7565
C tx@ 7552
F IN 7552
" name"@ 7540
IB UT 7537
ke ep 7515
Wrapp er@ 7514
Sup port@ 7508
lis ten 7505
Change Listener@ 7499
stack @ 7497
H ost@ 7494
50 9 7478
Serializ able@ 7474
is Set 7474
ev alu 7467
U p@ 7466
Struct ural 7465
m e@ 7461
Byte Buffer@ 7456
_ 4 7453
cop y@ 7450
_ s 7441
P op 7435
Local e@ 7430
T T 7428
conn ection@ 7422
"\\ n"@ 7414
Aut o 7410
bo x@ 7409
S um 7409
cle ar 7407
g re 7406
pol ic 7399
add To 7388
al id@ 7385
in te 7379
l at 7376
Bor der@ 7371
Initi aliz 7370
SIZ E@ 7365
get All 7364
Su per 7362
rig ht@ 7359
getFirst InstanceOf@ 7353
Work ben 7347
Pl at 7346
Adap ter 7343
ched ul 7338
ad ap 7337
3 D@ 7336
Ex tr 7333
s To 7328
s mart 7323
cl azz@ 7316
T mf 7309
m ode@ 7306
TYP E__ 7302
3 "@ 7301
ver y 7299
Dial og 7297
se arch 7295
or der 7294
Literal s@ 7293
C od 7292
In et 7288
le x 7286
Dec im 7272
re ference 7269
im age@ 7267
iz ard 7261
P e 7259
Bind ing 7259
w ait 7258
al i 7257
sc al 7255
ex ists@ 7253
st y 7251
st at 7250
ge o@ 7249
tre e@ 7245
Pri v 7244
"/ "@ 7233
ch annel@ 7229
Java Script 7228
U C 7225
at om@ 7224
cop y 7221
Po st 7220
vis it 7211
Emp ty 7210
pro x 7203
Un supported 7202
D ig 7201
Ar tifact 7181
AT E_ 7180
L ast 7179
ynam ic 7169
N ONE@ 7166
clu de 7163
E Attribute@ 7157
paramet er 7157
R ow@ 7157
6 0@ 7155
a tiv 7154
g en 7154
W @ 7153
OW N 7152
PRE SS 7151
un k 7138
ifi er 7132
bp m@ 7132
report Error@ 7125
Loc ation 7116
Pro file@ 7114
c f 7114
Sc al 7113
B ound 7111
fil ename@ 7108
resource s@ 7106
lis h 7102
c li 7100
set S 7100
Has h@ 7095
work s@ 7091
ance l 7091
act or@ 7086
contain er@ 7083
st d 7079
lo ok 7068
get Absolute 7063
He ad 7061
av elet 7058
CL AS 7052
FOR M 7049
Typ ed 7040
Group Layout@ 7038
Wid get@ 7037
ol d@ 7035
Version UID@ 7027
ip i 7021
Sy mbol 7020
PO SIT 7020
" ' 7016
sq l@ 7016
up date@ 7008
j Panel 7005
Sc roll 7005
B AS 7005
tr o 7003
er n 7001
Schem a 6996
C R 6990
serial VersionUID@ 6989
fi rst@ 6986
SQL Exception@ 6983
J EC 6977
compon ent@ 6976
2 7 6970
Class Loader@ 6969
at tern 6969
He ader 6961
Lin k@ 6960
Que ue 6959
A V 6958
s l 6956
Com parator@ 6954
ur n@ 6953
Inv oc 6951
UN T@ 6950
s ender@ 6950
ser ializ 6945
2 d@ 6942
conver t 6941
Par ticip 6940
EX PRESS 6940
ri ver@ 6939
es "@ 6939
wid get@ 6935
Prox y@ 6932
dat ab 6931
H _ 6931
Foc us 6926
U s 6919
Liter al@ 6915
1 00 6914
Core Exception@ 6912
Cur sor@ 6909
Ed ge@ 6904
sel ect 6902
N e 6898
FOLLOW _rule 6896
Match er@ 6890
S AX 6884
param @ 6883
ERR OR@ 6883
ch eck@ 6883
e+ 00@ 6883
Str ategy@ 6876
inv oke 6871
set t 6871
bio java@ 6871
n ull 6870
FE ATURE_ 6862
ve d@ 6858
to Array@ 6857
PRO PER 6855
FollowSets 000@ 6854
repl ace@ 6850
get Re 6835
su per 6828
attribu te 6827
Bor der 6824
Lon g 6823
um l2@ 6820
bind ing@ 6811
Menu Item@ 6810
rec ei 6810
". "@ 6808
aa aa 6808
F ail 6804
and es@ 6791
Comple tion 6785
le an 6784
Gui Utils@ 6784
S ize 6776
In @ 6773
po ints@ 6771
Applic ation@ 6771
ev t@ 6768
Fon t 6768
es s@ 6766
sp ace@ 6764
Vis itor@ 6762
dock able@ 6756
res ponse 6754
ma il@ 6750
L im 6747
colum n@ 6745
child ren@ 6744
Arg s@ 6740
get Node 6727
b oo 6723
in n 6718
oper ation@ 6717
Mach ine@ 6717
Po ol@ 6715
6 4 6711
iv ot@ 6705
C S_ 6705
" S 6701
om e@ 6694
to ol 6691
I ds@ 6691
EN @ 6689
id ata@ 6682
am od 6680
m it 6672
2 8 6663
un idata@ 6662
] "@ 6659
CD K 6659
et s@ 6656
X 509 6653
Mach ine 6651
IN @ 6647
char At@ 6646
mar k 6646
get Key@ 6643
re e 6643
Token s@ 6642
con sum 6641
im e 6640
g l@ 6639
Ali gn 6635
contains Key@ 6633
E core 6630
Time Millis@ 6630
con s@ 6629
C ell 6627
E Object 6623
be fore@ 6622
pl ugin 6621
add All@ 6620
activ ity 6616
an y 6615
en um 6615
delet e@ 6611
get Path@ 6608
P ort 6604
System MessageId@ 6603
B in 6598
D E@ 6596
or ies@ 6595
Log g 6591
Pro cess@ 6585
Dep loy 6584
2 4 6582
Trans action 6579
D TO@ 6571
Pro file 6567
get Default@ 6566
Primi tive 6564
P res 6560
po se@ 6558
Be fore@ 6558
B ounds@ 6554
di tion@ 6547
n g 6545
pri mary 6544
li g 6542
e e 6542
Ms g@ 6528
app lic 6527
IN G 6527
and om 6525
An aly 6521
vi r 6516
Com ment@ 6515
Tim estamp@ 6514
Syn c 6514
get Local 6511
AP I 6508
y cle 6507
0 8 6504
x text@ 6503
No tif 6503
File Name@ 6502
UR C 6498
am @ 6492
ic s@ 6489
match er@ 6488
D own 6488
af ter@ 6484
r y 6480
as n1@ 6475
tx t 6472
IG H 6469
AB LE_ 6457
jo b@ 6456
TR AN 6452
uc tion@ 6451
uc li 6451
Nam espace@ 6449
own er@ 6446
n ow 6445
re posit 6443
E List@ 6441
re al 6441
Inte ger 6439
m olec 6427
FI EL 6425
Fac ade@ 6424
AG E@ 6418
D FA 6415
g an 6412
d et 6406
e - 6406
De f 6404
o k@ 6399
if y@ 6395
ws d 6395
Ch at 6394
h ost@ 6390
Dat ac 6384
Stati s 6379
L ook 6375
Id x@ 6374
col or@ 6370
Exten ded 6370
Boole an 6368
tw it 6368
Sel ected 6367
pre pare 6366
ucli di 6365
am il 6363
run n 6360
Enter pris 6358
5 0@ 6353
fiel ds@ 6350
__Group __ 6347
p k 6346
ile d 6339
AM E 6337
men u 6335
a 1@ 6332
t ag@ 6330
at tri 6327
Inform ation@ 6324
token s@ 6320
Su ch 6318
lev el 6317
current TimeMillis@ 6314
P R 6302
bu ild@ 6299
Ch annel 6298
H E 6295
s le 6292
FI X@ 6287
Sign ature@ 6286
ur ation 6283
nam espace@ 6279
b e@ 6275
Comp ound 6274
Libr ary 6271
lo t 6269
T S@ 6269
M e 6268
getAbsolute Path@ 6263
s n 6259
feren ces 6257
No Such 6256
Coun t 6255
pro d 6255
Po ints@ 6253
L ITER 6253
0x 1. 6251
ad i 6250
Perform ed@ 6249
doc ument@ 6242
Remo ve@ 6237
i es 6233
m ail 6232
D F 6231
SWT Bot 6230
m at 6224
Res ults@ 6219
Add ress 6217
st ub@ 6214
Constrain t 6212
Syn apse 6211
INTERN AL_ 6208
l on@ 6202
Trans form 6197
s 2@ 6196
W h 6190
p le@ 6189
clo se 6184
serv let@ 6180
fr ame@ 6176
id "@ 6172
" c 6170
u conn@ 6169
g in 6169
dir ect 6167
mar sh 6165
po st 6165
restore StackSize@ 6164
keep StackSize@ 6164
ten ant 6163
an ch 6163
lin k 6158
j trace@ 6155
ps y@ 6155
Render er@ 6149
get H 6148
Rect angle@ 6146
DE BU 6138
_ E 6138
0x 0 6137
c md@ 6136
ATTR IBUT 6136
ri d@ 6135
Template Parameter@ 6133
W rite 6130
Message Context@ 6129
Descript ors@ 6127
bo x 6126
al l@ 6126
d p 6122
b und 6118
n g@ 6116
i red 6113
in ation@ 6113
smart works@ 6108
ec h 6105
j bpm@ 6103
war n@ 6102
item s@ 6102
U I@ 6102
cre en@ 6097
con current@ 6089
_ 2@ 6087
oper ation 6086
expres sion@ 6081
B ro 6081
sel ection@ 6074
c ache@ 6067
De legate@ 6064
Mat rix@ 6063
Rec ord 6062
Action Event@ 6061
i 2 6057
pro ject 6056
col or 6054
que ue@ 6051
le ment 6051
RE QU 6050
re fl 6050
F ram 6050
Doub le 6049
B y@ 6048
user name@ 6039
f unc 6037
Grid BagConstraints@ 6035
VER S 6034
Byt e@ 6031
R A 6031
get Bytes@ 6028
inc ip 6028
nam es@ 6024
pr ec 6023
Data Source@ 6016
FOLLOW _ 6012
Build er 6010
tif act@ 6003
D to@ 6002
Own er@ 6001
id e 6001
amod el@ 6000
m ulti 5998
in st 5994
Ste p@ 5988
ing s 5983
E qual 5981
es ted 5975
m ouse 5973
Equ ip 5970
p ivot@ 5969
Listen ers@ 5968
Constan t@ 5965
Serializ er@ 5960
rit eri 5957
Langu age 5934
d s 5932
EN C 5927
ic al 5927
be an@ 5924
Con f@ 5922
ass word 5914
G r 5913
oriz ont 5912
cep t@ 5912
_ B 5912
IN GL 5910
Relationsh ip 5907
G RO 5907
D O 5905
di tion 5904
3 0@ 5899
I T@ 5898
An y 5894
vir tual 5893
fa il 5892
Literal Exp@ 5885
D ao@ 5883
Constrain t@ 5882
Associ ation 5881
Debug Enabled@ 5879
D ro 5879
pro p 5878
Ac count 5874
se parator@ 5870
AP @ 5869
8 3@ 5868
loc al@ 5863
ap e@ 5862
ST AR 5860
LE CT 5856
tr ic 5854
r ender 5852
N S@ 5852
check ed"@ 5845
dial og@ 5845
com plet 5842
M ail 5841
E l 5841
ERV IC 5837
ail able 5837
Al ph 5832
get Int@ 5828
set Enabled@ 5827
Al tern 5826
Q @ 5826
or der@ 5825
b ers@ 5822
attr s@ 5822
ol og 5821
key s@ 5820
Bu siness 5817
Log ger 5816
le d@ 5814
H O 5814
Form ul 5812
Enumer ation@ 5812
EXP __ 5810
Mess ag 5809
ver sion 5805
ch ange@ 5803
" b 5801
IS_ UN 5800
KE Y_ 5800
ur l 5800
1 _ 5799
"un checked"@ 5799
Big Integer@ 5797
Th at@ 5787
remo te 5787
Cl ust 5783
ri t@ 5779
int Value@ 5777
N UM 5775
f u 5772
Valid ator@ 5766
D own@ 5763
t a 5762
sp ace 5756
add Atom@ 5754
Requ ired@ 5751
set Value@ 5749
n orm 5749
Re port 5749
ag ram 5747
Eng ine@ 5746
w ith 5742
L ower 5741
PropertiesEdition Event@ 5739
n t@ 5737
ched ule 5734
HT ML 5733
sc ope@ 5731
S V 5726
uc le 5725
Pivot Package@ 5725
we b@ 5722
se q@ 5719
templ ate@ 5718
en i 5718
pro g 5709
Po ol 5708
enc od 5707
Parser RuleCall 5705
2 5@ 5703
ByteArray OutputStream@ 5702
im um 5699
rst udio@ 5697
f rom@ 5696
Pro jec 5688
compare To@ 5688
Mod ule@ 5687
Dis tribu 5683
ann er@ 5682
notif y 5680
Composi te 5675
" d 5668
Resource s@ 5662
Des c@ 5656
ac tions@ 5655
U im 5655
Mod e 5654
exten sions@ 5651
s v 5651
EN D 5651
p age 5649
2 4@ 5648
Preference s@ 5642
2 3 5642
V ar 5640
exec ute 5638
inter faces@ 5638
is DebugEnabled@ 5629
PropertiesEdition Part 5628
Progress Monitor@ 5619
en a@ 5618
pro to 5618
assert That@ 5612
Valid ation 5609
t or 5609
get Type 5606
Sh ort 5602
s te 5601
vis ib 5599
IN F 5598
M ore 5595
num ber 5594
Oper ator 5588
cl ud 5579
no tific 5576
" % 5576
G et@ 5575
Objec ts@ 5574
gb c@ 5574
Primary Exp 5570
s uccess@ 5567
S im 5565
H ist 5565
Asyn c 5564
Algorith m@ 5563
compon ent 5562
Linked List@ 5561
C UP@ 5561
in sert 5559
T P 5558
en ant 5556
Sh ort@ 5554
re q@ 5550
Permis sion@ 5547
STR ING@ 5546
Polic y 5543
For Key@ 5543
man age 5542
e qu 5538
Buffered Reader@ 5537
L I 5534
Algorith m 5526
us h@ 5525
Met adata@ 5524
class Name@ 5511
O B 5510
Su ite@ 5508
n um@ 5508
f ull 5507
p attern@ 5506
2 6 5504
it or 5502
gan iz 5502
dis pose@ 5501
R ange 5500
St and 5499
Manage ment 5498
Rule Call@ 5497
Fl at 5496
P OR 5494
Axis Fault@ 5490
( "@ 5489
Be fore 5483
On e 5481
U se 5479
ook ie@ 5471
Chang ed 5470
R andom@ 5469
met adata@ 5468
On t 5465
r en 5465
J son 5464
ate s@ 5463
now led 5463
NS Mutable 5461
get Attribute 5459
de legate@ 5458
u ce 5457
uc tion 5449
get Log@ 5448
an k@ 5443
Rol e@ 5436
file s@ 5436
H t 5436
Prox y 5432
Consum er@ 5431
T AG 5428
Hash table@ 5427
String Utils@ 5424
_ Fields@ 5423
1. 0@ 5422
\xa0 \xa0 5422
sec ond 5421
send Message@ 5418
av ed 5415
S ur 5407
Sign ature 5406
Pr ere 5404
Pub lic 5404
at t 5402
a 4@ 5398
uclidi an 5397
Uti l 5394
y lon@ 5394
Token izer@ 5393
s ave@ 5391
E S_ 5389
av er 5384
as List@ 5382
grid BagConstraints@ 5380
key Set@ 5377
Imp ort 5377
mo ve 5377
instan ce 5375
NO T_ 5369
"< / 5368
Specific ation@ 5364
Ret urn@ 5362
L if 5360
set Layout@ 5359
Car bon 5358
em e 5356
Registry Exception@ 5355
ass oci 5354
cl one@ 5353
Workben ch 5352
Pl ace 5345
ele ments@ 5343
Dis patch 5341
2 02 5341
", "@ 5339
Change Event@ 5337
cd om@ 5333
SO AP 5331
e ar 5329
con text 5328
Con d@ 5324
ti c@ 5321
ay load@ 5319
g in@ 5317
ch ron 5314
In st 5314
S n 5314
1 l@ 5312
File InputStream@ 5307
Package Impl@ 5307
lon g 5307
Ver tex@ 5306
st op 5305
State Exception@ 5303
Invoc ation 5303
D ER@ 5297
fil l 5294
hel per@ 5292
get X@ 5292
Parse Exception@ 5285
getM ax 5283
LO G 5282
e o@ 5280
s 1@ 5280
ev @ 5279
S AM 5279
met amodel@ 5275
Fl ag@ 5270
An im 5270
o 1@ 5267
Z @ 5265
ME SS 5264
CH AN 5262
Pre fix 5260
Uni que 5260
c ustom 5260
N ative 5259
Fac et@ 5258
Structural Feature 5256
W AR 5254
Al low 5249
Wor ld@ 5248
2 9 5241
rule s@ 5238
Instance s@ 5237
Instan ces 5233
b ody@ 5233
trans port@ 5232
MAX_ VALUE@ 5231
RO O 5228
Priv ate 5227
view s@ 5226
C ES 5225
Sel ector@ 5224
" s 5224
ap se@ 5218
refl ect@ 5214
S E@ 5213
Ax is@ 5211
D OM 5209
h p@ 5207
Sh ared 5207
Num er 5206
b io@ 5206
en viron 5205
HttpServlet Request@ 5205
per mis 5202
H OR 5202
get O 5198
ap sh 5196
Compound Command@ 5192
e 1@ 5192
Fol der 5184
i k 5183
Altern ativ 5182
inv oke@ 5181
B E 5181
d ao@ 5180
S INGL 5178
id s@ 5177
T EN 5177
get Owned 5176
STAT U 5175
state ment@ 5174
Comp il 5170
r ule@ 5169
r ange@ 5168
ut d 5168
m ock 5164
f etch 5160
SO URC 5156
or i 5156
si g 5152
" p 5151
a ff 5149
ge os@ 5147
N ext 5146
00 0 5144
M ock 5138
editing Domain@ 5137
add ress@ 5136
play er 5136
o ff@ 5134
Align ment@ 5134
conn ection 5133
m it@ 5132
getSel ected 5131
c or 5130
Permis sion 5129
sle ep@ 5129
5 5 5124
le ft 5122
Qual ifier@ 5121
entry Rule 5121
Format Exception@ 5119
ol der 5119
n l 5118
" )"@ 5117
Vis AD 5115
M atch@ 5115
R est 5115
3 . 5114
t or@ 5112
A D_ 5108
SI G 5107
he ader@ 5102
R UL 5098
Column s@ 5096
par ts@ 5095
i ve 5095
CO UNT@ 5093
lic k 5092
Layout Data@ 5088
Click Listener@ 5087
able s@ 5087
Assign ment@ 5086
contr ol@ 5083
ib ern 5082
E V 5082
sup port@ 5081
M g 5080
25 5@ 5079
N _ 5077
ator s@ 5073
lo t@ 5071
emp ty 5070
n odes@ 5070
MEN T_ 5070
char acter@ 5061
S m 5061
G EN 5061
st ation@ 5060
p age@ 5057
des cript 5055
k nown 5054
V o 5053
wind ow@ 5051
get Y@ 5049
Coord in 5048
Mar k 5042
ot al 5042
l ers@ 5040
/ "@ 5036
J Button@ 5034
ed it@ 5032
dec lar 5032
an aly 5029
2 _ 5028
a 3@ 5027
Operation Exception@ 5025
S Y 5023
b ound 5019
yp er 5018
get _ 5017
il es 5014
sis t@ 5013
get Data@ 5012
Jo in 5011
set Visible@ 5007
u sh 5007
Trans port 5005
cal cul 5005
orizont al 5004
On ly@ 5003
M Bean 5000
G lobal 4997
dom ain 4992
sel ection 4989
W avelet 4985
Pro pos 4983
c p 4983
que ue 4982
j ena@ 4981
c ause@ 4979
op e 4979
li br 4977
ifi ers@ 4976
control ler@ 4976
_in _ 4966
listen ers@ 4963
molec ule@ 4963
o ff 4962
Lex eme@ 4961
r d 4957
th read 4956
find View 4955
ger rit@ 4955
spec @ 4953
ot o 4949
D est 4948
S creen 4948
ON _ 4945
sett ings@ 4944
call back@ 4943
si mp 4942
getS h 4942
0 4 4940
sh ar 4939
mem ber 4937
syn apse@ 4935
" k 4935
P assword@ 4934
end ing 4931
n io@ 4930
ht ml@ 4926
ax i 4924
attri bute@ 4920
d ig 4919
AC K 4916
Illegal StateException@ 4913
valid ate@ 4912
get Task 4912
ab il 4910
c ache 4907
0x 1 4906
getActive Resource@ 4905
ifi ed@ 4904
E ff 4903
ExpectedModel For 4902
Point er@ 4895
Atom ic 4894
Err ors@ 4893
T rig 4893
rig ht 4890
aliz ed 4888
findView ById@ 4888
8 8 4885
axi om@ 4883
Visib ility@ 4881
nowled ge 4878
s ock 4878
Fi x 4876
h pl@ 4872
ch ang 4871
j og 4866
i m@ 4865
des c@ 4864
C _ 4864
as sign 4863
Se g 4863
js on 4863
Tab @ 4860
ad at 4854
e k@ 4848
s m@ 4848
found ation@ 4846
l in@ 4843
Inter val@ 4840
Frag ment 4840
Di agnos 4839
DEBU G@ 4838
F ER 4838
op en@ 4837
butt on 4832
op tion 4831
Sp ace@ 4829
To ols@ 4828
a fe 4826
Key Event@ 4824
Class es@ 4820
St ation@ 4819
SAX Exception@ 4819
TER _ 4819
D ynamic 4817
In str 4816
JSON Object@ 4815
EN G 4815
", \xa0 4811
men u@ 4810
Delet e 4805
c b 4805
excep tions@ 4802
Choi ce@ 4801
b ed 4801
Ch eck@ 4799
g o@ 4796
D b 4795
Sty le 4795
ON @ 4794
B ad 4794
To wn 4786
j ax 4782
mar y@ 4782
Cal cul 4782
getL ast 4780
Ad d@ 4778
SC R 4778
Mod ule 4777
mo b 4775
B ody 4770
at tach 4766
Re ad@ 4766
En vel 4765
par t@ 4762
Devi ce@ 4761
A UT 4760
0x ff@ 4759
by t 4755
st op@ 4753
Type Impl@ 4752
tr an 4749
ul ar 4747
Ch oo 4745
F amil 4743
Ret urn 4740
t ax 4740
tic al 4738
x 1@ 4738
FI LE_ 4736
exten sion@ 4734
n f 4733
S M 4733
Cer t 4726
ac cept@ 4724
OR DER 4723
get Object 4722
W S 4720
get Content 4719
Lower Case@ 4710
Decim al@ 4708
mb ols@ 4706
notif y@ 4706
0x7 f 4704
b ook 4703
Construct or@ 4701
Ob j 4699
log 4j@ 4698
VisAD Exception@ 4698
qu is 4696
" :"@ 4693
set C 4693
sequ ence 4688
t "@ 4688
lo ader@ 4687
1 02 4687
met ri 4686
ot e@ 4686
CDOM Object@ 4686
Imp lement 4686
3 6 4686
; "@ 4683
l angu 4678
getT ar 4673
tr ace 4672
cl ust 4665
L at 4663
as ed 4663
activ ity@ 4662
Data Type@ 4659
Tri ple@ 4658
graph ics@ 4657
s um@ 4656
Datab ase@ 4655
a f@ 4653
resol ve 4650
1 7@ 4650
view ers@ 4649
"C "@ 4648
as ter 4643
g 2@ 4643
set LayoutData@ 4642
al low 4640
Categ ory 4639
N S_ 4639
" [ 4637
Coun ter@ 4636
U E@ 4633
attribu tes@ 4633
loc @ 4632
u al@ 4632
pre vi 4632
ti tu 4631
set Up@ 4628
p as 4627
Text Field@ 4626
IC @ 4626
Ex ternal 4625
Text View@ 4624
match es@ 4623
C ip 4623
n el 4620
_M E 4619
__ 0 4618
KE Y 4617
3 d@ 4612
st or 4612
Pre ferred 4611
i2 p@ 4609
Regis tr 4608
Socket Address@ 4607
js on@ 4603
202 83@ 4603
V I 4603
T ION@ 4600
P attern 4600
res et@ 4600
O p@ 4593
I T_ 4591
Net work 4590
in f@ 4589
li b@ 4580
OP ER 4578
get Context@ 4578
u k@ 4575
Format ter@ 4575
_in _rule 4574
r ag 4573
In sets@ 4573
b a 4572
F R 4571
riteri a@ 4570
u a 4569
Mem ber@ 4567
an y@ 4567
l es 4566
Admin Service 4564
Tool kit@ 4562
3 0 4561
b 3@ 4561
", \xa0"@ 4556
OCL std 4555
Date Format@ 4551
ack @ 4551
sys tem 4551
Identi ty 4550
get File 4550
p 2@ 4550
S li 4544
I TY@ 4544
Co ords@ 4543
d oub 4543
yp e 4542
er ializ 4540
Re lease 4539
W E 4539
c a 4539
Prog ress@ 4535
re p 4529
X _ 4523
AN D 4523
Reg ion 4522
en able 4519
C t 4518
G lob 4517
Defin ition 4513
Rec t@ 4510
G en@ 4510
LE T 4508
adat a 4507
AR @ 4506
to LowerCase@ 4502
get Parent@ 4501
B AM 4501
Detail s@ 4499
_C O 4499
r ap@ 4497
add Bond@ 4492
Certific ate@ 4492
get Height@ 4491
Logg ing 4489
3 1@ 4488
objec ts@ 4485
pu te 4485
Name "@ 4481
cept or@ 4477
st mt@ 4476
Expression sPackage@ 4475
IV E_ 4474
Num @ 4474
getL ength@ 4473
_ context@ 4473
Ter min 4472
arg uments@ 4470
R ou 4469
Po inter 4468
sy mbol 4466
L A@ 4463
Pol y 4462
_C H 4462
c assand 4461
Mod ifier@ 4460
has More 4457
Listen er 4456
Sel ect 4454
E Package@ 4450
he ad 4449
CE P 4449
orig inal 4448
ere ot 4446
B P 4446
e q@ 4444
L aunch 4442
T EM 4442
assert Null@ 4441
chedul er@ 4440
Tim er@ 4439
F etch 4439
group s@ 4436
Byte Array@ 4434
Associ ation@ 4433
5 . 4429
Activ e@ 4428
get A 4428
b ot 4427
1 8@ 4425
o f 4420
Id "@ 4419
End point@ 4418
id enti 4418
7 7 4418
tic s 4417
R S 4415
par e@ 4413
S k 4411
6 6 4411
get Data 4409
Stand ard 4408
s kil 4408
RE G 4408
b le@ 4406
K nowledge 4404
Tw it 4402
a im 4399
ad e 4396
get Service 4395
in _ 4395
P rec 4394
Compar is 4393
M ime 4393
O U 4392
resol ve@ 4391
L ed 4391
pan el@ 4390
Af ter 4388
__Impl _in_rule__ 4388
st ore 4387
o ot 4387
__ Impl@ 4386
s ax@ 4385
op ro 4384
" H 4384
M ax@ 4383
i ties@ 4382
K er 4374
re ak 4373
Logger Factory@ 4368
v m 4368
X ML@ 4365
I Path@ 4365
ION __ 4363
P C@ 4362
oc l 4362
pro t@ 4358
intern al 4358
L ENG 4355
Stream Reader@ 4353
lv _ 4353
ing _ 4350
dis play@ 4344
conn ect@ 4344
F ull 4343
app ly 4342
get Column 4342
Plat form 4341
O ff 4340
own ed 4336
pr ere 4335
" x 4335
w ay 4334
Writ able@ 4329
ht ml 4327
Se parator@ 4326
f 4j@ 4325
Pr incip 4325
l l@ 4325
get Width@ 4324
get Time@ 4323
b ar@ 4321
un set 4320
eng th 4317
fl ush@ 4315
command s@ 4313
ad min 4312
gro und 4311
ap e 4309
C ST 4308
sl f4j@ 4307
ter s@ 4306
tre e 4305
M AN 4303
Instances Of@ 4301
AT OR@ 4300
UT F 4300
Mouse Event@ 4298
Arg uments@ 4298
L et 4298
n on 4296
" Test 4295
Sim ul 4293
Head ers@ 4292
ar tifact 4291
nam espace 4291
I con 4291
inf o 4291
Unsupported OperationException@ 4291
RUL E_ 4290
vis ad@ 4288
Prod uct 4288
d en 4288
u e"@ 4287
4 8 4287
Path s@ 4286
Per son 4286
Ro le 4286
Big Decimal@ 4286
ix el 4280
Pop up 4279
pre ference 4278
ByteArray InputStream@ 4274
ERVIC E_ 4273
A T@ 4270
2 1@ 4270
om e 4269
Initi al 4266
GE T_ 4265
Persistence Lay 4265
su re 4265
is In 4262
wsd l 4260
enum er 4258
Rec ipi 4256
u tion@ 4252
1 9@ 4251
fin d@ 4250
W OR 4250
ation Impl@ 4248
t p 4245
U UID@ 4244
Skil l@ 4243
L AS 4240
ce ylon@ 4240
Edition Component@ 4232
properties EditionComponent@ 4232
un k@ 4231
aw n 4228
enc y@ 4226
TO K 4219
St atic 4213
I 2 4210
Bon d 4210
act ual 4209
M IN 4205
5 9 4201
Fl ags@ 4200
ch annel 4200
statu s 4199
Re ferences 4198
arg 0@ 4197
PersistenceLay erException@ 4196
action Performed@ 4195
coun ter@ 4193
EN TER@ 4193
bo ard 4192
Libr ary@ 4191
Label Provider@ 4186
ex ist 4186
he ader 4185
view er@ 4184
obj s@ 4180
vi d 4178
V alid@ 4176
E G 4176
_ ber 4175
P U 4174
Pri ority@ 4172
w s@ 4171
RE D_ 4169
S ection 4169
get Key 4169
ach ed 4167
Ex ists@ 4166
dp p@ 4166
cal l@ 4163
fu _ber 4163
fu_ber lin@ 4163
loc ation 4161
RE D@ 4160
ential OCL 4160
Medi a 4159
Relationsh ip@ 4156
our @ 4155
ent ation@ 4151
PAR AME 4151
by te 4150
get Element 4147
add Child@ 4146
add ActionListener@ 4145
B l 4145
P c 4145
Pro ble 4144
Environ ment 4140
re d@ 4140
_1 _0@ 4139
aut h@ 4138
de d@ 4138
ail able@ 4137
C an 4137
N ative@ 4136
S ection@ 4136
V ector 4136
2 00@ 4136
p 1@ 4136
th row 4135
test s@ 4134
Skil l 4133
n s 4133
manage ment@ 4131
eri al@ 4128
Response Handler@ 4125
AC H 4125
ver ify@ 4124
de f 4124
String Tokenizer@ 4124
e k 4124
Mem ory 4123
i al@ 4123
s aved 4120
iz ed 4118
b 1@ 4117
u ce@ 4116
Border Layout@ 4116
_M O 4116
_S IZ 4115
r t@ 4115
n ow@ 4109
Cre ate@ 4108
Chat Color@ 4108
B row 4108
O K@ 4105
2 2@ 4101
Com ment 4098
get Parameter@ 4098
reference ValueFor 4098
GL _ 4098
get Parameter 4097
Ob serv 4096
active Char@ 4095
E uclidian 4095
} "@ 4094
c ryp 4091
d um 4090
D S 4088
H ome@ 4087
app server@ 4085
ES T@ 4084
AL L_ 4083
E L@ 4082
test Get 4081
G ame 4080
AC E@ 4079
Dis t 4075
SIG N 4073
To ol@ 4071
E "@ 4071
st udio@ 4067
OWN ED_ 4067
Deploy ment 4067
Z one@ 4064
D IS 4064
Chem Object 4063
COM P 4060
m av 4059
Prere quis 4059
" tr 4057
vis it@ 4055
P K 4054
dro ols@ 4053
Af ter@ 4053
0 l@ 4053
Time out@ 4052
Block s@ 4052
End point 4051
GEN ER 4048
OCLstd lib 4045
a it@ 4042
m ath@ 4041
Structured Selection@ 4040
Clic k@ 4036
add r@ 4034
res h@ 4034
reposit ory@ 4033
uc cess 4031
f act 4030
Run time@ 4029
in ation 4028
ES PAC 4025
Notification Chain@ 4020
e j 4020
Grid Layout@ 4016
8 "@ 4015
c p@ 4013
SINGL E@ 4013
L IS 4012
R ound 4012
e- 01@ 4011
EC T 4011
Lis p 4010
Mapp er@ 4009
Bit s@ 4009
f s 4008
Inet Address@ 4007
doub le 4007
Log in 4006
m ach 4006
Dir ection@ 4004
get Location@ 4004
Method s@ 4002
iv ed 4002
D um 4002
ac es@ 4001
"\\ \\ 3999
_ p 3998
F ind 3992
set Attribute@ 3989
Ele m@ 3989
lic it 3989
Certific ate 3989
h older@ 3987
c 1@ 3987
vis ion@ 3986
re lease 3984
4 0@ 3984
I ProgressMonitor@ 3979
and id 3978
get Property 3973
h er@ 3973
dat ac 3966
li fer 3965
wind ow 3965
3 5 3965
Schem a@ 3963
Bund le 3962
Descript or 3961
Hel p 3959
A u 3959
Emp loy 3958
complet e 3957
s creen 3957
AT E@ 3956
lifer ay@ 3956
ip p 3955
D S@ 3954
MEN T@ 3951
Sp ell 3950
Back ground@ 3949
net work@ 3947
C or 3947
Th e 3942
s List@ 3942
Boo k 3941
de vi 3940
get Atom@ 3935
test ng@ 3935
un der 3934
Di ff 3928
c r@ 3928
J t 3928
Comparis on@ 3928
S plit 3924
e e@ 3920
par ti 3919
In it 3916
Ag greg 3914
set Type@ 3914
schem a 3913
Test Suite@ 3911
File OutputStream@ 3911
Ker nel@ 3909
Ar g@ 3907
ELEMEN T_ 3905
ap i 3904
U G 3902
App li 3901
boo lean 3899
SCR IP 3899
e+ 01@ 3897
v m@ 3897
li mit@ 3896
In verse 3895
" value 3892
0x 000000 3891
Typ es 3890
descript or@ 3890
x pd 3890
di tions@ 3889
' "@ 3889
y 1@ 3889
_ present 3888
C red 3888
Trans port@ 3886
ri ver 3886
form ed 3886
simp le 3886
TEM PL 3886
T U 3886
Nam espace 3885
sty le@ 3885
al ph 3883
dat an 3882
r ange 3880
lo op 3880
3 7 3879
pr et 3874
Pre dic 3873
C ase 3871
A "@ 3870
n s@ 3869
op eng 3868
pl at 3868
To String@ 3868
g ed 3868
set Id@ 3867
get Ac 3864
ex p@ 3862
ac cess 3862
com pute 3862
TEX T_ 3861
c od 3858
Fi g 3850
RES UL 3850
v as@ 3848
c l@ 3848
build er 3845
N D@ 3845
categ ory 3845
i con 3845
hand le@ 3843
e per@ 3843
Order ed 3842
e et 3841
Ar tifact@ 3841
m g 3840
E D 3835
s In 3834
rm i@ 3833
get Start 3831
L en@ 3831
h at@ 3831
dis t 3831
a e@ 3830
w izard 3829
___ uri@ 3828
___ local@ 3828
Selection Listener@ 3827
getS ub 3827
co ord 3826
2 3@ 3825
EN TI 3823
o f@ 3822
4 0 3821
IN T@ 3819
S end 3819
0x 8 3818
Ht ml 3814
li p@ 3813
next Token@ 3812
E DEFAULT@ 3811
om et 3809
ed w 3809
Medi ator@ 3807
it ch 3806
ex c@ 3805
Util ity@ 3805
Behavi or@ 3802
categ ory@ 3801
ex pr@ 3795
ach ed@ 3793
EN D_ 3793
ac cess@ 3790
C M 3789
getN ext 3788
V O@ 3785
IGH T@ 3784
r 1@ 3782
cur sor@ 3782
butt on@ 3782
c ol@ 3780
AL L@ 3779
Child ren@ 3779
mod ule 3777
Tree Node@ 3777
prox y 3777
D OC 3776
V AR 3774
3 8 3774
Glob als@ 3772
Per spec 3769
HOR IZ 3768
M X 3768
c "@ 3768
St at@ 3766
red hat@ 3766
Cop y@ 3763
Track er@ 3762
ffff ffff 3760
el ine@ 3756
v ance 3755
MESS AGE_ 3755
get Description@ 3754
b o@ 3753
get Message 3753
Sett ings 3751
bjec t 3750
Iter able@ 3749
openg l@ 3747
tu re 3745
u id@ 3744
IN T_ 3743
En tries@ 3742
get Un 3742
LE F 3742
Child Descriptors@ 3740
entry Set@ 3739
AS K@ 3739
Or ganiz 3739
b 4@ 3736
expres sions@ 3734
res et 3734
y aff 3732
auth entic 3730
Del ta@ 3730
get Work 3730
sh utd 3729
rel ationsh 3727
Th ri 3727
6 7 3727
t f 3723
S cript@ 3723
M I 3722
String Value@ 3721
Ap p@ 3719
L AN 3719
al gorith 3718
an ti 3718
ro ss 3717
Fi rst@ 3716
Mapp ing 3715
Lin es@ 3714
opro t@ 3714
add Component@ 3713
r ub 3712
EL _ 3711
Evalu ator@ 3710
v 1@ 3710
x 2@ 3709
s Exception@ 3709
amp a 3706
get Status@ 3706
t 1@ 3706
- "@ 3705
c le@ 3703
sd k@ 3703
C ookie@ 3703
e Object@ 3702
ele m@ 3701
I QU 3701
debu g 3701
user Name@ 3699
array copy@ 3699
\\ u 3698
c y 3696
R aw 3694
ang le 3694
Stat s@ 3691
cle an 3689
5 "@ 3689
Stati c@ 3688
Notif y 3688
Twit ter 3688
P tr@ 3687
end sWith@ 3687
tern al@ 3686
Key word@ 3684
F ound@ 3684
notific ation@ 3682
O th 3681
Fin der@ 3680
j o@ 3678
sh ell@ 3677
int ent@ 3677
d est@ 3676
um an 3676
arg 1@ 3675
_ type@ 3675
d a 3673
siz e 3672
Res tric 3669
sy mbol@ 3667
Sp ace 3667
get Item 3666
p ivot 3666
O n@ 3666
dat as 3665
bund le@ 3664
last Comparison@ 3663
Graphic s@ 3663
vi leg 3663
S ender@ 3662
coll ection 3662
Asser tion 3661
IN D 3660
Met adata 3660
add Attribute@ 3659
se arch@ 3658
Content Provider@ 3658
_ Ocl 3653
lig ht 3652
Per sist 3652
fl ags@ 3650
HT TP 3649
editing Context@ 3648
com p@ 3648
tab @ 3648
field Name@ 3647
3 3@ 3647
Call Exp@ 3646
To p@ 3644
s ort 3643
W R 3642
F ast 3640
trans l 3639
so le 3636
NO W 3635
G R 3633
__ 1 3633
k top@ 3632
M al 3631
Annot ated 3631
rec ord@ 3629
get System 3627
S E_ 3627
en tries@ 3623
get Parent 3623
4 . 3622
su ite@ 3620
B al 3619
Su bject@ 3617
HttpServlet Response@ 3615
b ro 3615
o tific 3614
res t@ 3613
e ff 3613
Behavi or 3613
i con@ 3612
adap ter@ 3608
ver ify 3607
C assand 3606
reg ex@ 3604
get Group 3602
g le 3597
D b@ 3595
Runn er@ 3595
W _ 3595
_SIZ E@ 3594
W ith@ 3593
our ces 3593
g lobal 3591
FEATURE_ COUNT@ 3591
get Builder@ 3590
in ject@ 3588
proto buf@ 3587
constr uct 3585
rec ord 3583
s Type@ 3583
M _ 3583
T Exception@ 3582
get Image 3580
Action MetaClass@ 3580
compon ents@ 3578
q l 3577
ad apt 3576
ON T 3574
In ject@ 3573
d river@ 3572
Thri ft 3572
String s@ 3570
k ind@ 3569
St ar 3567
Auth oriz 3567
Enc ryp 3566
g c@ 3564
Mis c@ 3561
j op 3561
S mart 3560
N OR 3560
4 "@ 3560
c at 3558
ro ut 3557
" & 3557
Direct ory 3557
fr ag 3556
IC _ 3555
T enant 3554
Fa iled 3553
plic ity 3553
pre v 3551
s am 3550
con d@ 3548
A m 3548
wizard Shell@ 3546
tit le 3545
ERR OR 3545
EN otific 3542
ENotific ationImpl@ 3542
enter pris 3541
dep loy 3541
be gin 3541
alu es 3541
Configuration Exception@ 3540
sol e@ 3538
Model s@ 3536
a ke 3536
Tool bar 3536
TIM E@ 3535
b ody 3535
G P 3534
NO _ 3533
Oper ator@ 3532
ul ator@ 3530
PAT H@ 3530
des tro 3526
De leg 3526
ser t@ 3524
f ont 3524
ATTR _ 3524
Navig ating 3524
cer t@ 3521
getS ize@ 3520
sy m 3520
CST Package@ 3517
J AX 3517
LE V 3515
_P RE 3515
d c 3515
Loc @ 3514
Pointer Exception@ 3513
get New 3513
b ounds@ 3511
INF O@ 3511
present ation@ 3510
Sys log 3507
expres sion 3506
Ar ch 3506
Task s@ 3506
L2 Pc 3505
defin ed 3503
F ore 3502
3 c@ 3501
red uce@ 3501
_PRO PER 3500
W H 3500
UP DAT 3499
S creen@ 3499
" M 3498
Bu ck 3497
I Status@ 3496
polic y 3496
Ms g 3496
_C OM 3496
AR G 3495
T "@ 3495
jog amp@ 3493
D er 3493
cryp to@ 3492
Activ ator@ 3492
marsh all 3492
" N 3492
get Resource@ 3490
Per son@ 3490
ex it@ 3489
Event Listener@ 3489
Stor age 3489
s By 3486
NAM ESPAC 3486
Command s@ 3485
Town y 3484
c md 3484
ri x 3482
At tr@ 3481
Complet e 3480
Filter s@ 3479
lin es@ 3478
Enumer ation 3478
re main 3476
o om 3473
it o@ 3472
il t 3471
Qual ified 3471
preference s@ 3470
R ad 3468
_M AP@ 3467
* "@ 3466
L2Pc Instance@ 3466
k s@ 3465
i er 3464
Language Bundle@ 3463
f on 3462
ol um 3462
T ags@ 3462
number Of 3462
Gener al 3461
Authentic ation 3461
0 2@ 3460
Identi fi 3455
Ed ge 3454
On ClickListener@ 3453
Execut or@ 3452
pro p@ 3450
s ing@ 3450
" user 3450
Flo at 3450
r andom@ 3449
e ar@ 3448
Fa ult 3448
p atch@ 3447
IT E@ 3447
cer t 3447
FIEL D_ 3447
0. 0f@ 3446
de f@ 3446
set Color@ 3444
pri v 3444
m ock@ 3442
ac ity@ 3440
File System@ 3438
draw able@ 3437
i prot@ 3436
shar ed@ 3436
cassand ra@ 3435
Lo op 3435
Primi tive@ 3434
Result Set@ 3432
ss entialOCL 3432
ab ility@ 3431
_C LAS 3431
On e@ 3429
cont ents@ 3426
A D@ 3426
set P 3424
Check Box@ 3422
t ure@ 3422
edit or 3421
AB LE 3421
un i 3421
At tr 3420
" ]"@ 3419
e m@ 3419
Re port@ 3419
o ption@ 3418
get Atom 3418
exten sion 3416
Null PointerException@ 3415
Led ger 3414
for ce 3414
ar os 3412
LIS T@ 3412
Wor ld 3412
service Name@ 3411
environ ment@ 3410
O K 3409
SE CON 3407
Lim it@ 3407
get Boolean@ 3406
Exp and 3404
Le ft@ 3404
pri ority@ 3403
Internal EObject@ 3402
WO Context@ 3402
ent ory@ 3400
lab @ 3399
buff er 3399
N L 3399
Cop y 3398
evalu ate@ 3397
od er@ 3397
get X 3397
Editing Context@ 3396
su bject@ 3394
et o 3394
Ab ility 3394
Tit le 3394
Viewer Filter@ 3393
i ve@ 3393
OB JEC 3390
Clo se 3389
IQU E@ 3387
n er 3386
m p@ 3386
s ort@ 3385
g i@ 3381
s al 3381
ee f@ 3378
com pare@ 3378
c r 3378
Pro ps@ 3378
p m@ 3377
" _ 3377
W izard 3377
AC E_ 3377
J MS 3373
sy mbols@ 3372
N orm 3372
d to@ 3371
co ords@ 3371
s c@ 3371
" B 3371
is C 3371
new ChildDescriptors@ 3370
ge o 3370
Arg ument@ 3367
r y@ 3366
add ress 3365
Mal formed 3365
Adapter Factory@ 3363
STAT E_ 3363
Det ail@ 3362
imp ort 3360
OCLstdlib Tables@ 3359
Syn tax 3358
Mon itor 3357
C I 3356
in al@ 3355
Cont act 3355
Per i 3355
c at@ 3354
NO T 3352
g es@ 3351
3 _ 3351
Classi fier 3351
NS_ URI@ 3349
ORDER ED@ 3347
B atch 3347
PL IC 3346
IT EM 3344
Qual ifier 3342
replace All@ 3340
c as 3339
Time Unit@ 3338
adi us@ 3337
NS Dictionary@ 3336
I Workbench 3336
act ual@ 3335
HORIZ ONT 3335
set H 3334
per form 3334
lat er@ 3333
C ENTER@ 3331
Annot ations@ 3331
Encod ing@ 3331
Trans fer 3331
prere q@ 3329
ter m@ 3328
on d@ 3328
3 9 3328
clas si 3327
_P AT 3327
AD D 3326
as on 3325
Path Name@ 3324
Dispatch er@ 3322
se mb 3322
e Contents@ 3321
Col ors@ 3321
Alph ab 3319
PRO P_ 3319
Del i 3318
VALU E_ 3318
V IS 3317
M ain 3317
e f 3315
M in@ 3315
"tr ue"@ 3314
SE TT 3314
Geo Point@ 3310
O rig 3310
get Name 3309
column s@ 3308
T ick 3308
Dependenc y 3307
getS u 3306
Data Source 3305
pl ace 3304
ACT IV 3304
Inform ation 3303
ab s@ 3302
ces si 3302
Ter m@ 3301
or ity 3301
BU IL 3299
d "@ 3298
subs cri 3297
applic ation 3296
Pivot Tables@ 3295
Manag ed 3295
Ur l 3293
102 4@ 3291
oo "@ 3291
De prec 3290
Preference Constants@ 3290
Sw ing 3290
an im 3290
w rapp 3289
Envel ope@ 3289
in sets@ 3288
File NotFoundException@ 3287
As sist 3287
c i 3286
_ data@ 3284
initial ize@ 3283
af ter 3282
Pub lish 3280
5 7 3280
Ste p 3279
4 9 3278
handle Exception@ 3277
Ex t 3277
Up dat 3277
OM @ 3276
Con dition@ 3273
r as 3273
Process Instance@ 3272
w ard 3272
w rap@ 3271
dec ode@ 3270
enti als@ 3269
h ibern 3268
A W 3268
Navig ation 3267
00 1@ 3266
Block ing 3260
E ST 3258
C ell@ 3258
C md 3258
SE T_ 3257
D river@ 3256
CS__Group _1 3256
SV N 3255
ref resh 3255
regis try 3254
w 3c@ 3254
W SD 3254
Ab ility@ 3252
U @ 3252
Con st@ 3251
Ex pr@ 3251
STATU S_ 3251
abil ities@ 3250
p li 3250
Gener ator 3250
z er 3249
Ver tex 3245
get Command 3245
_ v 3245
Bin ary 3244
Up per 3242
D o 3242
per i 3241
ATTRIBUT E@ 3241
h igh 3241
N a 3240
mav en@ 3239
a 0@ 3239
U i 3237
Metri cs@ 3236
p air 3234
at tr@ 3233
N UL 3233
0x 4 3233
lin k@ 3232
CON FI 3231
f ul 3230
get Class 3230
compil e@ 3229
ben ch@ 3229
Type "@ 3229
Mat erial@ 3227
Inter face 3227
' \xa0 3224
T L 3224
VI E 3224
RE SOURC 3221
Re al@ 3220
Vo id@ 3219
Sh ape@ 3219
IS_UN IQUE@ 3219
P H 3217
C ast 3217
reg ion@ 3216
Ch arg 3216
look up@ 3215
q name@ 3214
IS_ ORDERED@ 3214
es _ 3214
enc y 3212
err ors@ 3211
Constan t 3211
T ip 3208
get Display 3207
tr ig 3207
R G 3206
B io 3206
d c@ 3205
Loc al@ 3205
3 2 3205
S T@ 3202
C RE 3202
ne ed 3202
s cript 3201
Frag ments@ 3200
Variable s@ 3200
com ment@ 3199
AP I@ 3199
" ) 3198
un it 3196
av ailable 3196
inte gr 3195
flow @ 3195
ch oi 3195
Dock Station@ 3194
h edw 3193
Statis tics 3193
del ta@ 3192
is h@ 3192
Loc ator@ 3190
Dro p 3190
F L 3190
n l@ 3189
set String@ 3188
Ap i 3188
EX TEN 3188
At t 3187
" # 3186
_present _ 3186
at er 3184
des ign@ 3183
Sur face 3183
Type Name@ 3182
M IN_ 3181
cli ents@ 3178
act or 3178
Virtual Machine 3178
= \xa0"@ 3175
doc ument 3175
aut o 3174
SS L 3172
initialize ExpectedModelFor 3172
hedw ig@ 3172
wor ld@ 3171
com ment 3171
R ob 3170
B ased 3170
Player Character@ 3169
por ter@ 3169
getSel ection@ 3165
twit ter@ 3165
List Key@ 3165
Bro ker 3163
getS ource@ 3159
TR UE@ 3158
j Label 3156
a 6@ 3156
car d 3156
V E_ 3154
m ac 3154
Construct or 3153
S ort 3149
S ERVICE_ 3149
he ad@ 3147
C ycle 3147
qu e@ 3145
Cre ation 3144
other End@ 3142
read Line@ 3141
N ING@ 3141
On ly 3141
Is su 3141
G ER@ 3141
FI LE@ 3138
fil l@ 3137
vari able 3137
M olec 3135
C P 3135
num ber@ 3133
Edit ing@ 3133
polic y@ 3131
Encod er@ 3130
B Y 3130
ch unk 3129
En able 3128
scal e@ 3127
Debu g@ 3124
in cre 3124
create Child 3122
l ing@ 3122
S em 3122
ou s@ 3120
en tr 3120
Label s@ 3119
JAX B 3119
syn c 3118
time out@ 3116
Wor d@ 3116
E QU 3115
Input StreamReader@ 3114
c 4@ 3113
Sign al 3112
des ktop@ 3112
sh ow@ 3111
se g 3110
St op 3110
Bind ings@ 3107
\\ ""@ 3106
pe er@ 3105
3 4@ 3100
ure s@ 3099
O _ 3099
ing "@ 3098
Compon ents@ 3095
Foc us@ 3095
a 5@ 3095
s ent 3094
Preference Store@ 3092
R andom 3092
Recei ver@ 3092
f ound@ 3092
Ex ist 3091
medi a@ 3089
Top ic 3089
fon t@ 3089
sh ort 3086
V ar@ 3086
s plit 3084
find By 3083
datan ucle 3079
Ac count@ 3079
O UT 3079
Flat Combo 3077
M ock@ 3077
Ver tical 3076
datanucle us@ 3075
plugin s@ 3074
or c 3073
PROPER TY@ 3072
" D 3071
DE S 3071
par ed 3070
iz ard@ 3070
Bon us 3069
US ER_ 3068
Clust er 3067
dro p 3067
Option s 3066
f lo 3066
ref resh@ 3065
has h@ 3065
graph db@ 3064
Dat ast 3064
g rid@ 3063
config uration 3059
LITER AL_ 3059
y "@ 3058
" :\xa0"@ 3057
j ar 3055
getM in 3055
e q 3055
d f 3055
S UB 3054
St ation 3053
Specific ation 3050
task Id@ 3049
ax on 3049
f fix@ 3049
CON T 3049
ram @ 3048
Element Type@ 3047
d one@ 3046
K IN 3046
y 2@ 3046
ro le 3042
PL E_ 3042
PropertiesEditionPart _ 3042
Is ot 3041
Trans l 3041
getChild ren@ 3040
Dock able 3039
'\xa0 '@ 3039
get Document 3038
b am@ 3037
Buffered Image@ 3037
PL UG 3034
Trig ger 3034
Tran sition 3034
VERS ION@ 3033
sq l 3033
e NS_URI@ 3033
Formul a@ 3032
Loc k 3032
render er@ 3030
se "@ 3030
aaaa aaaa 3029
K NOW 3029
_ 5 3029
wor ld 3028
L ua 3028
mb ed 3028
sh ared 3027
Pe er@ 3027
ind "@ 3026
assert Query 3024
W rap 3024
bon d 3024
java _c 3023
t c@ 3023
Po si 3023
java_c up@ 3022
" UTF 3021
" P 3020
Service Exception@ 3019
I TY_ 3015
Datac enter@ 3014
Inf os@ 3014
Attach ment 3013
se q 3013
it ch@ 3011
user s@ 3010
applic ation@ 3009
libr ary@ 3008
get Declar 3005
an ts@ 3005
createChild Parameter@ 3005
per s@ 3001
Item Provider@ 3000
func tion 2999
j u 2996
jj _ 2996
_ T 2995
" h 2994
sel eni 2993
ut ure@ 2993
o "@ 2993
Number FormatException@ 2992
get Version@ 2992
S ave 2992
os gi@ 2992
the EObject@ 2991
mob iles 2990
or ted 2990
orc ery@ 2990
mobiles orcery@ 2990
datab ase@ 2989
LIN E_ 2989
" key 2987
TH O 2987
TE ST_ 2984
Identi fier 2984
Po sition 2982
b b@ 2980
d own 2979
W ID 2978
G ap@ 2977
C enter@ 2977
P GP 2977
igh b 2975
T Type@ 2974
Print Writer@ 2974
OR Y@ 2974
H B@ 2973
H yper 2973
Null able@ 2970
Own ing 2970
ACT ION_ 2969
'\\u 0 2968
S uccess@ 2966
A ge 2966
Ali as@ 2965
5 8 2965
" r 2963
Selection Event@ 2962
J TextField@ 2961
excep tion 2960
4 7 2960
Common Util@ 2958
dial og 2958
get Named 2958
O F_ 2958
"k ind"@ 2958
ed ge@ 2957
CES S@ 2957
Cassand ra 2957
HT ML@ 2956
set Max 2956
V OL 2955
f oc 2955
get Content@ 2954
Pro p 2954
ti ces@ 2953
NSMutable Array@ 2952
Model Manager@ 2951
get Time 2951
pro file 2950
DAT A_ 2949
Pub Sub 2947
Date Time@ 2947
ag greg 2946
CLAS S@ 2945
Exp CS@ 2945
all InstancesOf@ 2944
Z ip 2943
wait For 2943
get Token 2942
Ap pro 2942
look up 2942
I ES@ 2942
er t 2941
I ST 2941
tenant Id@ 2939
EMP TY 2939
wor ds@ 2939
dep endenc 2939
AN @ 2939
O Auth 2939
I2 P 2939
byt es 2939
2 2 2939
s h@ 2937
Inv alid@ 2937
Ad min@ 2937
ific ation 2937
local e@ 2936
rid ge@ 2936
work bench@ 2936
th read@ 2935
r c@ 2935
schem a@ 2933
FIL L@ 2932
las t@ 2931
bot t 2931
R DF 2930
p ip 2929
_in_ entryRule 2928
Repl y 2928
s d@ 2927
_0 _0@ 2927
identi fier@ 2926
d st 2925
in str 2924
N o@ 2923
jop design@ 2923
hibern ate@ 2921
5 6 2920
ig r 2919
fe ature@ 2917
tifi er@ 2916
D ay@ 2916
rel ation 2912
i ch 2912
s For 2911
Iter ator 2909
Group s@ 2909
Simple DateFormat@ 2907
Medi ator 2906
re q 2905
bu f 2905
DER IV 2903
am b 2903
o te 2903
M er 2903
Pri vileg 2902
Mo ve 2900
pre d 2900
fac @ 2899
Lay er@ 2896
inn er 2896
Mar ker@ 2895
si @ 2894
li fe 2893
Test Method@ 2892
en sure 2892
P A 2892
get Server 2891
VAR I 2889
er ial 2887
Con current 2886
H igh 2886
_ b 2886
io e@ 2884
ier arch 2883
_ id@ 2882
trans form@ 2881
Un known 2881
sock et@ 2879
next Element@ 2878
" 1"@ 2877
ju z 2876
hasMore Elements@ 2875
Sn apsh 2873
X SD 2872
Property ChangeListener@ 2871
" ( 2871
jo in 2871
EN _ 2870
0x 5 2870
Instance State@ 2868
Exten sions@ 2868
T un 2868
Comp ile 2867
EV ENT_ 2865
P assword 2865
prox y@ 2864
war n 2864
previ ous 2863
LECT ION_ 2862
I Project@ 2860
s ample 2859
getAttribute Value@ 2857
"\\ ""@ 2857
Client Dependency@ 2856
S UC 2854
get End 2854
c ls@ 2854
"' "@ 2853
qual ifier@ 2852
XML Stream 2852
Sc anner@ 2852
v 2@ 2852
af e@ 2851
uct ure@ 2850
AT ED_ 2849
mer ge 2849
Particip ant 2849
Tim er 2849
OCL Expression@ 2848
Is Set@ 2848
uc er@ 2848
C ampa 2847
4 8@ 2847
" m 2845
vis ion 2843
il l@ 2842
TAG _ 2842
resol ved 2841
l st 2840
DO UB 2840
DE SCRIP 2840
as on@ 2839
Single Member 2839
mat rix@ 2838
Bu f@ 2838
EO F 2838
SE PAR 2837
FER RED_ 2836
Op en@ 2836
comm it@ 2834
send Packet@ 2834
Be gin@ 2834
File Path@ 2834
CS ParserRuleCall 2834
F ACT 2834
set Selection@ 2832
B LOC 2832
enumer ation@ 2831
bo ard@ 2830
com ple 2830
C UR 2830
dep th@ 2829
R ight 2829
c c 2827
n t 2826
Event Handler@ 2825
b s@ 2825
p ayload@ 2824
port al@ 2824
set Int@ 2823
Log ging@ 2823
get Value 2822
S ample 2822
war e@ 2821
in clude 2821
TEMPL ATE_ 2820
row s@ 2818
Call back 2818
Conver s 2818
aliz ation 2817
J Component@ 2815
ance l@ 2815
juz u@ 2815
get Field 2814
h d 2814
e 2@ 2813
Attach ment@ 2812
COL UM 2811
US ER 2808
IL E@ 2807
z er@ 2807
c lip 2807
Type _ 2807
axon framework@ 2805
bit Field 2804
par ser 2804
langu age@ 2803
Constr uction@ 2803
t up 2803
reg ion 2803
e g 2803
I JavaScript 2802
sp i@ 2801
ui m@ 2800
Sum mary@ 2799
so ap 2799
ri end 2799
S ER 2795
cal c 2795
O F 2794
Complet e@ 2794
S chedule 2794
pro ble 2793
Distribu tion 2793
G E@ 2793
coll ection@ 2792
Multi plicity 2791
get J 2791
References Table 2790
TE ST 2789
s ample@ 2788
H int@ 2788
PRE FIX@ 2786
Delet e@ 2786
" id"@ 2784
Type Id@ 2784
I F 2784
ed Exception@ 2784
STAR T_ 2783
be havi 2782
Dig est@ 2782
Trans form@ 2781
sp e 2781
Se q 2780
f d@ 2780
AS T@ 2778
as set 2778
le ase@ 2777
tic k 2777
an k 2777
T IC 2776
Ind ent@ 2775
get Text 2774
\\ \\ 2774
paramet er@ 2772
Doc @ 2772
o v 2772
t e@ 2772
d st@ 2771
Class es 2771
DOC U 2769
_C OL 2768
E ssentialOCL 2768
Real Type@ 2767
TO _ 2767
wid th 2765
g u 2765
Dest ination@ 2764
Track er 2764
Rel ative 2764
get Connection@ 2763
Parti tion@ 2763
ch oo 2763
ret val@ 2762
si s@ 2762
Subs cri 2762
Pro to 2762
0x 9 2761
getS ource 2759
T ION 2759
Error Message@ 2758
Draw able@ 2758
pop ul 2758
Execution Exception@ 2757
h s@ 2757
E mbed 2756
ali as@ 2753
getE Package@ 2752
ay load 2752
i ted@ 2752
P atch 2750
' . 2748
basic Set 2748
_ d 2748
po ol@ 2747
Tup le@ 2747
IT mf 2747
C as 2747
Deprec ated@ 2747
3 9@ 2745
but es 2744
3 7@ 2743
Com bo@ 2743
T UR 2743
ac h@ 2742
y s 2742
B _ 2742
Wor k@ 2741
Event Type@ 2740
CH AR 2740
I Resource@ 2739
fl ag@ 2739
yn om 2739
y si 2739
al go@ 2739
b r@ 2739
Sh ell 2738
Test Helper@ 2737
calcul ate 2737
trans action@ 2736
An y@ 2736
COM M 2735
U S@ 2734
c 3@ 2734
3 6@ 2733
c ent@ 2732
bind ing 2732
Inet SocketAddress@ 2731
start Time@ 2731
_ 3@ 2729
ec ode@ 2728
Own er 2728
4 4 2728
enc ode@ 2727
Inte gr 2727
T ION_ 2727
c ancel 2726
Recipi ent 2726
0 _@ 2725
s ection 2725
set up 2724
t 2@ 2722
'. '@ 2722
st at@ 2721
Regis ter 2720
Template Parameter 2719
Dep th@ 2718
M ob 2718
Po s 2718
A jax 2717
u ri 2717
Object Identifier@ 2716
ap on 2716
Re ached@ 2715
en ame 2715
Ac cessi 2714
dest ination@ 2713
par ticip 2713
Allow ed@ 2713
shutd own@ 2712
HORIZONT AL@ 2712
Requ ired 2711
V alues 2711
UN D 2710
Syn chron 2710
p i 2710
G L@ 2709
Le ft 2709
v en 2709
"test "@ 2708
U id@ 2708
U se@ 2708
Equal @ 2707
trans form 2707
MO DE_ 2707
Pre pared 2707
Str oke@ 2706
ec ycle 2706
tt ng 2705
State ments@ 2704
An ch 2704
e et@ 2703
Repl ace 2703
vis itor@ 2702
Oc curr 2702
Prec on 2701
NUM B 2701
Cip her@ 2700
_ symbols@ 2700
6 8 2700
Dat at 2699
syn pred 2698
c nt@ 2698
us ed 2698
Pl an 2698
en abled@ 2697
Ter m 2697
6 9 2697
set Font@ 2696
al le 2696
St ereot 2696
g "@ 2696
0 '@ 2693
w ik 2692
Index Of@ 2691
bu siness 2688
P as 2688
top ic 2687
c andid 2686
pro file@ 2685
cal end 2685
Subs cription 2685
l ing 2685
tm f@ 2684
Sp an@ 2683
class es@ 2682
Test s@ 2682
graph lab@ 2682
builder _@ 2681
get Properties@ 2681
vance d 2681
G O 2681
set Is 2681
bitField 0_@ 2681
Man ip 2680
" F 2679
a _ 2679
3 5@ 2678
TIM E_ 2677
re e@ 2676
M ask@ 2676
OP _ 2675
di o 2675
b row 2675
en e 2675
Sec ret 2674
Node List@ 2672
Calend ar 2672
fi @ 2671
Access or@ 2670
get W 2670
pro tocol 2669
Number Of 2669
X ml@ 2668
AT CH 2668
SWTBot Editor@ 2667
De part 2666
B R 2666
c ent 2665
sc roll 2664
Completion Propos 2663
O ri 2663
Round Rob 2663
i ons@ 2662
String Util@ 2661
TRAN SI 2661
Hist ory@ 2661
Br ack 2661
j desktop@ 2660
sel ect@ 2658
RA Y@ 2658
File System 2657
RE MO 2657
Permis sions@ 2657
e Inverse 2656
Termin al 2656
G rid@ 2655
on Create@ 2654
getB ody@ 2654
Lo ader 2654
Dat as 2654
e fin 2654
exp ect 2654
Alternativ es 2653
top ic@ 2652
R ight@ 2652
Byt es 2652
Notif y@ 2651
Predic ate@ 2651
Ch unk 2651
n b 2651
_ME SS 2649
method s@ 2648
HE AD 2648
pub lish 2647
fin al 2647
Process or 2647
olog y 2647
CS Rule@ 2644
C riteria@ 2644
an ch@ 2642
Bo t@ 2642
extr act 2639
T ABLE_ 2638
Datac enter 2637
P ip 2637
get Item@ 2636
Editor Input@ 2636
Pre ference@ 2636
Av ailable 2636
D B@ 2635
am l 2635
edit ors@ 2634
Parti tion 2634
in s@ 2634
Before Class@ 2633
Xml Access 2633
fin alize 2632
CS T@ 2631
T x 2631
av en 2630
clas s@ 2629
t n@ 2628
s With 2626
Princip al@ 2625
Cer t@ 2625
D ay 2625
Fram e 2625
CHAN GE 2623
Combo Box@ 2623
AT EG 2622
cre d 2621
Av ailable@ 2621
read y 2621
Scroll Pane@ 2619
Net work@ 2619
AN Y_ 2619
Comm it 2618
ati s 2617
P ag 2617
task s@ 2616
jo in@ 2616
Des cription 2616
Sp lit@ 2615
CS__Group _2 2615
as yn 2615
mess ages@ 2613
UN KNOW 2612
r andom 2612
2 8@ 2612
w ay@ 2611
Ag ent@ 2611
ti vi 2610
Calcul ator 2610
ali as 2608
Re fl 2608
Ed it@ 2608
exp and 2607
Rec @ 2606
IN DE 2604
m ask@ 2603
oc @ 2603
StructuralFeature s@ 2602
qu are 2602
Pro t 2602
0x 6 2602
adapt or@ 2600
L ON 2600
Fin al@ 2599
AN Y@ 2598
er "@ 2598
re ference@ 2597
h older 2597
ac count 2596
old Value@ 2595
di ff@ 2595
Enterpris e@ 2595
inn er@ 2595
Registr ation@ 2595
getR oot 2593
si ve 2593
L IM 2592
d d 2592
TRANSI ENT@ 2592
Class NotFoundException@ 2591
URL Exception@ 2591
RE L 2591
get State@ 2590
m ote@ 2588
id ent@ 2588
Dis k 2587
get Block 2586
resh old@ 2585
ver se@ 2584
FORM AT 2583
T IT 2583
getE StructuralFeatures@ 2583
AST Node@ 2582
Service Client@ 2582
p ass 2582
EMPTY _MAP@ 2582
mod ule@ 2581
ver n 2581
getCommand Stack@ 2581
B reak 2580
Add r@ 2579
Lisp Object@ 2578
_ args@ 2578
gener ator@ 2577
2 7@ 2577
c b@ 2577
Malformed URLException@ 2577
CDK Constants@ 2576
V als@ 2575
getT otal 2575
H ex 2575
in u 2575
4 2@ 2574
CS pec 2573
Application Context@ 2573
Persist ent 2572
Fac es 2571
y cle@ 2571
l bl 2571
BP M 2571
cli @ 2570
Preferred Size@ 2570
I Atom 2570
O S 2570
ul es 2569
k session@ 2568
con dition@ 2568
C lean 2568
set Selected 2567
S o 2566
A S_ 2566
e y 2566
get Status 2565
Choo ser@ 2565
"UTF - 2565
"\\ 1 2564
seleni um@ 2564
VOL AT 2563
s b 2563
C urr 2562
getC ount@ 2561
Visib le 2561
h ist 2561
mem ber@ 2560
rec t@ 2559
inst all 2559
RES OL 2558
fil es 2557
ke eper@ 2556
g 2d@ 2555
E mail 2555
" a 2555
R AN 2555
tim estamp@ 2554
Tw o 2554
get File@ 2552
dest ination 2552
S ame@ 2551
con stan 2551
go vern 2551
Numer ic@ 2549
DE FIN 2549
Entity Manager@ 2548
data Source@ 2547
validate _E 2547
er Factory@ 2547
2 6@ 2547
4 6@ 2547
validate_E very 2547
let on@ 2546
System Exception@ 2546
at es 2545
D O@ 2545
EMP TY_ 2544
> \\n"@ 2544
g le@ 2544
c a@ 2544
to g 2544
sy s@ 2543
Re ader 2543
ucle us 2541
VOLAT ILE@ 2541
Diagnos tic 2540
IN VAL 2540
per son 2539
ar m 2539
Con sole 2538
S ol 2536
Ob server@ 2535
I File 2535
Mg t 2534
set Default 2533
DE P 2532
set Background@ 2531
s li 2531
Item Stack@ 2531
a que 2530
L AB 2530
EObject FlatCombo 2529
Access Exception@ 2526
l iter 2526
is Selected@ 2524
am es@ 2524
Property Descriptor@ 2524
R ate@ 2523
Point 3d@ 2522
Z er 2521
DERIV ED@ 2521
Print Stream@ 2518
UL TI 2518
G l 2518
sel ected@ 2517
Cre ator@ 2517
y m 2517
R UN 2517
" 0"@ 2516
Meta Data 2516
Fail ure@ 2515
M ac 2515
or ts@ 2514
Fa iled@ 2514
PL A 2514
get Request 2514
set Content 2514
last IndexOf@ 2514
Path Name 2512
IS_UN SETT 2512
F AL 2512
PAC K 2510
M Bean@ 2510
Scal e@ 2510
Formul a 2510
COL LECTION_ 2508
Default StringValue@ 2508
Mod ify 2507
F O 2506
IS_ DERIVED@ 2506
Messag ingException@ 2505
"\\ u 2505
regis ter@ 2504
Configuration Context@ 2504
Exception Exception@ 2504
D a 2503
PLUG IN_ 2503
IS_ TRANSIENT@ 2503
IS_ VOLATILE@ 2503
IS_UNSETT ABLE@ 2503
s end@ 2502
C ir 2501
W atch 2501
th at 2500
Sum mary 2500
A IL 2499
" : 2499
0 7 2499
Ed ition@ 2496
get Element@ 2495
___ qname@ 2495
Input Model@ 2494
IS_ CHANGE 2494
IS_CHANGE ABLE@ 2494
em ail@ 2493
Parse Node@ 2493
Us age@ 2493
default Value@ 2492
saved InstanceState@ 2492
to ByteArray@ 2491
di ff 2489
'\\u A 2488
m ul 2488
set Description@ 2488
or Type@ 2487
Implement ation@ 2486
I Chem 2485
V M 2484
wik i@ 2484
Le g 2483
nl p@ 2482
db c 2482
Edit Part@ 2480
0x f 2480
cf g@ 2479
field Id@ 2477
Manage ment@ 2477
Work Item 2477
C le 2477
D VO@ 2476
Key Value 2475
T WO 2475
ud it 2474
LEF T@ 2473
aliz ation@ 2473
s chedule 2473
sol a@ 2472
encod ing@ 2472
Rec e 2470
com put 2469
ME DI 2469
vid ers@ 2468
Sh ar 2468
exec ut 2467
get Ex 2467
D uration@ 2466
ind ent@ 2465
end point 2464
get InputStream@ 2463
ec ts@ 2463
set Title@ 2462
cl ou 2462
TEX T@ 2462
sh ip 2462
R a 2462
BAS E@ 2461
0 5 2461
jav as 2461
op 1@ 2460
create Expected 2458
getS ession@ 2458
at ts@ 2457
n avig 2456
Mat rix 2456
B ound@ 2454
O k@ 2453
Mapp ings@ 2453
if t 2453
With Name@ 2453
Ign ore@ 2452
I FI 2452
open Active 2451
assert ExpectedModel 2451
Process Package@ 2451
Graphics 2D@ 2451
sign ed 2451
EXPRESS ION@ 2451
delete Models@ 2451
finalize Edition@ 2451
initialize InputModel@ 2451
createExpected Model@ 2451
openActive Model@ 2451
assertExpectedModel Reached@ 2451
Pol ynom 2450
x wiki@ 2450
write D@ 2448
get Label@ 2448
sequ ence@ 2448
al ler@ 2448
P aint@ 2448
SE LECT 2448
mar k@ 2447
Un its@ 2447
I P@ 2447
ac cept 2446
OC L@ 2445
H y 2445
tot al@ 2444
Vis it 2444
Ch art 2444
_P O 2443
Sp e 2442
element At@ 2441
end point@ 2441
At temp 2440
Message Type@ 2438
B L 2437
Executor Fragment@ 2436
Con dition 2436
Target Exception@ 2435
getT it 2435
DAT A@ 2435
mapp ing@ 2434
Manager Factory@ 2434
at ural 2434
US E_ 2434
T otal 2434
r ing 2432
W IT 2431
constr ain 2430
Tr aver 2430
I ter@ 2430
syn Ctx@ 2429
PC Class@ 2428
ir _ 2428
p t@ 2426
W A 2426
o o@ 2425
Serv let@ 2425
Prepared Statement@ 2425
Invocation TargetException@ 2425
Defa ults@ 2424
Ex @ 2424
C ost@ 2423
w t 2423
plat form@ 2421
method Name@ 2421
IO @ 2421
Tool Tip 2421
RG B@ 2421
AP P 2421
"value "@ 2420
" a"@ 2420
fac et@ 2420
ValueFor Key@ 2420
Feature s@ 2420
Sett ing@ 2420
P si 2420
" R 2420
al loc 2419
Syntax Exception@ 2419
prog ress 2418
c am 2418
We ight@ 2417
D one@ 2416
Hist ory 2416
By Name@ 2416
d _ 2416
D 2 2416
DI RE 2415
Package Contents@ 2414
ST OR 2414
Char Array@ 2413
n '@ 2412
Man y 2412
test _ 2412
B nf 2410
Na N@ 2410
Im m 2409
current Thread@ 2408
Recei ved@ 2408
M aven 2408
typ e"@ 2407
ce ll 2407
Sec ure 2406
get String 2406
pu sh@ 2406
ti p@ 2405
v ar@ 2405
Security Exception@ 2404
ChemObject Builder@ 2404
For um 2404
Se arch@ 2402
Lo ad@ 2400
H ex@ 2400
eb i@ 2399
List For@ 2399
AN NOT 2399
Loc alized 2398
norm al 2397
_S H 2397
AL L 2397
Mod ified@ 2395
In sert 2395
"- "@ 2393
Pro f@ 2393
AN _ 2393
c lic 2392
set User 2392
CS_ in 2392
b 5@ 2392
ss l 2391
CON N 2391
m t 2391
ign ore 2390
00 00@ 2389
" j 2389
_ result@ 2389
d x@ 2387
null "@ 2386
JSON @ 2386
Declar ation 2386
at ing@ 2385
NAMESPAC E@ 2384
_ is 2384
F S 2383
process or@ 2382
det ail 2382
Work ing 2382
PRE FERRED_ 2382
atom Container@ 2380
ver ity@ 2380
Un ified 2380
CH EC 2379
Clust er@ 2379
ec ra 2378
2 9@ 2378
Base 64@ 2377
G e 2377
com posite@ 2376
prod uct 2376
M P 2376
conn ect 2375
sc anner@ 2374
9 7 2374
old ers@ 2372
pub lic 2372
get Method@ 2371
por ted@ 2370
FL AG 2370
id d 2370
Store Exception@ 2368
Dec l 2368
ati tu 2367
Res ources 2367
SEPAR ATOR@ 2367
V E@ 2366
3 8@ 2365
U ri 2363
5 6@ 2363
" >"@ 2362
j ust 2362
Equip ment@ 2361
Public Key@ 2361
Inv entory@ 2360
Simul ation 2359
f lick 2358
Identifi ers@ 2358
CDK Exception@ 2356
Look up 2356
in sert@ 2355
H ierarch 2355
e Notification 2354
should Log@ 2353
Al t 2352
te ar 2351
eNotification Required@ 2351
ex ternal 2350
um b 2350
Char set@ 2349
M C 2349
D L 2348
Metri c 2346
1. 0f@ 2344
Conn ector@ 2344
g 1@ 2344
contain er 2344
" 1. 2342
Char s@ 2342
Service s@ 2342
dis patch@ 2342
t v 2341
Po st@ 2340
Ac tions@ 2337
q l@ 2337
Fin ish 2336
SH A 2336
lex er@ 2335
DE LET 2335
clust er@ 2333
m u 2333
Element _ 2333
Resource Bundle@ 2332
S ide 2330
Del ay@ 2330
d a@ 2330
s ection@ 2329
ON E_ 2329
n ative 2328
Multi ple 2328
U D 2328
getS imple 2326
m Service@ 2324
t on 2324
constr uct@ 2323
f "@ 2322
F UN 2320
5 1@ 2320
AB STR 2319
Out Of 2319
sk ip 2319
pack et@ 2318
In ject 2318
C ub 2317
_ 6 2317
r c 2317
co ver 2316
Par alle 2316
Ser ies@ 2315
Ad vanced 2315
I AL 2315
serializ er@ 2313
Form al 2313
X Path 2313
V IR 2312
stat s@ 2310
Initializ ed@ 2310
U P_ 2309
vi e 2308
as ter@ 2308
Rule s@ 2307
Fil es 2307
as ser 2307
I File@ 2306
Pub lis 2306
Row s@ 2306
over n 2305
por ts@ 2305
ec ore 2304
Decim al 2304
p a 2304
ABSTR AC 2304
KIN D@ 2302
dis patch 2301
pre fix 2301
ID s@ 2301
OR T_ 2301
Red efin 2301
C ss 2300
To ast@ 2298
getR el 2298
V eto 2296
OR Y_ 2296
Up load 2293
EXTEN S 2293
tot ype@ 2291
get Line 2291
Chang es@ 2291
Bu ilt 2291
B lip 2291
H uman 2291
tivi ties@ 2290
D river 2289
Object Name@ 2288
Assignment _1 2288
Alphab et@ 2288
E P 2288
client Dependency@ 2287
rec ipi 2287
ud e@ 2287
Code Gen 2287
session Id@ 2286
olog y@ 2285
RE AD_ 2285
getL e 2285
for um@ 2284
PLUGIN_ ID@ 2283
P AS 2283
devi ce@ 2282
Tr ust 2282
Coll ector@ 2282
To B 2282
S in 2281
Token Types@ 2280
Ind ic 2280
integr ation@ 2280
l li 2280
ASN1 ObjectIdentifier@ 2280
s creen@ 2279
Choi ce 2279
Private Key@ 2278
G RE 2278
im g 2278
get Server@ 2277
agram @ 2277
c um 2277
ou ch 2277
NL S@ 2277
t ags@ 2276
set In 2276
pan el 2275
New @ 2275
P in@ 2275
P ic 2275
on ds@ 2274
Fix ed 2274
Devi ce 2274
pri mi 2273
DOUB LE@ 2273
b "@ 2273
pk g@ 2272
on Click@ 2270
Object Key@ 2270
getF ull 2269
p "@ 2269
cre ated 2268
es ted@ 2267
8 7 2266
ELEMEN T@ 2265
mapp ing 2265
LENG TH@ 2264
Ag ent 2264
trig ger 2264
Number Value@ 2263
A_ symbol 2263
J ar 2263
get Node@ 2259
Us age 2259
Rad io 2259
R D 2258
Back ground 2257
r ect 2257
A IN 2257
typ ed 2255
Sc ope 2254
s Map@ 2254
en e@ 2253
Cap abilities@ 2253
si ble 2252
Xml Element@ 2251
S en 2251
Famil y@ 2250
exist ing 2248
h a 2248
Th ro 2246
our se 2246
" n 2246
DI R@ 2245
F uture@ 2245
get Pre 2244
ud son@ 2243
associ ation 2243
Attri butes 2243
inte lli 2243
get Id 2242
Work flow 2241
ed Object@ 2241
intelli j@ 2241
Test Utils@ 2240
Imp licit 2240
overn ance 2240
J MenuItem@ 2239
cur @ 2239
equal @ 2239
p aint 2239
D rag 2239
Bu ild@ 2237
T S_ 2237
ec ked@ 2236
X509 Certificate@ 2235
P K@ 2234
FAL SE@ 2234
su b@ 2233
Plat form@ 2233
property Name@ 2232
be angle@ 2231
WO Component@ 2231
c al@ 2230
"f oo"@ 2230
5 00@ 2230
oper ator@ 2229
i ces@ 2229
st and 2229
enc ryp 2228
po se 2227
Consum er 2227
An sw 2226
get Group@ 2225
C MS 2225
trans port 2225
twit ter 2224
oc on 2224
ati o@ 2224
G rammar 2224
Model er 2224
valid ation@ 2223
T AR 2223
Fe ed 2223
type Name@ 2222
8 0@ 2222
0x 00@ 2221
primary Context@ 2221
Encod ingException@ 2221
Map s@ 2221
SAM L 2221
DES C@ 2220
xml Writer@ 2219
Dec or 2219
Resol ved 2218
fin ish 2218
State s@ 2217
File Utils@ 2217
Seg ment@ 2216
Run @ 2216
CH EM 2215
i "@ 2215
direct ory@ 2214
file Path@ 2214
own er 2214
tr aver 2213
ing er 2213
8 9 2213
Selection Changed 2212
Bu s@ 2212
M ath 2212
is Valid@ 2212
Are a 2211
wh en@ 2210
ad min@ 2210
Poly g 2210
k las 2210
a k@ 2210
JSON Array@ 2208
6 . 2207
In ternal@ 2207
D R 2207
alph a@ 2206
ifi able 2205
Ph ot 2205
algorith m@ 2204
Extr a@ 2204
Le af@ 2203
L ength 2202
G o 2202
id entity@ 2201
sin ess@ 2201
LO G_ 2201
to CharArray@ 2201
ac tive@ 2200
G eo@ 2199
property Index@ 2196
expec t@ 2196
un ic 2196
Pack et 2196
C ancel 2195
En v@ 2194
0 6 2194
S pring 2193
C ore@ 2193
O T 2193
Sp ell@ 2192
get Package 2192
Re presentation@ 2192
govern ance@ 2192
aun ch@ 2191
Nam es 2191
Datast ore 2191
Change Context@ 2190
GE T@ 2190
I LE 2190
get Component@ 2189
dest Dir@ 2189
LIN E@ 2189
25 6@ 2188
V K_ 2188
s f@ 2188
Parse Result@ 2187
Langu age@ 2187
Qu es 2187
path s@ 2186
remove From 2186
s cheduler@ 2185
head ers@ 2185
Mg r@ 2185
Evalu ation 2185
sign ature@ 2184
si g@ 2184
C ross 2184
3 D 2184
W P 2183
RE AD 2182
SUC CESS@ 2182
l aunch 2181
0 9 2181
Subs cription@ 2180
' / 2179
G reg 2179
Of f@ 2179
get Mod 2179
Categ ories@ 2178
AC K@ 2178
SP EC 2178
f older@ 2178
P lot 2178
R ot 2178
ific ation@ 2177
ras tr 2177
sp awn 2176
get Object@ 2174
AP PLIC 2174
T ot 2174
pe ek@ 2173
tre et 2173
Precon ditions@ 2173
c t 2173
Tran si 2172
Clo se@ 2172
Element __ 2172
P ixel 2172
aliz er@ 2171
Le af 2170
tran sition 2169
Geo List@ 2168
em ail 2168
en s 2168
'/ '@ 2168
Instance Info@ 2167
imp et 2166
getC lient 2165
impet us@ 2165
Composi tion 2164
Tim es@ 2164
rout er@ 2163
N ucleus 2163
e Get@ 2162
ar tifact@ 2162
up dat 2162
BY T 2162
get Component 2160
Ch unk@ 2160
ACT ION 2160
R OL 2160
User Info@ 2160
_PRE FIX@ 2159
consum e 2158
Conn ect 2158
" ab 2157
Pr int@ 2157
S ite@ 2157
for Name@ 2156
Organiz ation 2156
get Y 2156
reposit ory 2156
Projec tion 2156
4 4@ 2156
hand lers@ 2155
Conver ter 2155
Filter To 2155
_ Internal 2155
ile s@ 2155
lay out 2154
j ms@ 2153
12 3@ 2153
C ard 2153
W ait 2153
exec @ 2152
sel ector@ 2152
Hand lers@ 2151
Pre view 2151
t bl 2148
Inf later@ 2148
0. 7 2147
parti tion 2146
A_symbol __ 2146
5 f@ 2145
" ws 2144
Struct ure@ 2144
m k 2144
getP ub 2143
n od 2142
conver t@ 2141
Fil ename@ 2141
Check er@ 2141
Famil y 2140
Deleg ate 2138
work ing 2138
J ScrollPane@ 2138
ab is 2137
p tr@ 2137
emp loy 2137
abis erver@ 2137
1 f@ 2136
Lis ts@ 2136
Proble m 2136
ta ke 2135
REQU I 2135
" l 2135
Subs titu 2134
Manip ulator@ 2134
Fig ure@ 2133
h udson@ 2133
12 8@ 2132
Inter action 2132
mis sion 2131
form ul 2129
Ex act@ 2127
next Int@ 2126
m c@ 2126
Fram ewor 2126
M ut 2126
PubSub Protocol@ 2126
_ Set 2126
comm on 2125
Statis tics@ 2125
serializ e 2125
or ph 2124
S afe 2124
W rite@ 2124
4 9@ 2124
Ne g 2124
log in 2124
R ace@ 2123
URL Connection@ 2123
Ph ase@ 2122
permis sions@ 2121
to k@ 2121
ar th 2121
a 7@ 2121
AT ED@ 2121
get Image@ 2120
uni que 2120
treet ank@ 2120
Fl ag 2119
Dig est 2119
dec ode 2119
get Process 2118
bund le 2117
getC re 2117
N ested 2117
ex it 2117
ug g 2117
ti ble 2116
Time out 2116
Service Request 2114
tic le 2114
p aint@ 2112
si de 2112
Comple x 2112
recei ve 2112
WSD L 2112
bon d@ 2111
Fail ure 2111
No tifier@ 2111
s cript@ 2110
/ / 2109
popul ate 2109
c f@ 2108
9 7@ 2108
AM _ 2107
est amp 2106
OJ PathName@ 2106
Distribu tion@ 2105
h om 2105
set Current 2105
adap ter 2104
Mo Sync 2104
K nown 2104
DA O 2103
ch art 2103
Dec oder@ 2102
c _ 2101
Bit map@ 2100
li mi 2100
Lif e 2100
AS E_ 2100
qu illi 2099
d em 2099
yp h 2097
i i@ 2097
7 . 2097
" { 2096
Nam ed@ 2096
k i@ 2096
INSTANC E_ 2095
Content Assist 2095
PREFERRED_ SIZE@ 2095
Structural Feature@ 2094
Paralle l 2094
pack ets@ 2093
Pri ce@ 2093
J CheckBox@ 2092
f p@ 2092
r ender@ 2091
get Activity 2091
Type EClass@ 2091
4 5@ 2091
'\\ n'@ 2091
n o@ 2090
n d@ 2090
visib ility@ 2089
Create d@ 2089
Ne ed 2089
T AS 2089
is e 2089
requ ired@ 2088
Projec ts@ 2088
mach ine 2088
P ass 2088
_ logger@ 2087
aw n@ 2087
s Per 2087
Can vas@ 2086
4 7@ 2086
res p@ 2085
th en 2085
XMLStream Exception@ 2084
getS ec 2083
scal e 2083
2. 0@ 2082
is t@ 2082
a 8@ 2082
p attern 2081
EXPRESS ION_ 2081
ysi cal 2081
get Token@ 2080
rec e 2080
FollowSets 001@ 2080
LE AD 2079
Mis sing 2079
s _@ 2079
d 1@ 2079
filter s@ 2078
Eng ine 2078
po p@ 2077
_PAR T_ 2077
Un ic 2077
IGH T_ 2077
low @ 2076
p e@ 2076
c u 2076
get Event 2075
R ub 2074
Aut ow 2073
be gin@ 2073
Rect angle 2073
w avelet 2073
Object Identifiers@ 2073
D "@ 2073
dir ection@ 2072
ce l@ 2072
getSel ection 2072
SECON DS@ 2072
pack @ 2071
Method Info@ 2071
" ] 2071
yaff s_ 2071
es cap 2070
"UTF- 8"@ 2070
double Value@ 2069
second ary 2069
read sh 2069
p m 2069
Ac cept 2066
con dition 2065
[ "@ 2065
4 1@ 2065
en v 2065
INTER F 2064
tear Down@ 2064
prepare Statement@ 2063
In Progress@ 2063
sing le 2063
al se"@ 2063
Imp ort@ 2062
clust er 2062
lo ts@ 2061
Analy sis 2061
Ad ded@ 2061
Image Icon@ 2061
pri me@ 2060
System Message@ 2060
Hex String@ 2060
get Contents@ 2059
PK CS 2059
Option Pane@ 2058
ang es@ 2058
In it@ 2058
t p@ 2058
ax is@ 2057
Par ty 2057
LOC AL 2056
We apon 2055
C OR 2055
ele t@ 2054
FOLLOW_ EOF 2054
mod ifiable 2054
dis able 2052
Tuple Type@ 2051
Con f 2051
it ude@ 2050
"ws o 2050
FIEL D@ 2048
IN TE 2048
Geo Numeric@ 2048
Ret en 2047
Loc ations@ 2047
hand ler 2047
enterpris e@ 2047
Type Binding@ 2046
st ar 2045
her it 2044
FOLLOW_EOF _in_entryRule 2044
pos t@ 2043
Prod uct@ 2043
getDeclar ed 2043
Set up@ 2043
Wid get 2043
I p 2043
Stor age@ 2042
EXPRESS ION__ 2042
create OMElement@ 2041
Re vision@ 2041
add Listener@ 2040
ic ro 2040
ph ot 2039
EN D@ 2039
S core@ 2039
St AX 2038
par ator 2038
sc an 2037
result _@ 2036
Sec ond 2036
Oth er@ 2036
and _ 2036
anti ty@ 2035
up lic 2035
WAR NING@ 2035
" g 2035
get V 2035
create Property@ 2034
uc tions@ 2034
sec ond@ 2034
J O 2034
e Set@ 2033
ro le@ 2033
WID TH@ 2033
Al ert 2033
get Test 2032
imum Size@ 2031
J OptionPane@ 2031
com pres 2029
U T@ 2029
Sw itch@ 2029
Data InputStream@ 2029
r v@ 2028
ver t 2028
Servlet Exception@ 2027
POSIT E_ 2027
u im 2026
Fact or@ 2026
getS p 2026
serial ize@ 2025
5 9@ 2025
User s@ 2025
a PC@ 2024
Inst all 2024
tim es@ 2023
Illegal AccessException@ 2023
set Parameter@ 2022
Short String@ 2022
- - 2022
w o 2022
INVAL ID_ 2022
w n@ 2021
Charg e@ 2021
un c@ 2020
JMS Exception@ 2019
C F 2019
resol ver@ 2018
end ing@ 2018
Settings Handler@ 2017
zz For 2017
EO EditingContext@ 2017
LOG GER@ 2017
Diagnos tic@ 2016
Sp ac 2016
EX CEP 2016
iz ation@ 2014
Convers ation 2013
BAS E_ 2012
annot ation 2012
e per 2012
Brack et 2012
pas s@ 2010
Ed ges@ 2010
Upper Case@ 2010
h k 2010
PRO X 2009
A ff 2009
ec tr 2009
Ex pl 2009
item Id@ 2008
Runn ing@ 2008
Literal Part 2008
s f 2008
base Part@ 2007
Peri od@ 2007
" G 2007
let on 2006
comm it 2006
Gener ated 2005
ERV ER_ 2005
ret ri 2004
Mem ory@ 2004
kil l 2004
ro t 2004
BU FF 2003
ex pr 2003
getR oot@ 2002
Registry Service@ 2002
getT enant 2002
Error Data@ 2002
el ine 2000
in verse 1999
Cl aim 1999
Perspec tive 1998
pro vider 1998
destro y@ 1998
CL U 1998
Mon th 1997
C am 1997
w er 1997
j ames@ 1997
3 f@ 1996
b l@ 1996
File Reader@ 1996
5 2@ 1996
skil l@ 1995
Workben ch@ 1995
cl aim 1995
p i@ 1994
local Name@ 1993
content Type@ 1993
Co ver 1993
Form atter 1992
get Context 1992
_0 _1 1992
8 08 1992
fi g 1992
get Asset 1991
TIM EO 1991
Page _ 1991
CES S_ 1990
R ate 1989
VIR TU 1989
T sk 1988
enc lo 1988
getS ession 1988
Alternativ es@ 1985
Compil ation 1985
Deli very 1985
sy m@ 1984
k e@ 1984
user Info@ 1983
ste p@ 1983
si te 1983
Xml Util@ 1982
n 2@ 1982
relationsh ip 1982
Flow @ 1982
4 6 1981
" element 1980
SWTBot Shell@ 1979
Action Performed@ 1978
ToolTip Text@ 1977
Wor d 1977
li f 1976
LA 8 1976
lst tokens@ 1975
PRO P 1974
DIRE CT 1973
av elet@ 1973
at al 1972
pl y@ 1971
Par ts@ 1971
dep end 1971
st atic 1970
Field Impl@ 1970
\xa0 =\xa0"@ 1969
ME THO 1969
is su 1969
M ASK@ 1967
aut om 1965
TRAN S 1965
r 2@ 1965
im g@ 1965
clud e@ 1964
d ev@ 1964
t pl@ 1963
AN D_ 1963
No ti 1963
Classes Package@ 1963
Sel f 1963
set M 1963
Bundle Context@ 1962
Graph Database 1962
" file 1962
app ly@ 1961
dist ance@ 1961
s ur 1961
xpd l@ 1960
conver ter@ 1960
UN D@ 1960
an on 1959
Publis her 1959
add Element@ 1958
Comp any 1958
_Ocl Any 1958
AL LOW 1958
Executor Operation@ 1957
Ex change@ 1957
R ich 1957
" ="@ 1956
ce ll@ 1956
Virtual Machine@ 1956
Tran sition@ 1956
OJ Annotated 1956
r int@ 1955
B ACK 1955
J Frame@ 1955
limi ted 1955
IN IT 1954
c ached 1954
PU T_ 1954
getNew Value@ 1954
next _ 1954
De ad 1953
IV E@ 1952
her e@ 1951
Pres sed@ 1951
R out 1951
SW OR 1951
ab ility 1951
an c 1951
LENG TH 1950
Array Of 1949
e Notify@ 1949
E mail@ 1948
S orted 1948
Pan e 1948
Ori entation@ 1947
M ain@ 1946
BO OL 1946
Accessi ble@ 1946
T ED@ 1946
invoke Exact@ 1946
um l 1945
Particip ant@ 1944
im ent 1944
L ang 1944
d l 1944
Pro p@ 1942
ex change@ 1941
get Base 1941
getS equ 1940
" $ 1940
Res er 1940
" ("@ 1938
CLAS S_ 1938
Time Zone@ 1938
set _ 1936
Autow ired@ 1936
Per sistence@ 1935
get Num 1935
d i@ 1935
Encod ed 1935
str uctu 1934
m ol 1934
"f alse"@ 1934
FIL L_ 1933
w rit 1933
w rap 1933
OBJEC T_ 1933
With out 1932
Re plic 1931
input Stream@ 1930
PARAME TER 1930
medi ator@ 1929
ro l 1929
Numer ic 1929
sn apsh 1928
ti @ 1928
UT T 1928
sel f@ 1927
get ClassLoader@ 1926
add Annotation@ 1926
I STR 1926
atitu de@ 1926
Wrap per 1925
get Position@ 1925
anch or@ 1924
Rou ter 1924
Sh ape 1924
is S 1923
get Double@ 1922
log in@ 1922
auth oriz 1922
meta _data@ 1922
arg v@ 1921
Fil l 1921
dat at 1920
Lim it 1920
" 12 1919
LA Y 1919
SE SS 1919
Mem bers@ 1919
Rec over 1919
constr aint@ 1918
getS ign 1918
Dist ance@ 1918
Properties Editing 1918
As Stream@ 1917
ad cast 1917
Thread s@ 1917
Occurr ence 1917
set Min 1916
EN TR 1916
pre f 1916
format ter@ 1915
EO F@ 1915
c ec 1915
j dt@ 1914
Comp any@ 1914
OR T@ 1914
VIS IB 1914
war e 1914
getSimple Name@ 1914
U CT 1913
constrain ts@ 1913
Place holder 1912
NSMutable Dictionary@ 1911
PAT H_ 1911
iction ary 1909
our s@ 1908
ATTRIBUT E_ 1908
s Count@ 1908
t ing 1908
al go 1907
al ign 1907
Ac tor@ 1907
ed ge 1907
k under 1906
Hel per 1906
2 00 1906
1 0000 1905
si ve@ 1905
u uid@ 1903
Isot ope@ 1903
Bin der@ 1902
Br anch 1902
S ave@ 1902
subs cription@ 1901
enc ode 1900
Tun nel 1900
L atch@ 1899
Render ing 1897
Text ure 1897
Ex clu 1897
open nlp@ 1896
ed _ 1896
String Writer@ 1895
RESUL T@ 1895
ched ule@ 1895
package Name@ 1894
Execution Context@ 1894
get Pl 1894
error Message@ 1892
d ynamic 1892
x path@ 1891
" ;"@ 1891
tx t@ 1891
ti l 1891
sm ith@ 1890
Cip her 1890
go ing 1890
Composite Node@ 1889
runn ing 1888
getB ack 1887
per sist 1887
j forum@ 1887
Modeler Provider@ 1887
Sc m 1886
" null"@ 1886
m i@ 1886
! "@ 1885
Gener ation 1885
T em 1885
c ip 1884
q Name@ 1884
An gle@ 1884
Change Kind@ 1883
E l@ 1883
W arn 1883
AN T_ 1883
_ Collection 1883
Tot al@ 1883
s ms 1882
a j 1882
getTit le@ 1880
Server Socket@ 1879
" O 1879
OR DER@ 1879
"wso 2. 1879
ateg y 1878
File Writer@ 1878
P OL 1878
er min 1877
ERX Rest 1877
able Element@ 1877
QU ER 1877
rd f@ 1876
6 7@ 1876
Set Command@ 1875
MI SS 1875
we igh 1874
Node MetaClass@ 1874
et we 1874
Des tro 1873
Dat an 1873
be fore 1873
B ill 1873
Employ ee@ 1872
Named Element@ 1872
0x 00 1871
D IT 1871
thri ft 1870
_PROPER TY@ 1870
Pri ority 1870
form s@ 1870
Fa il@ 1869
Key Spec@ 1869
oo k@ 1869
po ol 1868
as ure 1868
foc us 1868
Tree Set@ 1867
STATU S@ 1867
ENC E@ 1867
on g 1867
J s 1867
metri cs@ 1866
pre dic 1866
a im@ 1866
set Data@ 1866
S end@ 1866
get Error 1865
Com pres 1864
G W 1864
sk ip@ 1862
Assign able 1862
Th reshold@ 1862
re view 1861
process Instance@ 1860
set Size@ 1860
Data OutputStream@ 1860
rec ur 1860
Conver sion 1860
pr ing@ 1859
getM en 1859
ig h@ 1858
ID "@ 1858
UNKNOW N@ 1857
grid y@ 1855
DEFAULT_ SIZE@ 1855
is Notify 1855
getSel ected@ 1855
5 5@ 1855
c tr 1854
hel pers@ 1854
b its@ 1854
G overnance 1854
0. 0 1854
quilli an@ 1853
BOOL E 1853
il e@ 1852
GENER ATED_ 1851
As String@ 1850
App ender@ 1849
Sw o 1849
add Group@ 1848
z ip 1848
repl y 1848
Com p@ 1847
G E_ 1847
ag es 1847
get Config@ 1846
C odes@ 1846
St ub 1846
In clude 1846
char s@ 1845
res tric 1845
I L@ 1845
add Object@ 1844
c riteria@ 1844
NO DE@ 1844
_2 _0@ 1844
7 0@ 1844
2 D 1844
BUIL DER@ 1843
lay ton 1843
C C 1843
per iment 1843
layton smith@ 1842
log Error@ 1841
get Symbol@ 1841
f ree 1841
posi te 1841
C AP 1841
A '@ 1840
Change Support@ 1840
set Un 1840
ac ceptor@ 1839
Sy s@ 1839
dig est 1839
C nt@ 1839
Messag es 1839
n i 1839
10 1@ 1838
T aint 1838
is e@ 1838
c enter 1838
State ment 1838
Z oom 1838
s en 1838
get Project@ 1837
p a@ 1837
con sole@ 1837
metri c 1837
Char Sequence@ 1836
set Status@ 1836
isNotify ing@ 1836
? "@ 1835
Sel ect@ 1835
d imen 1834
get World@ 1833
H orizontal 1833
com ing 1833
au se 1833
to wn 1832
pro jec 1832
Visib ility 1832
fin ish@ 1832
AR CH 1832
SQ L@ 1831
Equip ment 1831
Brow ser 1831
Set s@ 1830
ir @ 1830
p w@ 1829
Im ages@ 1829
Star ted@ 1829
re w 1829
E Classifier@ 1828
getR ow 1828
Virtual Appli 1828
Dum my 1828
clip se 1827
ste p 1826
table Name@ 1825
0. 5@ 1825
ash board 1825
al led 1825
SE VER 1824
Hel p@ 1824
fa iled 1824
re lease@ 1824
getC l 1823
Initializ er@ 1823
i ted 1823
PRO JEC 1822
Co ord@ 1822
Inv oke 1822
5 7@ 1822
Link s@ 1821
DOCU MENT_ 1821
N atural 1821
G re 1821
Top ic@ 1820
Mo ve@ 1820
AT T 1820
Hy dro 1820
R IGHT@ 1820
Sec ret@ 1819
f old 1819
E Operation@ 1818
to UpperCase@ 1818
G u 1817
grid x@ 1816
Media Type@ 1816
cre ation 1816
s afe 1816
4 3@ 1816
n er@ 1815
aggreg ate 1815
TWO _PART_ 1815
TWO_PART_ TL 1815
LE S 1814
Iter ation 1813
in valid 1813
ROO T@ 1812
at ur 1812
r m@ 1812
t ax@ 1811
d y@ 1811
D_ BUILDER@ 1811
TWO_PART_TL D_BUILDER@ 1811
POR T@ 1810
N pc 1810
B UND 1810
6 "@ 1810
c ss@ 1810
sig n@ 1809
comp any 1809
get Player@ 1808
Not e@ 1808
A_ TYPE@ 1808
Instan ti 1806
Orig in@ 1806
tr ol@ 1805
List View@ 1805
war d@ 1805
ID ENTI 1805
getP h 1805
ex port 1804
D if 1804
Me m@ 1803
arg ument 1803
NO DE_ 1803
ON L 1803
ba os@ 1802
Dir ty@ 1802
Rol l 1802
is Valid 1802
Unsupported EncodingException@ 1802
get ClassName@ 1801
ver tex 1800
get Model@ 1799
" http 1799
Typed Element@ 1799
datab ase 1799
"Test WP 1799
S cheduler@ 1798
sys tem@ 1797
to HexString@ 1797
tim er@ 1796
P I@ 1796
enti ties@ 1795
Am ount@ 1795
Enterpris e 1795
wsd l@ 1794
Message Dialog@ 1794
incre ment 1794
n _ 1794
AR RAY@ 1794
REG ISTR 1794
I StructuredSelection@ 1793
EC AG 1793
vis or@ 1793
getM em 1793
Sup ported@ 1793
rammar Parser@ 1793
get ID@ 1793
ECAG rammarParser@ 1793
ch art@ 1792
State ful 1792
808 0@ 1792
C md@ 1791
CONT ENT_ 1791
Au ToB 1791
requ ired 1790
b order@ 1790
mg t@ 1789
exten ded 1789
CONN ECT 1789
e Class@ 1789
u "@ 1789
Call able@ 1788
LiteralExp CS@ 1788
As semb 1788
D2 W 1787
Byte String@ 1786
message Id@ 1786
del ta 1786
C f 1786
Collection Type@ 1786
kunder a@ 1785
Builder Factory@ 1784
Att ack 1784
String Template@ 1784
append Child@ 1783
de leg 1783
mock ito@ 1783
" v 1783
Test er@ 1783
0 3 1783
" T 1783
Anim ation@ 1782
az z 1782
5 4@ 1782
add SelectionListener@ 1781
rep aint@ 1781
value For 1781
_ 5@ 1781
P M@ 1780
STR ING_ 1780
Ser ial 1780
s On 1780
runn er@ 1778
Property Value@ 1778
sty le 1778
mar ker 1777
s ect 1777
5 8@ 1776
c i@ 1776
en se 1776
prepare Batch 1775
IN T 1775
twitter 4j@ 1774
" A 1774
Cap acity@ 1773
ASN1 Encod 1773
calend ar@ 1773
prepareBatch Editing@ 1773
h k@ 1772
str ategy@ 1771
p d@ 1771
_CH AN 1771
Field MetaData@ 1770
IL aunch 1770
get Operation 1770
pli er@ 1770
hd fs@ 1770
RE F 1770
boolean Value@ 1769
S chedul 1769
json Object@ 1768
av @ 1768
defin ed@ 1768
Man ti 1768
d ay 1768
OL D@ 1768
C ATEG 1768
pair @ 1767
Ab s 1767
getTar get@ 1766
pre ference@ 1766
assign ment@ 1766
Constr uct@ 1766
Comm it@ 1766
Failed Exception@ 1766
bu siness@ 1766
hk u@ 1765
q p 1765
cec id@ 1765
Reference d 1764
To g 1764
Uni que@ 1763
Factory Impl@ 1762
sub mit 1762
DE D@ 1762
get View 1762
set Message@ 1761
100 00@ 1759
SY N 1759
getR aw 1759
f ol 1758
i a@ 1758
entity Name@ 1757
own ing 1757
Re view 1757
Extr actor@ 1756
H AND 1756
"\\1 \\u 1756
G UR 1756
us age@ 1755
ties To 1753
Prerequis ite 1753
33 33 1753
ROO T_ 1753
Interrup tible 1753
ed Element@ 1753
ST EM 1752
Mark up 1752
g p@ 1752
S quare 1752
_ m 1752
ver tex@ 1751
Geo Point 1751
Cl one 1751
Campa ign@ 1751
st ereot 1750
Bound sException@ 1750
led ger 1749
Observ able 1749
Re ason 1749
CS S 1748
g a@ 1748
Stat s 1748
del ay@ 1747
dir s@ 1747
Ext ent@ 1747
Read able 1746
k it 1746
F LO 1746
W ave 1746
un modifiable 1746
new CompositeNode@ 1746
relationsh ip@ 1745
Mouse Listener@ 1745
get Path 1745
ch ant 1744
8 . 1744
is Directory@ 1744
qu ar 1743
IT ext 1743
Ret ri 1743
iti es 1743
Authentic ation@ 1742
Let Exp 1742
Index OutOf 1742
Wh it 1741
warn ing@ 1741
m er@ 1741
LITER AL 1740
em bed 1740
config ure 1739
Sub mit 1739
Object OutputStream@ 1738
ou ter@ 1738
or ganiz 1738
OM Attribute@ 1737
eam @ 1737
Data List@ 1736
a String@ 1736
in st@ 1735
Con st 1735
visib le@ 1734
P OM 1734
g ame 1734
h al 1734
D am 1734
col ors@ 1733
getC ateg 1733
S ide@ 1733
is Assignable 1733
_ builder@ 1732
Selection Adapter@ 1732
Enumer ator@ 1732
an sion 1732
Des erializ 1732
PROPER TY_ 1732
is Visible@ 1732
v als@ 1731
C T@ 1731
aliz ed@ 1730
initialize Remove 1730
Scal e 1730
initializeRemove ExpectedModelFor 1730
auth or 1729
IndexOutOf BoundsException@ 1729
Sel ector 1728
Resol ver 1728
_ current 1728
" text 1727
Control ler 1727
Text Area@ 1727
ey lon 1727
klas se@ 1727
E clipse 1727
flo at 1726
B id 1726
Bon us@ 1725
"\xa0 \xa0 1725
IN V 1725
B UTT 1725
eo f@ 1724
b um 1724
c ancel@ 1724
im um@ 1723
getResource AsStream@ 1722
OU T_ 1721
AMQ ShortString@ 1721
" L 1721
C ryp 1721
prog ress@ 1720
ENC E_ 1720
ac count@ 1719
N aked 1719
P ower 1719
M ULTI 1719
Asset Info@ 1719
b 6@ 1718
core Type@ 1717
libr ary 1717
Cur sor 1717
uce d 1717
Transform er@ 1716
P ayload@ 1716
_PAT H@ 1716
bott om@ 1716
String Reader@ 1715
ecra ft@ 1715
EMP TY@ 1714
TOK EN@ 1714
Owning TemplateParameter@ 1714
S ms 1714
ar quillian@ 1714
isAssignable From@ 1714
ro @ 1713
bp m 1712
eInverse Remove@ 1711
ot ential 1710
listen er 1710
Un set@ 1709
g ot 1709
EO Qualifier@ 1708
Sup ported 1708
serv let 1708
U SE 1708
Prerequis ite@ 1706
Real m@ 1706
E sc 1706
an s@ 1706
AR _ 1705
getB ounds@ 1704
Tree Map@ 1704
Object InputStream@ 1703
Instr uction@ 1703
char set@ 1702
h it 1702
f older 1701
Op aque 1701
Par sed 1700
" t 1700
X P 1700
pr incip 1699
trans action 1699
rastr ucture@ 1699
k s 1699
Work space@ 1698
tri but 1698
S "@ 1698
ys tem@ 1697
Datat ype 1697
Con sole@ 1696
W izard@ 1696
Option al 1695
code gen@ 1694
Local Date@ 1694
ATION __ 1694
getS e 1694
j et 1694
f ron 1693
Ac tual 1693
EX P_ 1693
DE L 1693
getC ause@ 1692
Re action 1692
GRO UP@ 1691
O FF 1691
re port@ 1690
des cription 1690
bar "@ 1690
h am 1690
ACT ION@ 1690
w r@ 1689
U sed@ 1689
set Border@ 1688
Type __ 1688
am ount@ 1688
B tn@ 1688
Re write 1687
A X@ 1687
enclo sing 1687
pre fs@ 1686
recei ver@ 1686
_CO UNT@ 1686
U S_ 1686
sor ted 1686
c m@ 1686
S __ 1686
j ack 1686
Configur ator@ 1685
Object Type@ 1685
FUN CT 1685
Evalu ator 1684
sp ell 1684
" on 1683
new _ 1683
d k 1683
' 0'@ 1682
Uml Messages@ 1681
is ion@ 1681
execut or@ 1681
C AL 1681
Framewor k 1681
getNode Value@ 1680
namespace "@ 1680
id ent 1680
" @@ 1679
Comp ati 1678
Hand le 1677
Oc aml 1677
Veto Exception@ 1677
ign ore@ 1676
draw @ 1676
li c@ 1676
FEATURE_ BASE@ 1676
Comm a 1676
POSITE_ FEATURE_BASE@ 1676
read Object@ 1675
set Icon@ 1675
NOR M 1675
get Host 1675
per son@ 1674
label s@ 1674
de part 1674
Data Handler@ 1674
t s 1673
model Package@ 1672
getAtom Count@ 1672
extr a 1672
L ttng 1672
Platform UI@ 1671
resource Path@ 1671
et ch@ 1671
_ 7 1671
zz State@ 1670
Exp ir 1670
Rel ation 1670
H ibern 1670
get Column@ 1669
Method Handle@ 1669
call back 1668
w as 1668
consum er 1668
m ay 1668
constr aint 1667
c lock@ 1667
ej b@ 1666
inter rup 1666
gener ic 1666
medi ate 1666
OCL _ 1666
be ans 1665
z one 1665
O ld 1665
find Element@ 1663
get Display@ 1663
di agram@ 1663
column Index@ 1662
set up@ 1662
i tions@ 1662
ED IT 1662
proble m 1662
zzFor Next@ 1662
EN T 1662
" 1 1661
get Address@ 1660
ar os@ 1659
num er 1659
fire Properties 1658
model s@ 1658
Parallel Group@ 1658
c ast@ 1657
El ectr 1657
TIMEO UT@ 1657
" is 1657
can vas@ 1656
ro und@ 1656
Norm al 1656
r adius@ 1656
g ad 1656
V al 1656
" }"@ 1655
an tic 1655
DAT E@ 1655
Per sis 1655
Enterpris eObject@ 1654
ev al@ 1654
7 9 1654
stor age@ 1653
Load Context@ 1653
boo k@ 1653
UPDAT ED_ 1653
set Selected@ 1652
0x 2 1652
V ID 1652
Xml Type@ 1651
ish ell@ 1649
syn apse 1649
getL ib 1649
marshall ing@ 1649
6 3@ 1649
C "@ 1649
s core@ 1649
char acter 1648
ffff ff 1648
fl ag 1648
Perspec tive@ 1648
Runn ing 1648
oc top 1647
_P R 1647
fireProperties Changed@ 1647
RESOURC E_ 1646
st atis 1645
Expression s 1645
get URI@ 1644
Element CS@ 1644
Mar ker 1644
all y 1644
i x@ 1644
c spec@ 1643
pre v@ 1643
posi tion 1643
b i@ 1643
B and 1643
Attemp t 1643
T Field@ 1642
CS__Group__ 0 1642
a i@ 1641
chang ed@ 1640
Diagnostic Chain@ 1640
Hydro gen 1640
Order ing@ 1639
write Field 1639
data Source 1639
az y 1639
getR et 1639
"H "@ 1638
level _@ 1638
channel s@ 1638
Schedule d 1638
d uration@ 1638
Datas et@ 1638
get Localized 1638
Su bject 1637
get Config 1637
n v 1637
octop us@ 1637
Work space 1636
S ample@ 1636
is ion 1636
Diff er 1636
Dif f@ 1636
create ParallelGroup@ 1636
Dep end 1635
I CompletionPropos 1635
set Last 1633
Bot t 1633
ab str 1633
S ag 1633
ab @ 1632
per sistence 1632
Valid ation@ 1632
w al 1632
Dro ol 1631
Node Instance 1631
" type"@ 1631
permis sion@ 1630
DESCRIP TION@ 1630
S un 1630
nam ing@ 1628
template s@ 1628
Re s@ 1628
Restric tion@ 1628
Bal or@ 1628
I t@ 1628
Y P 1628
Error Constants@ 1627
Dependenc ies@ 1627
J BPM 1627
em on 1627
m 1@ 1627
getP ort@ 1626
test Edit 1626
Authoriz ation 1626
Atom s@ 1626
formul a@ 1626
in form 1625
Confi rm 1625
Au dio 1625
gener ate@ 1624
tw o@ 1624
I p@ 1624
mod ifiers@ 1623
atom s@ 1623
pl y 1623
d p@ 1623
get Attributes@ 1622
Parameter Spec@ 1622
"_ "@ 1622
J ComboBox@ 1622
Context Decl 1622
6 0 1622
getSu per 1621
getStatus Code@ 1621
valid ator@ 1621
Detail s 1621
T we 1620
Image Descriptor@ 1619
For ward 1619
tup le 1619
f y 1619
M igr 1619
m ut 1619
get Action 1618
Fore ground@ 1618
ic k@ 1618
Ct Class@ 1617
4 java@ 1617
C LO 1617
previ ous@ 1616
b est 1616
clic k@ 1616
is Enabled@ 1616
get Out 1616
ch k 1616
S aros 1616
get Field@ 1615
sw itch 1615
ae um 1614
INTERN AL 1614
ION S@ 1614
E StructuralFeature@ 1614
ed Type@ 1614
C eylon 1614
getResource s@ 1613
Service Stub@ 1613
set ToolTipText@ 1613
d 2@ 1613
wid getSelected@ 1613
write Int@ 1612
priv ate 1612
a Type@ 1612
meta Data 1612
crip tions@ 1611
Command Sender@ 1611
par sed 1610
y ear@ 1610
Cont inu 1610
5 00 1610
ori an 1609
ic t@ 1609
f c@ 1609
get Parameters@ 1608
Oper and@ 1608
MIN_ VALUE@ 1608
a h 1608
4 00@ 1607
5 3@ 1607
Assignment _2 1607
X S 1607
P ending 1606
Polynom ial@ 1606
ix el@ 1605
In sp 1605
set Bounds@ 1604
AdminService Stub@ 1604
e IsSet@ 1604
defin e 1604
ech eck 1603
RESUL T_ 1603
RESOL VE_ 1603
L IB 1603
Fil ename 1602
Compil er 1602
create New 1602
olum e@ 1601
_ 4@ 1601
M ON 1601
id v@ 1600
set Content@ 1600
UML Factory@ 1598
INTERF ACE@ 1598
Point 2d@ 1597
Sh eet 1597
ir ect 1597
Instance Id@ 1597
default Case@ 1596
Flow Layout@ 1596
rel ative 1596
Trig ger@ 1596
s amples@ 1595
p nl 1595
J MX 1595
D N 1595
G ad 1595
Datan ode 1595
se ek@ 1594
Temp or 1594
re ason@ 1594
pk g 1594
Di agram 1594
session Cookie@ 1593
Object Node@ 1593
p ixel 1593
this _present_ 1593
b ad 1593
that _present_ 1593
path way 1592
Shared Preferences@ 1592
Oc t 1592
Pr c 1592
Class Info@ 1591
c x@ 1591
l ength 1591
Twitter Exception@ 1590
Feature Filter@ 1590
Coordin ate 1590
Ser ies 1590
evalu ate 1590
__ 2 1590
Event Message@ 1590
raw @ 1589
S UP 1589
S ent 1589
Equ ation 1588
get Log 1588
Red uce 1588
release Descriptor@ 1587
S lot@ 1587
h orizontal 1587
dum p 1586
M od@ 1586
Un der 1586
Event s 1586
que u 1585
Err @ 1585
t k@ 1585
Log Util@ 1584
ad oc 1584
C ost 1584
D C 1583
w er@ 1582
mg r@ 1582
Ht ml@ 1582
sup port 1582
set Re 1582
Greg orian 1582
sq rt@ 1581
J B 1581
Ont ology 1581
Clic ked@ 1580
res er 1580
Custom er 1580
5 4 1580
0x ff 1579
CON STR 1579
X Path@ 1579
Leaf Node@ 1579
inf rastructure@ 1579
JBPM Messages@ 1579
get Color@ 1578
L2 Character@ 1578
50 9@ 1578
+ "@ 1577
Eff ects@ 1577
FA ILE 1577
dig est@ 1576
P UB 1576
Ex it 1576
pathway editor@ 1576
sh ape@ 1575
Cast Exception@ 1575
x y 1575
RE PL 1574
op code@ 1573
AW T 1573
9 9@ 1573
ro bot@ 1572
Message Format@ 1572
Cl ause@ 1572
Structu re 1572
map reduce@ 1572
Sw d 1572
getToken Name@ 1572
M ail@ 1572
_OclAny __ 1572
In st@ 1571
remove All@ 1570
inst all@ 1570
DE D_ 1569
ag ent@ 1568
TOK EN 1568
Collection Type 1568
e Unset@ 1568
c ishell@ 1568
Sm iles 1567
get Service@ 1567
Bracket Keyword 1567
JSON Exception@ 1566
Contr ols@ 1566
ed Event@ 1565
assert Result 1564
File Filter@ 1564
COL OR_ 1564
_S Y 1564
B ON 1564
r ack 1564
W ait@ 1564
Rectangle 2D@ 1564
create Query@ 1563
ker nel 1563
Builder _@ 1563
Ph oto 1563
Obj s@ 1562
HT T 1562
_CON FI 1562
Embed ded 1562
s From 1562
Calcul ator@ 1561
"[ "@ 1560
comp ile 1560
Rec ords@ 1560
IO Utils@ 1559
coord in 1558
sec ret 1558
behavi or 1558
get Result@ 1558
apt ure@ 1557
NUL L@ 1557
c d@ 1557
DOM A 1557
I X 1557
getFirst Child 1556
No te 1556
b as 1556
V eg 1556
GL 2 1556
get Long@ 1554
uti li 1554
sh ip@ 1554
FI X 1554
assert No 1553
ne ighb 1553
set PreferredSize@ 1553
Ch ecked@ 1553
F ron 1553
6 2@ 1553
k "@ 1553
Op aeum 1553
new Builder@ 1552
coll ect@ 1552
get PreferenceStore@ 1552
U F 1552
URI SyntaxException@ 1552
get Owner@ 1551
Symbol ic 1551
inter face 1551
omet ry@ 1551
aw t 1551
draw Line@ 1550
b 7@ 1550
Property Change@ 1550
L ast@ 1550
Complet ed@ 1550
sym 2 1550
W sd 1550
oc ial 1549
O ID@ 1549
J AV 1548
a 9@ 1548
sam l@ 1548
Prod ucer@ 1548
get Action@ 1548
Edit able@ 1547
Vari ant@ 1547
b it@ 1547
f oo@ 1547
tag Name@ 1546
ver t@ 1546
Sel eni 1546
T ouch 1546
Ecore Package@ 1545
pro pos 1545
Anim ation 1545
AR Y@ 1545
t t@ 1545
Request Mapping@ 1544
get User@ 1544
LEAD ING@ 1544
A F 1544
Linked HashMap@ 1543
Configuration Context 1543
Var s@ 1543
c t@ 1543
OM Factory@ 1543
Model Exception@ 1542
get Table 1542
mon itor 1542
_PAR AME 1542
create E 1542
utili ties@ 1542
Generic Type@ 1541
Ver tices@ 1541
C ach 1541
p ic 1541
Admin Stub@ 1540
Inter val 1540
P in 1540
S al 1539
l 1@ 1539
POM Package@ 1539
Mo tion 1538
_ h 1538
getN avig 1537
Res pon 1537
rew ind@ 1537
iv _rule 1536
var s@ 1535
work Item@ 1534
Clo sed@ 1534
User Id@ 1534
z k 1534
PC Template@ 1533
ot str 1533
Resol ve 1533
ent ation 1533
R _ 1533
Re porter@ 1533
Ab ap 1532
get Remote 1532
clud ed 1532
X K_ 1532
set Input 1532
t un 1532
new Name@ 1531
ASN1 Primitive@ 1531
Pop up@ 1530
AL I 1530
attr Map@ 1529
Aggreg ate 1529
Recei ve 1529
fl at 1529
server packets@ 1529
getSh ell@ 1528
av or@ 1528
fl ush 1528
In cre 1528
00000000 l@ 1527
S IM 1527
" K 1527
ed Data@ 1527
B C@ 1526
Integr ation 1526
4 j 1526
un lock@ 1525
get Axis 1525
Writ able 1525
= \xa0 1525
fram e 1525
inv oc 1525
UPDATED_ VALUE@ 1525
LITERAL_ EXP__ 1524
Request s@ 1524
COM POSIT 1524
N ST 1524
IAL IZ 1523
execute Query@ 1522
Br anch@ 1522
U ID 1522
beans binding@ 1522
Data Choice@ 1521
ph oto 1521
S ib 1520
get Int 1520
Recei ver 1520
RE SP 1520
"\\ n 1520
get Child@ 1519
config ure@ 1519
dis t@ 1519
imple ment 1519
test Invalid 1519
os si 1519
get Al 1519
Point 2D@ 1518
m 2@ 1518
ocon trol@ 1518
op ts@ 1517
bind ings@ 1517
op tim 1517
get Java 1517
_P ER 1517
e ocontrol@ 1517
s cri 1516
get Auth 1516
' ) 1515
rel ation@ 1515
he ight 1515
Level s@ 1515
t d 1514
get Kind@ 1513
att ack 1513
Cont act@ 1513
Resol ution@ 1513
ERR OR_ 1513
LEV EL_ 1513
is _ 1513
ipp ed 1513
p ending 1512
Cred entials@ 1512
ABSTRAC T@ 1512
In herit 1512
Match ers@ 1511
over l 1511
BO D 1511
Oth er 1511
u red 1511
| "@ 1510
token izer@ 1509
get Plugin 1509
Vis ual 1509
_S O 1509
book keeper@ 1509
get Index@ 1509
AP _ 1509
UI Plugin@ 1508
Mon th@ 1508
AMQ Exception@ 1507
" \xf7 1507
p lot 1507
_MESS AGE@ 1507
assert Same@ 1507
" namespace"@ 1507
categ ories@ 1506
log ic@ 1506
ur ch 1506
ec tive 1506
F riend 1506
getP assword@ 1505
c odes@ 1505
getS pec 1505
carb on 1505
Eff ect@ 1505
AM @ 1505
Display able@ 1505
EO EnterpriseObject@ 1505
Hel lo 1504
Ordered Set 1504
ROO T__ 1504
Asyn c@ 1503
f os@ 1503
ac tivities@ 1503
value ForKey@ 1502
set Location@ 1502
Count Down 1502
Client Exception@ 1502
Rec ur 1502
AR D_ 1502
ul l@ 1502
Excep tions@ 1501
ac er@ 1501
e Resource@ 1501
Job Conf@ 1500
PropertiesEditionPart Impl@ 1500
ter min 1499
Ke eper 1499
'\\u 2 1499
STR UC 1498
mer ge@ 1497
is Dis 1496
9 8 1496
end Time@ 1494
Gregorian Calendar@ 1494
adapter Factory@ 1493
destro y 1492
Process ing 1492
App Context@ 1491
getL angu 1491
Click Handler@ 1491
Choi ces@ 1491
POR T_ 1491
Z oo 1491
ER S@ 1491
Ex change 1491
A udit 1491
s y@ 1491
are a@ 1490
Defin ed@ 1490
up load 1490
is Static@ 1490
Pre fs@ 1490
REQUI RED@ 1490
" w 1490
C ol@ 1489
Wh en 1489
remain ing 1489
6 8@ 1489
6 1@ 1489
_ size@ 1489
ad a@ 1487
I F@ 1487
en h 1487
t in 1487
c ookie@ 1486
ph ase@ 1486
remain ing@ 1486
') '@ 1486
low er 1485
: \xa0 1485
Place ment@ 1484
Com ments@ 1484
xml "@ 1484
K IL 1484
datac enter 1483
orig inal@ 1483
ce l 1483
mem bers@ 1482
p al 1482
add ition 1482
Fin al 1482
WOR K 1482
"\xa0 \xa0\xa0 1481
CS__ Owned 1481
su ffix@ 1481
set Visibility@ 1480
thread s@ 1480
GL 2@ 1480
"< br 1480
7 8 1480
getT ag 1479
Down load 1479
V E 1479
Dialog Interface@ 1478
coll ect 1478
Uni x 1478
par sing@ 1478
Snapsh ot 1478
las h 1478
W S@ 1478
i tr@ 1477
e ve 1477
ild card 1477
s afe@ 1477
Hibern ate 1477
R tx@ 1476
co very 1476
c ret 1476
DE CL 1476
sw t 1476
" J 1476
get Options@ 1475
R adius@ 1475
as s@ 1475
AR Y_ 1475
Polyg on@ 1475
Connection s@ 1474
vari able@ 1473
an g@ 1473
attach ment@ 1472
child ren 1472
ari o 1472
add Item@ 1471
getS chem 1471
net work 1471
ADD RES 1471
cum ul 1471
_1 _0 1471
Al ready 1471
get Font@ 1470
Expression Node@ 1470
Super Types@ 1470
Read Only@ 1470
Sw itch 1470
x 2 1470
v "@ 1470
r s 1470
j ce@ 1469
Meta Info@ 1469
run time 1469
We igh 1469
1 10@ 1469
P k 1469
6 6@ 1469
3 00@ 1469
p ed@ 1469
N ow@ 1468
vi ous 1468
U sing 1468
LON G@ 1468
Rub y 1468
Persistence Manager@ 1467
ro und 1467
FR OM 1467
min ecraft@ 1467
_ token@ 1467
comp s@ 1466
getS et 1466
RoundRob in@ 1466
ar k 1466
create Node@ 1465
Buffered Writer@ 1465
lex eme 1465
av ailable@ 1464
CO DE_ 1464
m ode 1464
" X 1464
Internal EList@ 1463
9 0@ 1463
get PrimaryExp 1462
Tw o@ 1462
Prefix ed 1462
Image View@ 1462
j m 1462
CountDown Latch@ 1462
Del ay 1461
AT OR 1461
op t 1461
ASN1 Sequence@ 1460
I 18 1460
Look up@ 1460
Compile Exception@ 1460
RE ST 1460
In c 1460
m aster 1460
9 . 1460
Sc op 1459
ne g 1459
mar gin 1458
Sup port 1458
si mul 1458
con f 1458
li @ 1458
CS__Group _0 1458
Tool Bar 1457
BUND LE_ 1457
pop up 1456
secur ity 1456
GRO UP 1456
Der iv 1456
= \\""@ 1456
B ridge@ 1456
I _ 1456
set Length@ 1455
W EST@ 1455
add ing@ 1455
Reference s@ 1455
__ atts@ 1455
A S@ 1455
D H 1455
Popup Menu@ 1454
LITER AL@ 1454
ook ie 1454
Eff ect 1453
Lif ecycle 1453
"element "@ 1453
create EReference@ 1452
mach ine@ 1452
Address es@ 1452
D ER_ 1452
Prod uced 1452
s n@ 1452
new Objs@ 1452
Fa ke 1451
ARG U 1451
p ing 1451
_ channel@ 1450
de gre 1450
Model Element@ 1450
D UC 1450
S N 1450
F UL 1450
COMPOSIT E@ 1450
a 10@ 1449
tic le@ 1449
Remove d@ 1449
CO UN 1449
i 2@ 1449
Buffered InputStream@ 1448
autom ation@ 1448
k ok 1447
val id@ 1447
Conn ector 1447
test Remove 1447
RESP ON 1447
y th 1446
Per cent 1446
l aunch@ 1446
o id@ 1446
get OutputStream@ 1445
str ings@ 1445
ver bo 1445
Priv ate@ 1445
I P_ 1445
b c@ 1445
liter al 1445
ar r@ 1445
t ap 1445
We ak 1444
n ess@ 1444
Format ted 1443
exec ution 1443
EL L 1443
TER N@ 1443
g ui 1443
Exception Type@ 1442
" ; 1442
Change VetoException@ 1442
t l 1442
Requ ire 1441
Registr ation 1441
_CLAS S@ 1441
v ing 1441
GeoPoint ND@ 1441
error Msg@ 1440
mar ker@ 1440
Sur face@ 1440
id den 1440
/ /"@ 1440
c v 1440
Imm utable 1439
Dat agram 1439
s pring@ 1439
red uce 1439
coun ts@ 1438
Boo k@ 1438
U ST 1438
Type Info@ 1437
E le@ 1437
Butt ons@ 1437
consum er@ 1436
Encod ed@ 1436
notific ation 1436
parser s@ 1436
Default ChemObjectBuilder@ 1436
Indic ator@ 1436
Formal Charge@ 1436
sp end 1436
s l@ 1436
add Property@ 1435
bed Pane@ 1435
Key Pair@ 1435
re defined 1435
z oom 1435
ER D 1435
limited Natural 1435
Symbol List@ 1434
re pe 1434
getC o 1434
op s@ 1434
le ave 1434
d r 1434
Des ign 1433
. . 1433
hasMore Tokens@ 1432
Ali as 1432
oper ations@ 1431
LOC ATION@ 1431
feature s@ 1430
in o 1430
Qu ote 1430
ge om@ 1429
ds l@ 1429
Ap ple 1429
I Resource 1429
Cle ar 1429
S ql 1429
properties View@ 1428
get Z@ 1428
p assword 1428
PO INT_ 1428
DOCUMENT_ ROOT__ 1428
x a 1427
ABLE D@ 1427
QU E 1427
Ex port 1427
Sc en 1427
L i 1427
for ce@ 1426
Pre ferences 1426
Des c 1426
Parser Rule@ 1425
get Configuration@ 1425
bin ary 1425
fail ures@ 1425
Concurrent HashMap@ 1425
pro viders@ 1425
asyn c 1425
add Test@ 1424
Compar able@ 1424
FA IL 1424
fi ci 1424
get Entity 1424
x 509@ 1424
getObject Id@ 1423
Th eme@ 1423
del i 1422
Text ure@ 1422
R atio@ 1422
Table Model@ 1422
to _ 1422
getNode Name@ 1421
UN SET@ 1421
Aut h@ 1421
Appro val 1421
curr @ 1421
getFirstChild WithName@ 1421
Num bers@ 1420
Object ForKey@ 1419
Bl ack 1419
Que u 1419
transl ate@ 1419
analy sis@ 1419
new LeafNode@ 1419
track er@ 1418
create Instance@ 1417
in et 1417
add XSD 1417
Repository Service 1417
un pack 1417
S ign@ 1417
_ list@ 1417
olum e 1417
addXSD Mapping@ 1417
STAR T@ 1416
su bject 1416
AN D@ 1416
B lan 1416
IS_ RESOLVE_ 1416
IS_RESOLVE_ PROX 1416
group Id@ 1415
St amp@ 1415
dialog s@ 1415
MEDI A_TYPE@ 1415
vi de 1414
Depart ment@ 1414
pro t 1414
RD F@ 1414
App D@ 1413
Su ffix@ 1413
s es@ 1413
PARAME TER@ 1412
Op s@ 1412
Layout Inflater@ 1411
ing Class@ 1411
write Object@ 1410
H it 1410
M EM 1410
User Name@ 1410
code ha 1410
P E 1410
OW N@ 1409
work flow@ 1409
m y@ 1409
codeha us@ 1409
Edit Text@ 1408
BLOC K 1408
Sequ ential 1407
HE IGHT@ 1407
He ad@ 1407
addTo Statements@ 1407
x "@ 1407
IS_ COMPOSITE@ 1407
u ces@ 1406
Schem e@ 1406
I Remote 1406
b x@ 1406
IS_RESOLVE_PROX IES@ 1406
ok er@ 1405
Re action@ 1405
if t@ 1404
l tt 1404
Base CSTPackage@ 1404
other lv 1403
Combo Box 1403
U E_ 1403
br a 1403
langu age 1402
Expl or 1402
B etwe 1402
Abstr act@ 1401
UN D_ 1401
z ip@ 1400
Organiz ation@ 1400
iz ation 1400
so ap@ 1399
module s@ 1399
qual ified 1399
" *"@ 1399
d ay@ 1399
0 1 1399
OPER ATION@ 1398
Run With@ 1398
init EReference@ 1397
entity Manager@ 1397
w c@ 1397
Update d@ 1397
i 1@ 1397
log Exception@ 1396
c enter@ 1396
D ot 1396
f er@ 1396
evalu ator@ 1395
map s@ 1395
Geo Con 1395
ab les 1395
Sh utd 1395
Snapsh ot@ 1395
v oc 1395
Fac et 1394
Par sing 1394
OC Lin 1394
pol y 1394
n r 1394
LI ST 1393
g ed@ 1393
environ ment 1392
Enti ties@ 1392
Pack ages@ 1392
TER N 1392
SelectionChanged Listener@ 1392
Parameter s 1392
em es@ 1391
St mt@ 1391
Launch Configuration 1391
up per 1391
Local e 1391
pl ain 1391
f 1@ 1391
parse Double@ 1390
syn chron 1390
REQU EST 1390
( // 1390
er t@ 1390
6 9@ 1389
St d 1389
is Logg 1389
set ID@ 1388
hel p 1388
process Id@ 1387
pro to@ 1387
Re q@ 1387
comput e@ 1387
Answ er@ 1387
get Document@ 1386
m ds@ 1386
CS__Group__ 1 1386
g ame@ 1386
Is Final@ 1386
get Offset@ 1386
g d@ 1385
Image Resource@ 1385
d rag 1385
Manti s 1385
ch ain@ 1384
get Index 1384
block s@ 1383
Cre ated 1383
permis sion 1383
Attr s@ 1383
B as 1383
IO _ 1383
b ig 1383
t m@ 1383
l uc 1383
2 f@ 1383
getContent Pane@ 1382
Parse Node 1382
Ro les@ 1382
WR ITE@ 1382
IG N 1382
u sed@ 1382
getS c 1382
tic al@ 1381
Swing Utilities@ 1381
M IL 1381
Type Ref 1381
(// )"@ 1381
Click Event@ 1380
n p@ 1380
T x@ 1380
er ies@ 1380
Mar sh 1380
skil l 1380
J DB 1380
Key Listener@ 1379
Valid ator 1379
og raph 1379
C AS 1379
F S@ 1379
I Editor 1378
re ason 1377
ham c 1377
zz IsFinal@ 1377
Web Element@ 1376
ffff "@ 1376
cont act 1376
CS EClass@ 1376
is Active@ 1376
M ake 1376
S UM 1376
hamc rest@ 1376
res pon 1375
Del im 1375
GRO UP_ 1375
valid ation 1375
h yper 1375
Al loc 1375
Mime Type@ 1374
Feature ID@ 1374
Tri ple 1374
SE QU 1374
Com bin 1374
_in ternal 1374
cred entials@ 1374
Line ar 1374
n pc 1374
er 2@ 1374
Knowledge Session@ 1373
f r@ 1372
CON TEXT_ 1372
I de 1371
p o@ 1371
STR ING 1371
SY STEM 1371
Sy m 1371
se man 1370
get Project 1370
FI LE 1370
r and@ 1369
an a 1368
Ref resh 1368
Ver sions@ 1367
analy zer@ 1367
m at@ 1367
recei ver 1366
QU OT 1366
M e@ 1366
i el 1365
Zer o@ 1364
CDOM Primary 1363
Socket Factory@ 1363
u tes@ 1363
stereot ype@ 1363
echeck er@ 1363
NST im 1363
id _ 1363
CDOMPrimary Token@ 1363
Menu Bar@ 1362
sing leton 1362
enti tiesTo 1362
getLocalized Message@ 1362
Render er 1362
J Menu@ 1361
Registry Constants@ 1361
vi e@ 1361
Conn ected 1361
CR L 1361
COM MAN 1361
av or 1361
ev al 1361
ar io@ 1361
marsh aller@ 1361
B i 1361
T ABLE@ 1361
ERX Key@ 1360
di s@ 1360
getSystem Message@ 1360
setH orizontal 1360
as sist@ 1360
p p@ 1360
Aff ine 1360
Metri cs 1359
yy Top@ 1359
ip e@ 1359
R C 1359
DF S 1359
MESSAGE_ EXP__ 1358
Th eme 1358
R ank@ 1358
bl ack 1357
Dec l@ 1357
getC all 1357
Secure Random@ 1357
m ask 1357
ST Y 1357
create EClass@ 1356
o om@ 1356
D uplic 1356
Re main 1356
w in 1356
ev p@ 1355
es try 1355
t lement 1355
Se q@ 1355
bl d@ 1355
D OWN@ 1355
ak e@ 1354
get Input 1354
NUMB ER@ 1354
M ATCH 1354
VAL ID 1354
I "@ 1354
typ echecker@ 1354
si de@ 1353
s il 1353
g it@ 1353
M M 1353
long Value@ 1352
yy Vals@ 1352
G wt 1352
Tog gle 1352
_OclAny__ ocl 1352
response Handler@ 1351
Vi able 1351
Whit espace@ 1351
No Viable 1351
NoViable Alt 1351
return Type@ 1350
get Long 1350
B '@ 1350
Publish er@ 1350
_M AX 1349
meta ModelManager@ 1349
s x@ 1349
oun t 1349
Dock Controller@ 1348
equ ip 1348
As set@ 1348
CS_ in_ 1348
um e@ 1348
Peri od 1348
choi ces@ 1348
FI C 1348
getAll InstancesOf@ 1347
Element Exception@ 1347
Data Helper@ 1347
st ud 1347
Over l 1347
next_ val@ 1347
off set 1347
er _ 1347
STAT E@ 1346
h its@ 1346
empty List@ 1345
end points@ 1345
mp p@ 1345
iter ator 1344
ME T 1344
In tr 1344
_1 _1 1344
"x "@ 1342
Object Factory@ 1342
er tific 1342
PR IM 1342
i res 1342
read Int@ 1341
Lat Lon 1341
A s@ 1341
IS_ ABSTRACT@ 1341
x 0@ 1340
% "@ 1340
Identi ty@ 1340
m a@ 1340
kok u@ 1340
ar ker@ 1339
W IND 1339
m ime 1339
cap s@ 1338
Per sist@ 1338
yp h@ 1338
k top 1338
restric ted 1338
get List 1338
Y E 1337
po sed@ 1336
m v@ 1336
Node Type@ 1336
ar ith 1335
j s@ 1335
activ ate@ 1335
ec h@ 1335
ari es@ 1335
M aster 1335
addition al 1335
or m@ 1334
Tw ig 1334
Sy mbols@ 1334
b ound@ 1334
set Input@ 1334
AS SO 1334
ro ll@ 1333
Out line 1333
d ev 1333
ou ch@ 1332
ten @ 1332
UR E@ 1332
L amb 1332
1 '@ 1332
Sign er 1332
car d@ 1331
St op@ 1331
Func tions@ 1331
Analy zer@ 1331
IN SER 1331
INDE X@ 1331
erializ ation 1331
_ ID@ 1331
Sing leton@ 1330
FILL_ HORIZONTAL@ 1330
at er@ 1330
fi s@ 1329
Ac ceptor@ 1329
Document ation@ 1329
Str ategy 1329
ch unk@ 1328
Format s@ 1328
tri es 1328
Sp awn 1327
zer o@ 1327
Ex ample 1327
get Real 1327
get Level@ 1326
US ER@ 1326
EN UM 1326
en ted 1326
all Referenced 1326
get Job 1326
allReferenced Instances@ 1326
set Output 1325
COM MENT@ 1325
Wid th 1325
" * 1325
get Template 1325
Border Factory@ 1324
'\\u 1 1324
c n@ 1324
LO AD_ 1324
x2 s@ 1324
NoViableAlt Exception@ 1324
me tic@ 1323
state s@ 1323
Mod ified 1323
eng ine 1322
cl one 1322
Ch ain 1322
st er 1322
po w@ 1321
Server Configuration@ 1321
INSTANCE_ CLASS@ 1321
typed Other@ 1321
get Method 1321
For ce 1320
cas ed@ 1320
w izard@ 1320
p si@ 1320
B a 1320
ATTR @ 1319
d ot 1319
L azy 1319
getL if 1318
0x e 1318
H ook@ 1318
s PackageImpl@ 1318
map red@ 1317
PC Gen 1317
ing le 1317
Sign al@ 1317
add ed 1317
we ight@ 1316
ou g 1316
ANY_ ATTRIBUTE@ 1316
Flat Field@ 1315
" group 1315
XmlAccess orType@ 1315
IS_ INTERFACE@ 1315
t c 1315
C ause@ 1314
direct ory 1314
Buck et 1314
Ability Category@ 1314
XmlAccess Type@ 1314
Sh ift 1314
object ForKey@ 1313
uc um 1313
G ER_ 1313
' : 1312
mis sing 1312
Interruptible Region@ 1312
action _ 1312
nv ae@ 1312
Side Effects@ 1312
m "@ 1312
top cased@ 1312
IN FIN 1311
review db@ 1311
get State 1311
d f@ 1311
Start Time@ 1310
CM D_ 1310
Imp orts@ 1310
Requ ested@ 1310
tr im 1310
get Con 1310
Log in@ 1310
M AR 1310
NoSuch ElementException@ 1310
get Result 1309
back end 1309
par tn 1308
visib le 1308
g b@ 1308
tool bar@ 1307
ain ter@ 1307
cur sor 1307
h ive@ 1307
c Group 1307
seman tic 1307
bio inv 1306
parse Boolean@ 1306
et a@ 1306
G eb 1306
ALL_ EXP__ 1306
G am 1306
opensc ada@ 1306
