e r
i n
o n
r e
s t
o r
a t
e n
t h
l i
s e
l e
t i
a n
g e
a l
t e
a r
c e
d e
r o
c o
s s
m e
in g
m p
r i
li c
ge t
u r
i s
th e
en t
a c
ti on
p u
at e
c on
n e
f i
i d
st r
e x
l a
at i
u l
i mp
pu b
t y
pub lic
or t
c h
e c
l o
t o
a p
a d
u n
e d
str ing
in t
re t
u e
a me
p ro
i t
ur n
ret urn
i f
o f
n o
imp ort
se t
ne w
b u
ati on
s er
s i
f or
n ame
a ge
th is
p e
p tion
d i
v er
m ent
m o
p er
a b
o u
p ar
e l
or g
an d
a s
t r
a v
t er
re s
ul l
ex ce
f in
a m
c la
ty pe
x t
n ull
v al
exce ption
i l
\ \
li st
v i
q u
ec t
d er
cla ss
0 0
lic en
o b
licen se
v o
b o
val ue
j ect
p o
d o
u p
en d
h t
te xt
c t
av a
p ri
fi le
fin al
vo id
ab le
i o
co m
con t
k e
b e
a ss
ro w
m a
e s
j ava
ou t
f o
ac k
te st
i th
h e
a re
v ate
s u
ri bu
ad d
ul t
co mp
d at
pri vate
s p
s h
a g
ob ject
b y
te d
\ '
th row
f a
no t
ati c
o ur
u m
a se
p re
st atic
en er
le ment
r a
c tion
ac t
u ti
w ith
co de
co l
ap p
pu t
uti l
dat a
f er
no de
l in
er t
c re
lo c
al l
v e
our ce
an ce
lo g
s c
par am
or y
ass ert
ke y
e m
e v
u ser
m ap
ss i
mo de
bo o
a li
al s
o l
int er
w or
for m
ac he
u se
e lement
si on
p at
con text
g ht
n t
ssi on
pro per
le an
e qu
do c
o p
cre ate
res ult
boo lean
o ver
in st
vi ce
me ss
la y
tr ue
throw s
s y
p y
ti me
u le
mess age
un d
ev ent
q ue
mode l
re ad
p ack
d ate
z e
el d
equ als
co py
b le
ser vice
i te
fi eld
en ce
m l
g ro
g ener
at or
li p
pack age
i c
g n
a u
at t
a in
at ch
ac tion
u s
o d
w ri
di st
lip se
an t
inst ance
t p
pat h
l en
c ur
ra y
ribu te
i m
ap ache
g er
st ate
p ort
ver sion
ec lipse
u re
ar ray
f al
m an
fal se
g in
en ti
gro up
e w
fi g
in de
ce ss
p t
on g
si ze
g r
un der
h as
f act
t w
ht tp
me th
l u
m s
ar t
w w
vi ew
inde x
m i
con fig
se e
w h
ri ght
meth od
el se
que st
c ted
an y
cont ent
l y
proper ty
com m
c ase
over ri
re e
er r
att ribute
lin k
overri de
r an
ex t
sc ri
y ou
l l
bu il
wor k
g u
re quest
by te
fa ult
dist ribu
s of
ti es
r ule
res ource
t a
s ource
w ar
w e
g i
p r
co un
b er
lo w
tw are
l an
sof tware
de fault
h and
su b
ite m
ed it
g th
x ml
ch an
th at
len gth
in fo
st art
bu f
f ro
t able
f e
st re
err or
in d
fro m
se le
l ong
on e
in put
co re
tr an
stre am
ate d
fact ory
o c
st em
qu er
sp ec
r un
sy stem
cur re
r y
au th
n um
u i
th er
ar y
quer y
a y
ag er
cont ain
list ener
fer ence
a ce
coun t
0 1
man ager
pro te
m in
n g
loc k
s w
tr y
d is
n s
sh o
n al
lin e
ec k
ex pre
bu t
fi c
ch eck
prote cted
o m
curre nt
h o
in te
f r
de scri
distribu ted
w n
re mo
copy right
par ame
parame ter
lo ad
imp l
st at
b ase
c li
ation s
app end
ex p
con ne
p lay
u ri
op en
k en
on ent
fa ce
mo d
inter nal
res p
c atch
l er
t ing
ch ar
cli ent
i p
v ali
ent ry
comp onent
end s
tran s
le t
buil der
in c
with out
u ct
to ken
or der
di tion
enti ty
ma y
buf fer
ur l
chan ge
c an
resp on
spec i
po s
ser ver
im age
v is
o g
i g
p are
edit or
1 0
ar d
o per
o ption
war ran
col um
c al
d ou
s o
la b
re ct
dou ble
ext ends
il d
su per
de d
c or
c all
ne xt
fo und
v ar
pro ject
m ar
col le
fi l
auth or
re gi
pr int
fo l
as k
2 00
re f
v id
sp ace
wri te
il l
av e
0 x
po int
ar ch
i st
hand ler
te mp
p age
fil ter
respon se
v ed
ch ild
ar g
it er
stat us
ne t
t ar
has h
form at
w id
ww w
. 0
app lic
d s
ul d
tar get
re ference
c lo
u ment
u st
ac ti
le ss
t ag
num ber
lab el
o ther
se ssion
m y
gn u
out put
inte ger
i re
wh i
o t
b ack
be an
up date
doc ument
lay out
f f
java x
a k
s on
ma x
st o
ur ation
imp lement
i li
n on
le d
n ing
str uct
m er
p an
pro cess
colum n
at ure
s up
or i
re p
un it
pare nt
li ed
colle ction
vid er
con dition
comm and
t ask
b lock
ex ec
mi ssion
m atch
pro vider
no ti
fr ame
col or
sto re
proper ties
con st
gener al
ac cess
le g
e t
re ss
g o
ap i
conne ction
an not
a mp
log ger
st er
expre ssion
s q
re qu
a x
u te
par ser
ab str
re n
d b
abstr act
m at
m it
b r
ti c
per mission
w ill
u t
m en
e p
gener ated
t on
imp lied
s ch
fi x
ili ty
he ad
la st
gr am
a st
const ant
cont ro
sho uld
config uration
par t
l s
ro ot
f lo
ali z
ac h
l ate
ap h
st ack
r c
but ton
fi r
f ree
o s
remo ve
de fin
ma in
requ ire
1 2
value s
t ree
sq l
i tion
ser i
ith er
vali d
gr aph
si tion
se arch
b re
to ol
g en
e mp
util s
i z
pt or
bu g
p lu
di rect
e ither
1 1
license s
par se
c ache
of f
fi er
bre ak
wor d
f un
c k
fir st
le te
gu age
lan guage
2 01
ke t
f t
ar gu
k er
th read
argu ment
lan g
00 00
inter face
loc al
i r
v el
we b
fe ature
require d
be gin
plu gin
la ble
b ind
l at
b it
n c
loc ation
imp le
condition s
c l
k ind
return s
mo re
ne l
comm on
me m
a le
contain er
o k
fi ed
fol low
p a
ce ll
iter ator
a f
read er
clo se
p h
use d
flo at
play er
pro to
d ing
speci fic
ad ap
li mit
head er
wri ter
run time
t ri
mod ule
oper ation
fin d
h el
pan el
ht ml
st y
de bug
in i
ini ti
descri ption
d y
le vel
if y
ser v
al og
fun ction
type s
de p
m on
ta il
var i
instance of
c ate
constant s
po sition
descri ptor
emp ty
c s
u al
vis i
si te
s rc
ro id
sty le
temp late
la ce
s imple
ab ility
en able
se c
- 1
sele ct
b und
wid th
j o
annot ation
p i
sele ction
di r
warran ty
e ma
i ght
l n
on t
found ation
me ta
and roid
off set
de tail
ter n
cont ribu
si gn
amp le
ec ted
add ress
ext en
re l
h ave
ter ms
h er
j son
ob j
bund le
leg al
t le
m ul
bo x
res ol
buil d
t or
adap ter
re cor
pos it
ri d
r on
applic ation
inc lu
permission s
0 2
si st
ms g
to p
l r
warran ties
men u
arg s
re ce
print ln
pro d
1 3
ra w
re posit
di alog
b in
set ting
ava i
t ain
rece i
po se
i e
w r
whi ch
i ty
con ver
pro gram
ol d
fo re
serv let
ob tain
defin ition
ti tle
name s
w t
c le
frame work
it or
ren der
vari able
expre ss
contain s
j ob
mo ck
name space
hand le
mo di
avai lable
reposit ory
ant lr
de lete
contribu tor
form ation
i gn
on ly
ran ge
l d
o wn
ex ist
n er
re port
s ing
do wn
fic ation
res ent
par tic
state ment
w in
g over
s in
en um
li br
p ass
se qu
ne d
m app
per sist
pro p
re g
f s
implement s
bo und
wh en
port al
con struct
v en
b as
go og
byte s
attribute s
ul ar
n ls
1 6
acti vi
d a
pre fix
goog le
exce pt
whi le
li ance
applic able
w s
fa il
license d
ho st
wri ting
regi str
u tion
c a
mul ti
e u
libr ary
or ted
n i
bind ing
dis play
distribu tion
enable d
fi t
re d
en c
it ch
bas is
comp liance
exp ected
detail s
li fer
lifer ay
me t
sele cted
2 .0
limit ations
he ight
li sh
un less
gover ning
wid get
b ar
u id
i es
less er
seri aliz
exten sion
parameter s
recor d
re ed
comp o
dat ab
trans action
own er
s b
f la
contro l
activi ty
r ing
la w
ati ve
in formation
s co
set s
hel per
w i
g rid
ag reed
sw itch
ment s
h i
win do
c ap
un i
pat tern
direct ory
in vo
mem ber
sh ort
mapp ing
ge o
b a
p ur
s oc
uri ty
f ul
pub lish
2 5
ro le
s v
j unit
ass ign
1 5
option s
9 9
sec urity
field s
in it
ne ss
j j
con str
x y
param s
sch ema
id enti
tr ack
au to
2 0
le ft
comp ar
s end
in s
il legal
sy n
sw t
s k
l t
se s
in di
r t
s ol
mod ify
1 4
cate g
sho w
datab ase
g l
chan nel
se d
sup p
load er
pre ference
ll er
sequ ence
implement ation
ser ved
f low
i con
sw ing
j et
a int
m ust
ic s
gi ven
c ust
right s
f ont
af ter
setting s
pur pose
scri pt
registr y
do main
partic ular
be fore
ac ce
fol der
li ter
re served
rep lace
windo w
pro vi
fla g
file s
de f
ev en
regi ster
message s
construct or
c lu
que ue
f ull
sco pe
at a
de cl
i led
ch ant
sp ring
ac ter
1 8
acti ve
tr ace
0 .
sh ip
char acter
y our
de st
00 0
i on
sup port
element s
mar k
it s
fit ness
c m
ect or
se con
w ay
ex ample
constr aint
m ary
al low
t s
b ra
ori gin
po st
exec ute
en gin
mer chant
x text
er e
s ave
cle ar
cur s
merchant ability
met ad
engin e
cust om
st op
t ab
metad ata
ma ke
change d
proto col
resource s
remo te
ti ve
lic k
contro ller
categ ory
w a
p si
comp le
or d
noti ce
b l
use ful
ch ron
un k
3 2
persist ence
ig no
wr ap
me di
li t
3 0
lo b
pro xy
pass word
r s
bo dy
ent er
mat h
p l
po lic
ex pr
h ol
wor ld
liter al
fa iled
do m
re st
result s
0000 0000
contributor s
s m
bo ss
d raw
in valid
identi fier
noti fication
all y
ass ist
lat er
dist ribute
2 4
mon itor
ac count
view er
trans form
child ren
recei ved
publish ed
st or
0 9
c ation
d t
er i
da o
t t
iz ed
tr a
de c
c lick
process or
re co
n or
v ector
g le
cal end
node s
sy m
calend ar
em f
ct or
assign ment
mat eri
in ser
compo site
con f
su ite
su c
ma il
ite ms
1 7
bin ary
ax is
call back
d ay
speci fied
bra ins
port let
pro g
ch o
supp orted
d f
polic y
de sc
c i
ic k
ad min
o w
lo ok
si c
war ning
en co
n am
me d
wh ere
initi al
ar ti
struct ure
at tr
service s
c at
e val
key s
decl ar
ho pe
st ep
6 4
fo o
re distribute
con su
st u
comp any
a ad
e f
r and
prog ress
s ses
w as
t al
method s
syn chron
g ing
test s
2 3
compar ator
boo k
b order
a wt
int ent
igno re
ad dition
create d
oc l
lo y
ass oc
d ro
as f
d l
inte l
final ly
lay er
object s
g ame
ct x
ou s
ker nel
v m
at om
vali date
ro ll
content assist
aad l
sin ce
201 1
se ction
1 9
jet brains
z er
no w
regi on
hol der
loc ale
suc cess
event s
po ol
u res
prod uct
wa it
tr act
k it
rel ation
s ort
provi ded
p le
curs or
m il
d if
ac ket
s n
p c
dep end
visi on
p resent
follow ing
vi rt
j av
man age
c ard
s en
no te
0 3
sym bo
ali ze
intel li
stor age
co ord
c er
gener ator
origin al
ther e
to do
j boss
soc ket
qu ali
ba sic
th en
su ch
to tal
do es
de leg
m t
com ment
c ast
id s
visi ble
as y
e st
b ig
0 4
ce s
pa ir
pro file
m u
al ong
s ame
inser t
mo ve
cla sses
ed ge
ate s
b i
sc an
assoc i
arti fact
ter min
pan e
su m
sp lit
intelli j
j s
addition al
prod u
per son
sh are
is h
rand om
rep resent
order ed
gram mar
w he
ap e
pri mary
3 4
net work
at ing
an gle
2 2
1 .
secon d
lat form
sing le
u uid
mo use
p lace
f y
g wt
de vice
tool s
time out
gro und
throw able
exist s
vis it
comp il
d r
key word
li b
fr ag
l v
us ing
mp s
ver y
sch ed
w are
0 .0
e ar
c ri
spring framework
enc y
201 0
p s
action s
collection s
qu o
res h
x s
declar ation
ri es
2 .
comp are
s ample
al y
b ro
are a
inclu de
in her
st and
mil li
p acket
i um
i ce
fi ll
p ed
d ri
annot ations
se par
synchron ized
ne ed
ig h
l f
cont act
t mp
in to
comp lete
auth enti
e le
c ance
whe ther
initi aliz
eval u
comm it
an aly
z z
g lob
s cre
clu ster
gener ic
log ging
201 2
p ay
no wn
t ch
resol ver
s a
match er
re c
se len
coun ter
virt ual
exec ution
scre en
6 3
selen ium
se g
el l
lo t
1 00
c p
content s
bound s
conver t
st amp
po pu
sub ject
jo in
ad o
2 7
ho me
mer ge
di ag
v es
conver ter
wrap per
cont in
ach ed
fin der
g h
medi a
si de
enco ding
re al
array s
e ss
wi se
inclu ding
pu sh
re q
valid ation
c r
ter m
bo t
k i
e ff
dep loy
su re
j ax
b ility
g y
link ed
pre ss
gu i
be en
r ad
di men
e ach
ic al
dimen sion
6 7
str ate
e core
fe tch
ent ries
al t
render er
p m
so me
acce pt
mem ory
im um
cal led
ut or
prop s
name d
0000 00
mar ker
colum ns
c ar
clo u
dy nam
ad oc
im al
inher it
argument s
g re
in ation
te x
share d
sv g
jav adoc
re vision
cal c
de l
read y
6 5
pat ch
t xt
a z
m ac
c c
ag ree
symbo l
point s
sub string
materi als
en vi
get s
d en
h ist
de sign
en code
2 8
reco gn
vali dat
0 7
re set
in ject
b en
reg ard
envi ron
c ss
consu mer
glob al
her e
par ti
ema il
other wise
graph ics
variable s
po ssi
ma de
sh ape
exec utor
frag ment
t d
vis itor
resol ve
dynam ic
3 3
j ar
j ust
log in
m b
os ate
po inter
sh all
ab o
inter r
common s
h ado
li ght
i a
hado op
1 .0
gener ate
modi fied
oper ations
n av
oper ator
equ al
example s
environ ment
user name
at ures
pro ble
ff ff
si g
deleg ate
ri x
sv n
ver ify
ad ded
check ed
er s
al f
h av
tw o
act ual
warning s
bo ard
fact or
ch ain
c d
pi x
sc ale
mi ted
p k
p latform
defin ed
att ach
separ ator
sc roll
strate gy
an ti
c f
constraint s
conne ct
z one
uni que
ag ent
so ap
i de
noti fy
d am
5 9
look up
low er
li mited
c enter
uti li
validat or
as set
ge st
c ated
6 6
abo ve
sup press
j db
fo c
b ed
preference s
cance l
p or
group s
b row
listener s
vi ous
stand ard
ep l
work space
th an
c ert
contin ue
re le
owner ship
dec imal
ti le
al g
regard ing
coord in
for med
pre vious
ca use
0 5
create s
me tri
buffer ed
mat rix
un ch
stu b
back ground
milli s
ali gn
to m
h ref
m al
jdb c
sp an
ur ned
end point
time stamp
ro u
ed u
e o
b on
4 5
dri ver
id entity
in ner
4 8
con n
n ative
serializ able
n able
r am
sign ature
n a
th ing
pix el
g t
map per
can not
bean s
sol ution
dam age
de s
dest ination
allow ed
2 9
la unch
ber n
enti al
face s
fe atures
len ame
tag s
d d
ret urned
fe ed
inter val
ex ter
invo ke
pre pare
select or
seri al
mu table
be st
base d
arch i
unk nown
ran k
hi bern
3 5
y y
un t
hibern ate
tran sp
instance s
h igh
sub st
dro p
stat s
6 0
s av
per form
run nable
sy nc
sub scri
n one
exter nal
fi lename
agree ments
flag s
st ri
end ing
comple x
cm d
be hav
a a
recogn ition
re ction
b ir
asy nc
co uld
error s
component s
p ing
en v
sen der
3 7
ret ri
compil er
comp an
sh ell
te ch
ch unk
us a
wi ki
ass er
pa int
m f
foc us
modi fier
200 9
p lan
j face
8 9
hist ory
ch art
exp ect
5 1
id x
nav ig
sk ip
ver ti
y ear
c ached
y pe
qu ick
row s
authenti cation
en e
d u
app ly
ori z
de li
pre di
ori es
s pe
user s
in e
2 6
in str
w iz
tri m
c y
us age
i or
mon th
e e
mo unt
th ri
re distribution
al ready
ac compan
dis cla
ne g
fer red
ali as
work flow
serializ er
thri ft
up le
av en
g reg
x x
enum er
0 8
seg ment
speci al
del ta
g pl
ke ep
dis able
tri g
cri ter
x p
tion s
eff ect
st ar
wiz ard
t x
d uration
ch at
cl one
i ent
ben ch
cre d
dis patch
fin ish
ve lo
f lu
ref resh
calc ul
con current
der i
inst all
j p
i ss
d one
proble m
s ax
rele ase
i al
z ip
un supported
sched ule
t uple
fi re
200 8
pri mi
alg or
iz ation
for ce
m ask
at ype
algor ith
an im
rule s
pro j
trig ger
ro t
rest ri
ac company
fail ure
ref le
down load
d to
accompany ing
ex port
m m
pri ori
top ic
i fier
b m
task s
st mt
h oriz
m aven
de le
red u
ex clu
match es
4 4
mi ss
ver se
po ly
depend ency
di g
com bo
per io
start s
bu sin
di rection
j b
tran sition
interr up
busin ess
s un
cla zz
invo cation
tw e
res co
c u
header s
in f
alf resco
2. 1
h u
d c
set up
subst it
de v
a ded
lo op
me as
ver tex
conne ctor
log y
transp ort
mac ro
ele m
track er
st on
loc ator
horiz ont
initi alize
ow ned
priori ty
class path
accompan ies
8 8
le x
ex tra
jax b
se lf
5 0
config ure
up per
exist ing
1 10
indi vid
hel p
u ction
inter ce
popu p
a mount
widget s
format ter
200 6
b t
ra ft
t u
s ur
token s
secon ds
quali fied
s li
e k
ti mer
match ing
mi me
ex tract
7 7
horizont al
view s
quest ion
o se
al ph
author s
b ag
s ent
algorith m
d on
m id
al tern
bir t
st ics
bo ston
ol s
a i
run ning
in v
am az
flo or
lin es
process ing
b b
work ing
amaz on
2 1
als o
behav ior
manage ment
c lean
w o
co ok
oc curre
s he
predi cate
f ut
3 1
ex it
change s
c v
0x 00000000
5 5
il y
di o
200 0
sho t
st ro
c ent
text ure
rect angle
primi tive
3 9
s core
con tract
run ner
document ation
max imum
pre v
z o
rel ative
dif f
access or
track ing
ef x
dist ance
s is
iz er
co ver
individ ual
war d
lo aded
me an
g b
as on
n u
cre ation
n ms
trans fer
zer o
brow ser
4 0
relation ship
in cre
re po
materi al
b ad
dep th
bu k
multi ple
work bench
ge d
re ge
we ight
flu sh
ab sol
cho ice
wh ite
stro ke
recei ver
absol ute
buk kit
sa fe
l on
ut f
perio d
fut ure
200 5
wor ds
miss ing
remo ved
3 8
associ ated
deploy ment
possi ble
3 6
4 7
li ability
contain ment
1 000
comp ute
h our
part s
f am
criter ia
option al
archi ve
comple tion
meas ure
ro ute
ind ent
ur al
bu s
as h
so le
e me
model s
0 6
custom er
st ati
v y
s d
de lay
diag ram
she et
s f
update d
F F
man y
bit s
sn ap
bot tom
m d
ec tion
200 7
pr inc
seri es
w ire
plugin s
exten ded
princ ip
re store
acti v
pay load
x html
b atch
ed ition
proto buf
de cla
dis pose
h int
m ule
ma ster
de pre
bl ue
u ffff
transform er
ce pt
4 9
command s
l ing
bro ker
f ac
redu ce
se q
enumer ation
module s
de cor
au dio
con sole
soc ial
close d
at temp
interrup ted
exec u
la p
de te
modi fication
a e
r ate
pre ferred
dro ols
cor por
li ke
j ms
i le
ree t
let on
po w
s lot
m is
sch eme
g ra
contain ing
war n
asser tion
de code
e ded
string s
ph one
sy nt
path s
add ing
b ran
do t
way s
rep ly
interce ptor
st reet
6 9
corpor ation
lu c
w ave
throw n
sh if
parti tion
di ction
open api
re ason
instr uction
f ly
trans l
ds l
deri ved
di v
id ent
attach ment
manage d
ag greg
c lipse
doc k
te am
tool kit
b lob
co st
sav ed
pi pe
class ifier
b an
p ret
s le
exp and
align ment
restri ction
f x
5 7
ti p
es cap
bran ch
verti cal
im er
k s
luc ene
s orted
su f
im g
fi f
diction ary
n b
sum mary
nor mal
vo l
m ach
extension s
synt ax
h y
w so
si ve
best solution
discla imer
reference s
se ver
p df
use s
associ ation
res sed
sof t
ne st
iss ue
block s
ro y
tt en
twe en
p as
the y
ce d
efx clipse
8 7
f rank
scan ner
con s
princip al
con cept
ow l
st d
gr ation
be tween
mar shall
jo urn
gr ad
sh ut
em bed
e ve
c up
filter s
fif th
re factor
m age
rege x
n ul
an ch
wri tten
occurre d
exception s
v as
ab out
sm all
journ al
depre cated
h at
ag ing
clou d
form s
xt end
n l
config ur
bit map
cook ie
atom ic
tran si
ec a
pre f
ac ity
alph a
is o
frank lin
c b
represent ation
encode d
h s
0x 7
d ur
redistribution s
at er
enti ties
pro t
per formed
be ing
c ro
quick fix
cat alog
02 110
13 01
image s
sy s
quo te
m atic
si ty
man if
can vas
state s
comp ile
back tracking
go od
utili ties
ali ty
dr ag
mi x
subscri ption
hi er
cer ti
al ert
dif fer
g ate
comm un
resol ved
vo lu
e jb
d up
cor rect
descriptor s
er ic
up load
sig ned
b io
add r
bo th
sing leton
j u
l ar
draw able
visi bility
d n
os gi
u ch
i bm
rad i
f c
member s
char set
ap pro
manif est
enc ry
msg s
6 8
de termin
dele ted
k ale
refactor ing
pri ce
sp i
data set
register ed
ro und
inclu ded
with in
p ending
the me
v ec
fam ily
b eca
kale o
beca use
c dt
substit ute
r df
i to
ar m
shif t
ro om
ty ped
certi fic
proto type
iter able
anch or
the se
geo id
com bin
conne cted
reco ver
nul lable
stri ct
sle ep
m ic
pro c
25 5
rel ated
pro pos
org an
transi ent
ori ent
incre ment
e b
doc s
pe er
r u
clou ds
table s
oc curs
coordin ate
store d
is ion
men ted
ili ties
other s
un checked
system s
5 8
parse d
f ri
snap shot
dest roy
mach ine
p ic
b al
h ex
tic le
al ways
z ed
bo y
metri cs
quali fier
colle ct
j pa
inst anti
p lot
diag no
c ut
fix ed
analy sis
c ket
render ing
ar ticle
re fer
v ing
hier arch
geo me
to o
si tive
co me
p ati
stati stics
lic it
is on
retri eve
recor ds
00 1
face t
partic ip
c and
p la
nam ing
de velo
pati ent
op ti
thread s
per mit
ph ase
un set
u ne
link s
u k
suf fix
t en
call s
st ic
anim ation
ws dl
1 99
000000 02
rou gh
cre ator
pixel s
star ted
p p
char s
g is
character s
ss l
re pe
os m
as se
function s
sub mit
bu cket
ac le
4 2
test ing
list s
r pc
sc a
refle ct
d art
j clouds
for ward
tool ing
app en
d fa
q l
j vm
token izer
po ll
nest ed
m x
ing s
wr app
h ar
r r
c as
bro ad
w atch
b rid
g mf
le af
ex change
geome try
or b
fi es
200 1
e of
bin der
no thing
time s
serializ ation
cla use
re main
dis k
produ cer
c lip
multi p
edit ing
x eo
xs d
persist ent
indi cate
am l
we ek
li f
8 0
th rough
specific ation
min ute
ad v
volu me
shut down
an other
t jp
mic ro
sched ul
recei ve
for ge
in j
y cle
jj fly
tjp editor
jjfly boy
or acle
5 4
w al
seri alize
po p
work s
car bon
au d
navig ation
f sp
pow er
p ho
enti als
ab s
an sw
quo ted
compar ison
k o
ma g
initializ ed
tech no
consu me
acti vate
li g
wri table
as p
in et
certific ate
imple mented
metri c
pl us
sp out
particip ant
ne eded
200 4
d fs
ab ilities
e ad
interface s
sh a
the m
vi de
es per
decla red
rep lic
z y
di gest
o id
label s
nc y
min imum
dat atype
co der
ma li
produ ce
sequ ential
0 l
9 7
st age
g it
compil ation
ho we
howe ver
pas sed
pay ment
disable d
registr ation
s la
j d
code s
j dt
inv ent
analy zer
g c
e default
5 2
wr ong
differ ent
ob server
cred entials
con version
load ing
check s
um b
full y
w ant
design er
nu xeo
bl ack
fa st
cand id
um l
b ri
rad io
opti mi
p ted
get ter
enc ies
pla in
ret ain
0x 00
se man
cert ware
ati ves
e very
th resh
j i
nor mali
im mutable
log s
re cur
template s
uni ver
struct ural
op t
emp loy
seman tic
utili ty
dup lic
t m
wh at
4 6
unit s
invent ory
colle ctor
st one
gro o
li able
brid ge
act or
in fin
5 6
mock ito
termin al
hel lo
00000002 l
co pi
c ator
ti l
inte gration
to uch
0x00000000 00000002l
cor respon
zo om
inter pret
fs f
comp ati
ph p
aliz ed
g d
start ing
g ap
c am
le ad
sol r
ld ap
ac c
other lv
acce ssi
damage s
hierarch y
mail to
role s
en sure
spe ed
evalu ate
ta ke
sh ad
8 6
d m
to g
g s
q name
or m
ple ase
request s
fig ure
e q
it ter
u me
x us
page s
ar k
c ls
answ er
g a
d st
y ard
attr s
com ments
prepare d
c ms
dispatch er
over lay
num eric
k a
cap acity
bt n
e asy
i v
mar gin
pho to
trans formation
add s
boo t
p id
thresh old
asp ect
4 3
enco der
d um
al loc
handler s
present ation
inst ead
t re
sh op
trans late
in k
lif ec
ou ter
aud it
gre en
ac y
request ed
s or
map s
tr ust
comp u
i i
t an
ar is
descri be
lifec ycle
mo st
in line
hi de
groo vy
new s
j sp
ri ch
in side
sm art
par sing
j st
contain ed
provi des
g on
list ing
binding s
o q
ne ver
curre ncy
wrapp ed
b s
p w
dum my
h au
holder s
re name
sec ret
depend encies
po t
si mul
3 .
per cent
min ec
m ut
cm is
proto s
altern atives
open source
radi us
ho w
k now
in sets
pre view
h id
c n
ob serv
sc al
let ter
default s
structure d
dur ing
du mp
fun c
format s
s r
pare n
si l
current ly
1 l
a ws
un til
the ir
up dat
escap e
evalu ator
expression s
mapp ed
log ical
re direct
ne o
fi able
lo ss
end or
propos al
color s
aris ing
pre fs
h or
un do
9 8
c ry
x a
attemp t
lo an
fic ations
il la
clo sure
al le
con fir
de sk
in direct
compo und
li ve
comple ted
ac l
ly ing
4 1
b c
neg ative
er a
s ation
a de
t c
finish ed
a ff
sec ure
cy cle
does n
on y
ci rc
univer sity
project s
ad just
li te
permit ted
calcul ate
log ic
coun try
cro ss
resol ution
ar c
r gb
orient ation
e ef
7 5
schedul er
i res
vari ant
viewer s
buil t
ra i
mapping s
un able
01 5
so und
i ze
j un
day s
check er
adv ance
ph y
deli m
index es
oper and
ex tr
connection s
statement s
embed ded
desk top
9 6
int en
annot ated
d p
switch yard
t ort
code c
gener ation
definition s
7 8
poly gon
mark s
b lan
set ter
cur r
parti al
0. 5
s lf
j a
roll back
d av
represent s
i ence
source forge
open nms
it u
0x7 f
organ ization
m gr
li er
sub component
ev t
200 2
di m
exp an
ac ing
support s
sign al
k ing
gra de
ret val
j cr
proj ection
initializ er
0x 0
ne cess
en velo
graph ic
jo oq
u b
p ng
b and
at o
marshall er
st an
ex op
under lying
exop latform
f w
product s
temp or
co s
a ware
fit s
par ty
wh o
ca used
call er
k nown
p end
high light
cho o
match ed
button s
te ar
vis ual
real m
en ted
h an
f n
ret ry
go v
vol ati
has ht
ex per
ab c
son atype
act u
p ick
a ion
ho ok
f ed
ar r
m v
op s
hau s
rot ation
6 2
case s
o o
su g
inc ident
n io
9 5
led ge
choo ser
i fication
windo ws
volati le
cf g
der by
blan k
p adding
mark up
s qu
remain ing
mo tion
d le
id ence
dig it
re ssion
ds on
cre ating
h a
conf lic
pri me
i id
l atch
vide o
con sist
s ak
an o
envelo pe
v a
al th
last ic
vi a
layout s
pro b
hu dson
tog gle
vi sed
hasht able
represent ing
modifier s
com ing
c ity
fin e
update s
at her
po l
possi bility
w ild
document s
for um
defin e
th on
y et
une xp
5 3
11 1
necess ary
ord in
clo sing
pro vision
w c
sp a
provider s
i str
n d
igno red
pe ar
g ue
te le
indi ces
pro fe
version s
e -
confir m
n pc
need s
of fer
tra de
s al
fri end
unexp ected
0.0 f
pri vi
mid dle
sc m
back up
un used
tr ain
rec ip
b ill
x path
7 9
th umb
r m
loc ations
h it
activ ation
ge m
contro ls
qu anti
p en
on ce
call ing
position s
in fi
ri ce
author ity
hid den
privi le
ar ies
l gpl
c tr
accessi ble
deli very
correspon ding
code haus
la zy
line ar
dec ision
te iid
5 00
x core
evalu ation
7 0
c raft
recip ient
se l
o x
bon d
de coder
profe ssion
i med
pk g
the ory
ev idence
ad vised
i an
g p
employ ee
s model
adap tor
work er
sug gest
serializ ed
m k
candid ate
coordin ates
sk ill
gu id
c ip
k ed
cd k
i ed
quer ies
ext end
sch em
hy per
ir d
ri b
re produce
wo uld
aliz ation
lock ed
minec raft
8 4
dir ty
ex emp
con sequential
c au
ten ant
st ation
categ ories
e per
c ach
as c
con cat
12 3
inc or
gre ater
tic ket
go ing
w ind
re v
qu ot
phy si
p ag
d id
be ta
gate way
m c
reference d
200 3
cal lable
duplic ate
nb sp
package s
short cut
neg lig
fi xt
source s
inter est
pri or
ale s
g ad
good s
qu ad
ge om
liter als
z k
b el
profession al
pi e
12 8
configure d
re ci
dis co
ass ig
edit able
edge s
g g
7 4
pro fits
datab ind
inde pend
incident al
mo bi
decor ator
step s
fore ground
d x
pe t
i ted
u ption
index ed
f q
ct ure
can on
provi de
sin k
interr uption
fac ade
broad cast
ap pear
sur face
sever ity
independ ent
8 5
li es
g ri
sample s
fore ign
target s
re write
com ma
author ization
on to
pi vo
7 6
modi fiable
lar ge
sak ai
b id
exp licit
r p
present er
produ ction
spec ify
f u
ne xus
info s
min e
in verse
c z
ar row
str ong
in coming
sh al
allow s
po sitive
f l
de mo
he alth
key words
inj ection
or ig
delim iter
f d
w ell
g ot
number s
s an
medi ate
execu table
le s
client s
9 0
determin e
f re
neglig ence
e lastic
mal formed
commun ic
id er
proc ure
b or
ex act
procure ment
filter ed
d ue
std lib
par alle
l ary
exemp lary
repe at
is n
mar shal
enter pri
gr an
discla imed
la ss
al bu
ds f
exclu de
transl ation
cam era
h ard
00 2
di ale
6 1
diale ct
m q
tri ple
i j
tw itter
p ressed
tu de
re verse
th ree
cip her
th ird
ne ls
pivo t
contribu tion
et rice
sli ce
eb ay
r ase
5 09
inst al
c lock
an no
b g
1. 1
c ame
read ing
cry p
cap t
co or
fixt ure
se ed
sd k
enterpri se
include s
fed er
a ir
check ing
as n
q t
retri ev
py thon
break point
cap abilities
space s
so a
j mx
so meth
th ose
a jax
n v
n r
http s
le ast
b pm
in sp
someth ing
spec tion
pro mo
fr ont
hand ling
uni on
dir s
ve loc
spa wn
r ating
res ses
var s
i ast
pre d
me ter
develo per
job s
databind ing
0 f
paralle l
pro ces
sub type
inject or
contact s
h base
block ing
or er
m ong
import s
j n
indi cator
requ ires
test ng
e a
li fe
grad ient
re ally
mean s
chan nels
l and
squ are
si m
ar io
veloc ity
proces sed
af fer
cu be
ve y
h appen
reci pe
ref s
m and
7 2
activ ator
note s
int ro
ke eper
pro ced
mis c
lex er
sc en
tic k
compati ble
mobi le
u ff
affer o
z a
f requ
8 2
s pri
s at
c nt
construct s
disco very
or ph
u ed
pri ate
commun ity
hi ve
te s
icon s
brow se
boo l
seg ments
r us
appro priate
dock able
0x FF
pro mp
player s
loc alized
late st
rou ting
cur ve
mess aging
en tion
1.0 f
extract or
app lied
itu de
de part
key board
t urn
diagno stic
aggreg ate
schedule d
ax io
came l
initializ ation
o prot
auto matic
wait ing
sil ver
pat ter
indicate s
to ast
j or
o mi
incor rect
br acket
inf later
s amp
cover age
coor ds
hour s
fo ur
sen sor
geo toolkit
direct ly
ou gh
a ver
test er
copi es
99 99
25 6
j en
p ad
h alf
on es
patter ns
de ad
7 3
un signed
indi cated
launch er
h p
x mp
format ted
add resses
cla im
pri v
p tr
ph rase
ch em
ec tive
de ep
out line
p ap
graph view
vel y
g mail
r b
ebay opensource
st ill
f av
d ash
ne igh
at h
wild card
to k
refle ction
scen ario
i mo
ta x
boot str
r ati
h am
replace ment
pipe line
sur vey
capt ure
s lo
tool bar
cho ose
cs v
f p
shop ping
admin istr
popu late
prop ag
s ales
j ack
att ack
o virt
l c
1 01
al arm
portal web
b d
b ul
albu m
physi cal
y es
exper i
b logs
def n
conver sation
bal ance
om g
b at
col l
log ies
p res
si z
jet ty
mo us
w ish
asse mb
mail box
l ati
i val
uni code
th us
po m
p in
dete ctor
fw k
ag a
hor net
- 0.
clean up
schem as
ro l
c pu
r mi
termin ate
sh ard
10 24
mo jo
cryp to
ation al
white space
spri te
f b
ver bo
proble ms
an g
f m
count s
ance stor
invo ked
supp lied
publish er
re load
ent s
bootstr ap
att ribu
array copy
9 4
observ able
perform ance
se ll
s as
diagno stics
fi ce
ec m
o me
ctr l
root s
u la
co ur
sla sh
sp acing
con d
assig ned
pu ll
col on
w ic
est im
ca ret
il li
an ony
0x ff
p de
proced ure
3 30
no i
ret ention
nor m
bpm n
z ation
h old
arti st
jn di
shad ow
t cp
c ass
w ere
sp inner
min or
success ful
pro ce
h its
and ra
sc ene
tra il
compar able
et c
de al
pair s
p ast
de t
local host
content fwk
techno logy
reco very
dat as
promp t
ol ation
reg ular
lead ing
desc r
m r
d an
check box
char ge
we st
lt k
m if
pr inter
interpret er
9 3
ver t
pre c
lati tude
n ick
sub program
h um
i prot
minute s
er y
mag ic
report er
r ss
p d
id le
see k
be low
en g
wic ket
equ ival
0x 8
symbo ls
r mf
open gis
frame s
milli seconds
bound ary
auto wire
g sn
g ly
h n
g ree
relation al
anony mous
dif ference
v cs
quanti ty
of fice
cass andra
advance d
in spection
inter pol
min us
experi ment
rati o
ser ve
lap sed
inter n
e vi
bound ing
read able
j an
handle s
cor ner
f lat
assign able
canon ical
is m
con ven
nor th
exp ire
y a
one y
p x
9 2
be t
g ray
fic ient
form ula
s mi
ma jor
1 0000
cap ability
ar o
feed back
10 7
sli der
ide a
comp ass
zo o
t v
long itude
un modifiable
al ter
aver age
hand led
tra ver
cri pt
defin es
ap s
s aml
techno logies
verbo se
mean ing
axio m
iter ation
s imp
start up
form al
debug ger
base line
cd dl
up on
tempor ary
8 3
speci fies
st e
per spec
gre y
s ms
mif os
g if
o de
f tp
on line
p b
as cript
ban k
o logy
transaction al
4 .
j ac
fe e
namespace s
su sp
f at
remo ves
buf f
log ged
dig its
promo te
12 34
01 6
b la
context s
rec ent
cons ider
popu l
m art
conflic t
mo le
frequ ency
insp ector
4 04
open sc
xx x
navig ator
list en
la use
f all
f req
sakai project
cell s
grad le
display ed
co lo
app lause
j c
3 .0
n at
col li
for d
af fi
w all
fa ke
stri p
contin u
se p
ac qu
encry ption
inherit ance
od a
bundle s
to wn
v k
ro bot
noti fier
c g
ce l
si bl
mi rr
ri c
0x 0000
la s
server s
e ver
cancel led
mirr or
v p
v ds
tool tip
style s
matic al
comp ress
amazon aws
mo vi
m oney
res ume
re play
ordin al
expand o
col s
na il
parser s
vis or
un lock
perspec tive
parameter ized
cre te
b ay
ne ither
affi li
g ith
i ti
as ci
c ti
c x
v an
polic ies
hum an
cat ing
j e
imp orted
12 7
place ment
en ded
am q
re size
out come
expan ded
verti ces
re view
pa use
tab s
transl ator
pro x
gad get
c ali
y e
val s
str y
di an
search er
ar ity
mi ght
invo ice
ster eo
ag ain
sub mission
merge d
pe as
imp licit
app s
bill ing
spe ll
multip lic
op code
xml ns
t f
4 00
fail s
jav ascript
depend ent
ro i
si mil
conver ted
check sum
gith ub
po jo
199 9
comp ression
inclu sive
ase s
bri an
cp p
updat er
ri f
im mediate
exp l
um ul
si p
constructor s
cor ba
prec ision
buil ding
plu g
autowire d
aro und
tri p
cance led
sever e
editor s
ack now
sto res
k b
ss h
m gt
jd k
n p
rest let
sh r
quote s
0x 1
xmp p
gly ph
per m
d ent
it self
return ing
j er
h ou
aga inst
c rs
thumb nail
av oid
on imo
asci i
ac cor
onto logy
ver ifier
l hs
jack son
ger onimo
li gh
gran ted
out going
cv ut
m ort
a o
li me
mole c
gu ard
click ed
c ing
gram matical
u d
at ory
temp le
pe ek
suc ce
re fr
instal led
mix ed
un defined
ap tan
instr ument
3 00
sn mp
mo ved
inter action
book mark
m ass
r l
c it
13 07
v or
who le
gi ve
mu sic
dis connect
execu ted
sent ence
draw ing
acce ptor
bund ler
recur sive
0x 000000
super class
z illa
wh ose
st oc
e +
session s
rot ate
inst ant
syn pred
quali ty
host name
pa let
ji ra
ori an
bo ld
aptan a
subscri be
altern ative
endor se
bo un
line core
automatic ally
oc linecore
st ew
7 1
anno un
t b
u dig
member ship
m ing
ar qu
ro ad
w ing
plan e
fact ories
ess ential
s ou
layer s
li o
de si
depart ment
sub class
3 0000
range s
02 111
cas ca
know ledge
illi an
suggest ion
url s
google mail
arqu illian
account s
indi cating
c data
communic ation
tab bed
ali ve
f lex
9 1
gl ue
artifact s
v endor
co ding
le ave
go al
too th
measure ment
per man
t ur
stew ard
por tions
replic ation
ass ume
ad a
palet te
replace d
s and
comp ressed
li d
8 1
li x
helper s
dete ct
hint s
privile ge
acce pted
matcher s
dimension s
j dom
calcul ator
5 .
h ig
r d
level s
folder s
exp ir
instanti ate
render ed
require ment
ri er
up grade
expl orer
om y
ab ort
ch ro
l bl
movi e
gr ant
medi ator
coordin ator
grammatical framework
condition al
od d
ti ves
wave let
cast le
compo sition
ly n
option ally
er x
index er
substit ution
e cho
refr actions
n h
d ltk
min i
greg orian
simul ation
back end
report s
ab i
h dfs
re start
high ligh
cv s
in ct
sp here
tri angle
sp ati
modi fications
foo ter
di rec
board s
gover n
configur able
ac ted
db g
dialog s
tile s
view port
mut ation
cach ing
combin ed
k w
normali ze
m orph
ma ker
multi part
asse ss
host s
ro o
buffer s
0. 1
asser tions
- 2
perman ent
rai lo
att ached
cred it
cau ght
un pack
ssi an
region s
stop ped
decla re
v s
l p
bal an
pi cture
sibl ing
one t
twe et
fx graph
cust omi
actu ally
deri v
gen e
ear l
accor ding
lt d
encry pted
activi ties
au x
equival ent
d h
g f
t bl
un marshaller
invo ker
k ill
earl grey
stoc k
pres ence
ar n
scan pos
un register
spati al
dist inct
sub classes
second ary
play list
n ce
tx n
a head
dat ac
mong o
develo p
c art
n il
var char
in validate
f ab
n n
app let
partic le
j osm
b all
stu dy
circ le
stream s
h over
se en
tr un
jen a
io e
bi b
my lyn
di ct
silver peas
fla sh
b lo
ab a
ex o
r hs
alloc ate
fr action
data store
deli ver
configur ations
stan ford
applic ations
man i
face book
is pan
67 89
se mi
t ape
un ary
input s
we ak
casca de
infin ispan
leg end
proj ity
e g
att en
rou ter
cre ature
c st
cap tion
stu ff
fav or
inter section
b f
blue tooth
pie ce
al location
success fully
criter ion
.0 f
sc r
implement ations
order ing
shr ink
result ing
clo b
de e
c amp
ae um
si ble
me sh
op aeum
web app
r up
wal k
tre at
js f
pose d
inst it
ch e
gb c
fat al
g lo
mark ed
aggreg ation
noti fications
n ature
st ory
s pot
s am
he ap
card in
rep res
el y
attach ments
cour se
assemb ly
tic ks
12 5
equ ality
lo st
assess ment
op a
out bound
announ ce
x doc
ali ce
0x 2
ap se
sub system
pu l
h h
supp lier
de fs
me e
cover ed
property set
ex tern
expir ation
develop ment
mo b
iter ate
h en
tape stry
elastic search
em on
de x
repres ented
25 0
scal ar
e ast
l w
aa aa
get ting
fi d
exclu ded
vo ice
i x
se ctor
con crete
ru by
rep aint
da emon
ac er
c ab
syn apse
meta model
em u
me et
nt k
s id
may be
code gen
i vy
mee ting
pe l
v jo
desi red
g ar
wi fi
b log
ext ent
fla vor
in o
n x
gr ab
g lass
speci fier
an s
pret ty
parent s
affili ates
counter s
se ct
on ic
qu ark
2 20
stu dent
l m
sk y
sho wn
effect s
release d
c mp
game server
j id
chron ology
ef ficient
sat is
mi gration
re nt
10 5
r aph
compu ter
agree ment
ro bo
p tp
open quark
reposit ories
te l
behav io
open street
openstreet map
ra in
place holder
pag in
de serializer
gue st
p v
ali ases
declar ations
op acity
en ne
inter net
xy z
ocl stdlib
frag ments
sco ped
esper tech
description s
fe lix
compati bility
h l
read s
container s
compu ted
opa que
pa inter
j desktop
pro files
ra ster
direct ories
shad er
symbo lic
t un
s st
mand atory
import er
neigh bor
dec ry
c ay
in form
an n
c di
mo l
gu ar
at he
ar jun
part ner
arjun a
for war
r fc
priv acy
d ns
pri m
b p
poly no
restriction s
export er
datas ource
hyper link
99 9
g ain
ph i
licen sing
tag ged
wo od
colli sion
vis u
section s
dt d
behavio ur
out side
fol d
book marks
card s
cardin ality
polyno mi
g ps
w ater
copi ed
fin ds
q a
subscri ber
escap ed
g old
cay enne
asc ending
in ge
av m
00 01
w p
cor relation
refer s
se y
marker s
bel ong
it a
abi quo
ch ri
si ster
har mon
f lip
transp are
rele v
packet s
write s
send ing
favor ite
activate d
actu ate
5 f
vi olation
ag raph
lock s
bu i
an athe
code d
anathe ma
offset s
open ed
ty p
datac enter
sn ip
hol ds
paren the
libr aries
en counter
log o
re search
u er
ur a
o auth
pic ker
v r
attribu tion
f ish
prote ction
acqu ire
t l
mp l
all en
con ference
to po
glob als
solution s
hou se
appen der
12 0
over flow
00000000 l
transaction s
skip ped
b ob
asy n
begin ning
att rib
aff ected
sh un
do s
ll c
percent age
exclu sive
w st
net ty
expan sion
run s
balan cer
my sql
s mo
synchron ization
ri t
per sister
response s
obj s
propos als
m sp
f g
visi ted
pm d
lab ility
on d
model er
oc cur
g able
restri cted
g son
alph ab
fi ller
we bui
dep ends
authenti cator
v c
par agraph
declar ing
tu sc
th ink
11 6
tusc any
dd m
group ing
q i
ch a
enti re
b att
14 7
av g
commit ted
f ur
processor s
sou th
re comm
author ized
re serv
b pel
to ge
decor ation
dispose d
j t
toge ther
h ic
u v
k ar
acknow ledge
s sed
polynomi al
j am
comp iled
ra f
byte code
g ml
15 0
jer sey
administr ator
n as
date s
me chan
attemp ts
proce sses
c are
propag ation
bul k
extr as
over write
opensc ience
r as
s ong
inher ited
normali zed
vo cab
multip ly
nat ural
op codes
p se
c raw
leg acy
in a
soc ie
in bound
bir th
port s
overri d
issue s
d ark
oper a
as m
acc umul
open jpa
y i
meta widget
en closing
bra ce
c rc
if ace
ag g
t cf
a w
ag ram
wave protocol
aliz er
x id
lo ver
it r
take s
u x
ut c
mo zilla
ass u
yy yy
ro ut
callback s
config s
6 .
cm r
k u
geo server
in vi
quo ta
trail ing
k om
vi ty
st ax
identifier s
ment o
25 7
so y
mar ket
cap it
3 f
hol ding
23 45
sm b
ver ification
pe op
sav ings
siz es
loc ated
fri ends
compo se
site s
identi fy
n ak
feder ation
avai lability
request or
en onic
w y
s ke
correct ly
traver sal
initi ali
ti cal
ic pp
p itch
lab or
ba os
i fied
la mb
b ing
i ces
inter sect
orb is
bar s
molec ule
d un
medi um
ta ken
separ ate
privile ged
cook ies
b n
i u
b iz
peop le
1 12
sw ap
11 7
inten ded
pi co
str ut
sla ve
configur ator
s l
ali b
g au
socie ties
make s
u su
log out
app lies
bri ck
ant s
direc tive
consist ency
instanti ation
any thing
authenti cated
cre st
deleg ator
public ation
ele v
harmon y
r ack
fix me
i er
im ate
sk in
inte gr
there fore
10 4
fab ric
inser ted
net mgt
le av
re ach
in ox
10 2
11 5
expire d
equ inox
te ll
n bt
me s
cred ential
alib aba
retriev ed
p n
ch est
x sp
multiplic ity
built in
q c
p g
ti t
batt le
efx bean
past e
comm er
bet ter
class ification
v dc
2 f
0.5 f
recor ding
stereo type
report ing
b am
chain ed
ham crest
ve hic
ju mp
list ed
pe g
g all
co d
inj ected
prev ent
f ar
prox ies
de gree
re cted
ame s
rt f
lon ger
produ ces
jo hn
copy ing
combin ation
ax e
sty led
en ough
op po
sv c
on s
0x00000000 00000000l
desc end
msp di
cm u
interrup t
decode d
00 4
dat ano
1 f
g row
y pt
e lapsed
par cel
unset table
asyn chron
o v
infin ity
descri bed
script s
g mt
t ap
iter ations
overrid den
me mento
ch allen
monitor ing
b x
class model
prote ge
u g
tra it
a ign
colo ur
rep l
function al
ac cur
dete cted
att s
conver ts
authenti cate
equ ip
over lap
u it
bib lio
ad ing
de serialize
asynchron ous
ax es
not ation
de gre
instit ute
degre es
y m
camp aign
sh ar
eu cal
ad b
s ar
eucal ypt
perform s
eucalypt us
oppo site
se ss
l b
iss uer
constr uction
z en
form att
comp act
man ual
ge f
ent a
fail ures
simul ator
map red
re do
question s
rs a
pre conditions
fe el
book ing
y s
b ble
dat um
agent s
f ing
sen sitive
pot ential
fr inge
interpol ation
x la
sp read
confirm ation
sca led
ob e
qu i
v fs
slo ts
di es
mix in
consist ent
mode s
eff ective
challen ge
q r
ple xus
simil ar
te e
ad vice
w ms
in ference
1. 5
dat agram
gen der
at ar
able s
person s
c is
try ing
mod s
em it
remo ting
pt s
gall ery
tom cat
rege xp
vi able
v t
el low
n m
lamb da
or ing
j k
govern ment
al one
x wiki
sco res
device s
j ts
multi map
hard ware
watch er
candid ates
we igh
th re
to ur
11 4
override s
change able
updat ing
pag ination
xs lt
rel ations
s z
p du
em itter
boo st
nas a
syn the
book s
in fringe
head ing
st ick
analy ze
sub tract
bug s
soc i
po wr
execu ting
interpret ing
time zone
powr mart
we ap
stan za
o ct
un ordered
bio java
i q
uni ted
er o
op ts
delay ed
t z
se am
ti d
i b
j node
formatt ing
wa ke
09 6
trade mark
dav id
c id
ma king
ne ar
sort er
vehic le
b ly
relationship s
follow s
class name
g mb
h az
un available
inter mine
bu la
loc ate
encounter ed
expect ing
soci alize
marshall ing
prefix es
track s
digit al
infringe ment
odd job
let s
den ied
10 8
un if
0x 4
li a
micro systems
e li
of fic
new line
ter s
game s
trigger ed
16 0
time line
train ing
am bi
sq rt
h pl
tor rent
version ed
xml vm
check out
y aml
ho t
limit ation
fur ther
u im
f k
m ne
sch o
whe el
queue s
14 5
18 0
ab ly
constr ain
me mo
le y
complete ocl
weight s
an ge
en der
foc used
i us
topo logy
be at
1. 2
conven ience
d dl
j ca
an a
su it
cert ain
av atar
he art
re dis
mod al
al ty
order s
det ach
u dp
x query
o j
000 4
tre es
l st
mis match
move ment
10 9
au t
n ano
19 2
hornet q
pu n
active mq
w d
en et
r f
tra verse
re ject
key store
o as
av ro
lex ical
character ist
u c
reg ression
bo ur
bu y
t k
cap s
nak ed
am a
clip board
sh ap
off line
debug ging
contribu tions
scal ing
r al
susp end
biblio the
gest ure
hav ing
back ing
fil led
tm ate
bibliothe k
tmate soft
mo tech
import ant
language s
l stdlib
re fin
in active
ong y
jo int
builder s
calcul ated
13 8
enumer ator
s ap
reserv ation
sp ongy
strut s
predicate s
spongy castle
sub set
jun ction
12 2
y ellow
dele tion
datano de
r w
s g
b ur
g zip
a wait
00 3
un resolved
13 9
proper ly
pap y
war ds
papy rus
arch ite
ba z
in es
fol ding
evi ware
si zed
n y
simp ly
pu i
tr ash
exact ly
ori en
re ached
cach es
j ames
at las
ins n
de cre
mani pul
boun ded
sion s
sha ke
buil ds
fac ility
primi tives
f urn
s low
pap er
alphab et
de ferred
optimi ze
friend ly
tax on
bu sy
feder ate
r h
encry pt
k ml
mk dirs
d k
ale x
f is
t in
re ver
0x 6
orien technologies
ch r
snip pet
mne mon
lat in
w fs
ro d
map reduce
treat ment
i ties
vo te
en h
ir on
af fine
hist o
pro be
is a
oc c
bro ken
rec order
ve st
d v
state ful
index ing
pagin ating
open ing
jj t
sc ape
j gl
i k
re member
i am
gue ss
av el
lit tle
identi fied
middle ware
interceptor s
b w
sp y
i map
converter s
cur ly
s ay
be come
r v
cho ices
5 000
0x 01
lap se
de ath
10 3
or s
eng lish
wh y
f use
ou ght
are st
ea si
mo ving
chunk s
i api
determin es
xx xx
xs l
h r
graph iti
ju li
4 .0
xp dl
st m
pse u
di am
vol de
mime type
volde mort
noi se
altern ate
fo p
e ol
parti tions
blue print
separ ated
scope s
task top
w el
d ont
re j
12 4
jb pm
accept s
con v
t ck
go to
en dian
hu b
az ure
exp orted
regard less
re use
u ally
lw jgl
sen se
sig ma
h ad
un ge
instruction s
re m
unif orm
ro ster
ne arest
mechan ism
0x 3
fing er
aion emu
pe ak
nl p
ras cal
end points
ri gh
oas is
10 6
co efficient
1234 5
f ld
war m
pl ant
di rected
adapter s
red stone
k am
we ka
immediate ly
trans formed
h un
archite cture
w on
filter ing
ne s
li sp
prob ability
domain s
aggreg ator
per f
q s
delete s
require ments
ex c
w m
red hat
sho o
persist ed
san ity
appear ance
n ational
sp li
qu it
pre serve
cor rup
stat uses
d g
accessi bility
deleg ates
fre enet
i rc
trans it
ffff ffff
h m
str ato
enter ed
exp lo
output s
style sheet
every thing
block ed
po i
inter pre
n ight
int s
que ued
show ing
post al
min ator
11 3
sm tp
strato sphere
remo ving
sav ing
lead er
0 99
previous ly
at s
stati stic
sub tree
bu sa
fo od
p al
smo o
consider ed
acce ler
arch imate
os en
lime wire
manager s
dis card
per ms
interpre ted
gi e
pre p
one busa
onebusa way
alloc ated
eu ro
nh inc
top ics
vari ance
ar ith
b lip
incre ase
time d
11 8
sequence model
cl on
succe eded
lab s
ch ase
mi cha
pack aging
u a
i ve
popul ation
12 6
app le
enh ance
over view
pack ed
vari ous
di c
geo tools
h ack
r x
schedul ing
11 9
id m
y o
s our
n an
r ather
gr av
loc alization
000 l
x o
n if
jav ac
ri s
uni x
accompan ied
adap t
at able
ge bra
micha el
web objects
haz el
j oda
initializ es
j free
tempor al
dr l
tele port
ma int
py dev
p aging
val ued
limit s
histo gram
of biz
ali g
dri ve
b ert
si ght
here by
optimi zer
descri bing
h eld
el t
g one
look ahead
2 13
8 .
sort ing
ul ary
0 30
di vide
si x
00 5
ins en
sc rol
vocab ulary
log gable
ll on
announce ments
inser tion
par k
ct s
and re
pack ager
led ger
nv ae
son ar
produ ced
dy n
enco g
e h
soa pui
z ie
bi an
stream ing
ish ed
enc ing
asser ted
24 7
den sity
ar ri
multip lier
explicit ly
0x000000 01
tic s
ac on
to ler
pseu do
con currency
re con
key space
li ving
der a
vali di
righ ted
lock ing
copy righted
cor rection
de limited
test ed
pro v
2 02
i fic
we i
raw types
o h
function ality
repe ated
dash board
- 9
st able
sol ver
declar ator
load s
consu med
pre defined
wal ker
validi ty
respon sible
FF FF
smart gwt
doc x
ec l
chan ging
net beans
01 2345
l fr
lu de
diam ond
file system
bo of
lo unge
elev ation
gener ates
fa ster
hand shake
semantic s
rc p
select able
f mt
notice s
scho ol
i ma
cap tch
remo val
calcul ation
z ko
oc te
mnemon ic
enum s
j peg
any one
decor ated
v g
col lapse
month s
operator s
8 08
pur ge
oo zie
car ne
dis cover
relev ant
pre lude
e ch
insen sitive
carne gie
me llon
j bi
transl ated
8 00
in complete
th ought
1. 4
p ain
e con
any way
lu a
col lapsed
accur acy
al d
tt l
ad visor
he st
23 5
do or
micro soft
infin ite
se x
m ct
termin ated
initializ ing
ch osen
14 6
b sd
ent r
deploy er
w ss
re connect
h c
cti vity
di al
7 .
world wind
equ ity
extr acted
di vider
mi gr
zz y
up s
link ing
o re
mul tic
sh i
deleg ation
16 8
executor s
ce il
y arn
real time
e es
exp lan
graph ical
u f
tr unk
maint ain
check point
web lounge
exp ressed
http client
hig hest
new ly
highligh ter
stand alone
do ing
intro du
de lt
00 02
enc er
5 12
ch ap
mv c
fo s
r g
captch a
rej ected
bench mark
hu gin
close st
01 0
exclu des
di vision
s able
onet work
v db
belong s
cri tical
compo ser
b one
person al
ra il
guar an
num er
w il
acce ssed
h b
n ces
inten tion
de posit
k t
down loader
concat en
p act
van illa
p f
micro s
place s
4 f
i ch
res id
read only
instrument ation
fall back
to day
od b
mp tion
sequence s
aa a
ti ff
ju bula
k v
comp at
obtain ing
q pid
retriev es
req if
un marshal
la sh
h d
inf ra
we ather
en chant
offer ing
obe onetwork
5 .0
sys log
usage s
w eld
transpare nt
fe st
open gl
m ate
adap table
ato ms
er ing
date time
si lon
comp ut
are d
w f
to c
on mouse
d ra
look ing
if f
ti ming
occ ure
interce pt
m bean
d raft
author ize
c ili
co ol
j r
ni a
d al
js r
observ ation
play ing
js dt
m we
layout list
re pos
aff ect
prob ably
st en
zoo keeper
associ ations
inf late
licen ce
de mand
cit rus
cr ash
auto mat
cod jo
edit s
participant s
w ol
en ame
evalu ates
back ward
combin e
proce ed
expect ations
min der
jo e
an e
bid i
gen ius
exp ires
transition s
fi red
increment al
spec s
ita lic
fq n
zko ss
assign ments
lin ux
hazel cast
po on
meta models
re minder
call y
pa ul
wi de
199 8
sr v
gu ice
sli de
sas l
i el
qui et
pre ced
ch ance
optimi zation
port able
rout ine
weigh ted
s alt
to t
dynamic ally
p ager
in sight
t lement
sho ws
fi ve
font s
00 6
provision s
dele ting
13 0
usu ally
sh er
anim ator
d able
de vi
essential ocl
force d
g am
is set
le ar
explan ation
fi ler
replic a
t ts
print f
year s
g lu
ep silon
thing s
09 7
dete ction
rating s
characterist ics
as sets
0.0 d
trust ed
ben jam
hig her
possi bly
redu cer
preced ence
sh in
benjam in
depend ing
j as
co er
ed genius
parse s
arg v
au di
13 7
fe at
man a
15 6
ori al
adap ted
occurre nce
w er
pic ket
wrapp ing
s age
man n
non infringement
mer ic
den o
le ase
type system
enc aps
tur meric
ter y
su res
post s
inter mediate
estim ate
sc l
trade marks
pen alty
web site
destroy ed
yi eld
ty pic
16 4
ske leton
po o
b read
wh om
conne ctivity
un named
0 64
ker ber
s ends
ex am
f v
sh uff
should n
0x F
pu s
gui de
grav ity
panel s
si vely
tr acer
delt as
sequ ent
controller s
uri s
open map
version ing
validate d
kerber os
dn d
edu cation
ed ited
ac ro
2 67
min im
cp al
sand box
round ing
v able
toler ance
info glue
gu v
gr p
face ts
stop s
obtain ed
bo s
b right
typic ally
e bi
table t
3 01
mon dri
owner s
split ter
d roid
u cted
object fabric
i ry
weap on
mondri an
har poon
c lin
199 7
sign er
war p
mu ch
par a
are na
instal lable
on al
p enta
rich faces
k il
en ode
r ul
or th
16 6
trigger s
32 7
15 7
con clu
motech project
guv nor
synthe tic
deploy ed
12 1
e ye
po ke
cali for
mo ves
m ute
semi colon
bl ur
micros copy
minec art
alig ned
ship ping
6 00
tit led
nif ty
encaps ul
ret ries
pe ter
rep orted
po a
indent ation
neigh bour
on ms
mo tor
mid i
ch k
g id
robo a
v lan
ast roboa
suit able
k no
r ame
poll s
14 4
attemp ting
stre n
j m
gad gets
o lap
dl g
instanti ated
tes sell
ri ver
-1 .
consume s
cas c
submit ted
ti s
sc ro
char m
p late
al o
pur chase
o i
sc orer
m ble
google code
suggestion s
the ta
meas ures
v n
key ed
wor l
noti fies
shap es
c ite
gener ics
k k
ne go
wei bo
13 4
co upon
dis pos
taxon omy
casc ading
open microscopy
f lick
ta iled
a ster
d ht
address ing
de ck
wish ing
0x7f 0
generated classes
au g
adjust ment
work ed
stren gth
s x
tuple s
ca ster
j ps
soc k
04 0
re me
fu zzy
om ero
town y
em y
gri dy
ie ve
samp ler
open faces
is olation
custom ers
or a
z ones
12 9
fx g
dur able
mon ster
algorith ms
en s
h ed
x stream
lr u
penta ho
ro ve
st ale
protege x
ci de
equip ment
jac orb
struct ures
co eff
bo l
shoo la
ob lig
di e
shrink wrap
applause dsl
associ ate
r er
auto m
re siz
lat ing
boof cv
could n
navig ate
inter p
base dir
om it
qu a
ro se
de tailed
grid x
re wind
go es
la x
d ar
refin ed
ip ed
in ted
- 3
2 15
dun dee
ear ly
c w
ambi gu
en se
cost s
0. 01
co p
easi ly
m n
s word
key code
flo od
smart works
s par
00 7
vi ol
exp onent
highlight ing
dis p
ci al
pw d
layer ed
sto mp
post fix
vector s
ri l
um ented
bb n
developer s
rss owl
g m
sever al
euro pe
re action
fetch er
mode shape
re vo
happen s
califor nia
continu ation
a way
alt ura
p ig
3 65
sign atures
so lid
k altura
dan iel
plan ning
us b
recogn izer
clone able
constr ucted
fo x
inv it
simil arity
smoo th
ra ce
r ap
sub sequent
re vert
duplic ates
tri es
heart beat
arith me
un read
fetch ed
al go
flick r
jp g
ok u
highligh ted
b is
script able
link er
88 59
offic ial
sk i
ss f
cat al
recogn ized
float ing
win e
listen ing
commer ce
sign ific
decry pt
occurre nces
trun cate
ign oring
ci se
pro of
no min
2 17
33 33
in visible
navig ating
locale s
te m
refer encing
st aff
automat on
el lipse
ab lish
rep air
jar s
gr and
arg o
dis miss
simp li
x m
istr y
m dr
y lon
sil ent
dis connected
cr l
par m
n ut
io c
retri eval
cluster s
un install
i me
br u
leav es
r dfs
us able
bu d
gener ating
provision ing
search able
ty ping
exclu sion
archi ver
a op
da ily
parenthe sis
ve to
de serialization
02 2
catal ina
cit ation
fa de
recur sively
h q
osm and
il le
subst anti
27 6
bracket s
ver b
cro p
abc def
20 6
spe ech
validat ing
14 3
circ ular
protocol s
ws rp
rest easy
furn ished
purpose s
arithme tic
do g
register s
13 2
ex posed
gd ms
e po
t one
fl atten
typ ical
est ablish
l java
sw f
20 5
he at
lo m
16 5
route s
v l
s lick
14 0
. 5
01 1
x or
0x 5
synchron ize
sub license
bio me
pa used
tu d
box es
band width
m or
14 1
u th
substanti al
quot ation
ho le
pic to
con fid
re build
model ing
20 4
t ut
nam enode
chem istry
did n
multic ast
octe t
ne x
reader s
xml db
spli ts
ar bit
cc n
ener gy
cr umb
a res
so lo
ar b
bat tery
un safe
re ward
samp ling
noti fied
shar ing
con tour
li m
picto gram
em ul
ri ak
ue l
deal ings
z i
opensc ada
class ic
h oc
n ic
gen ome
spe ak
photo s
lar ger
check in
m tom
ab bre
oc cup
p sy
estim ated
satis fied
wel come
invi te
fa i
state less
box ed
en ger
15 4
dr u
mart in
recipient s
13 5
va ult
conflic ts
pass ing
2 16
min imal
nego ti
65 5
broad leaf
pet als
class loader
arbit r
ex e
p name
pas ses
subscription s
static ally
red raw
p db
k ick
exp iry
mi le
0000 0
interpol ator
accept able
pe ers
replic ator
cl r
shuff le
ap r
bian ca
place d
15 5
wizard s
desc ending
capit al
cle us
1. 3
f st
0. 9
econ omy
mon ito
t ls
sp lash
break points
que s
po tion
in fer
pre mi
k y
un bind
epo ch
0. 00
gau ssian
ach ieve
000 8
j ta
assemb ler
st aging
proj ec
c ash
par ce
cast or
ag ie
cl p
de activate
ed s
low agie
n f
el lip
qualifier s
pre set
employ ees
8 f
norm ally
2 12
tal k
termin ation
t fc
mail ing
install ment
d w
recei pt
stri ke
determin ed
fo ot
str and
w an
join ed
poly line
ill ar
m ware
radi ans
poll ing
ad t
2 d
branch es
be e
u int
rul er
g w
cau cho
mm m
- 4
b k
ad jac
search es
bit mask
i ri
all binary
col labor
cons ult
02 4
sher lock
orbis gis
follow ed
e pr
m ult
aliz able
13 3
le ct
count ing
ag ency
allow ing
look s
ii i
sho ts
am ing
de g
acro ss
ph ony
hierarch ical
q ty
h hs
install ation
012345 6789
01 2
v v
continu ous
13 6
h ssf
ag o
nick name
fai lover
mem cached
install er
oper ating
ts api
17 2
ent wine
infra structure
ft s
implement ing
un wrap
pe s
c tive
specify ing
se ph
p stmt
s parse
jo ins
un ded
spar ql
administr ation
ab sent
j op
cred its
mock s
ati t
u ation
j ed
er rai
11 11
s lip
synchron ous
annot ate
n fa
ven ue
corrup t
bi onet
s af
bionet works
02 02
small er
sage bionetworks
ma le
0x 00000002
e ti
de coding
enti tlement
2 24
susp ended
se em
blo atit
0x 04
po ller
spout craft
0x 9
j re
j os
constrain ed
22 7
prefix ed
inter act
azure us
exce l
0 65
remain der
f ha
tel la
gate in
st ian
ui se
23 4
li k
bar rier
tele phony
indi g
ms v
volu tion
q os
poo led
19 6
extr action
ar p
e+ 00
r sp
user id
ator s
identi cal
ho o
w b
gnu tella
keep s
cause s
close able
her o
str a
four th
cu ssion
bi as
t g
ti ka
pre fer
e ager
r nd
validator s
p dc
17 6
assist ant
cr uise
bucket s
plan ner
f ather
scroll ing
18 3
sc i
15 3
paint ing
dr uid
think lab
po d
broadleaf commerce
up np
author ing
clon ed
fin alize
la be
th ick
article s
m sc
men tion
sy l
h z
2 l
identify ing
0x 02
se ma
- 10
2 25
tr ad
con glo
0x 03
s ket
v w
fe es
parce lable
ec ti
hen shin
z x
identi fiable
p gp
67 5
r ational
search ing
mo p
signific ant
cle ared
classifier s
m se
appen ded
drop ped
comp art
scroll bar
graph db
v aad
stop ping
rank ing
ct xt
track ed
grade book
vaad in
h op
2 23
back ticks
invit ation
open aion
b box
m vel
bl end
ab dera
ret ch
9999 9999
sh indig
pro filer
0x A
ch i
6 f
ne e
wi k
doc umented
re named
tessell ator
x f
ati vely
ds a
mod ul
inter active
st retch
gam ma
ren dition
last pos
ya w
chap ter
network s
h pc
a ke
gi es
trans mit
glass fish
correspon ds
illar ion
r arity
synchron izer
ado o
5 1.
h dr
det ached
my sema
am t
pk t
en closed
picket link
in compatible
optimi zed
my faces
no m
visu alization
ver i
st al
iterable s
16 7
certific ates
rol lover
respon der
author ities
tr af
assu med
j forum
am er
17 5
hook s
transfer able
th ough
00000000 0000
le e
j y
v in
defin ing
c il
evalu ated
lat ency
wrap s
ya hoo
pl ural
n fc
memo ized
ge ster
cache able
o sc
st ef
dis cussion
ag ger
16 3
qc adoo
transform s
cla uses
2 30
un limited
h is
bright ness
assume s
16 1
mon o
x q
direct or
co f
rec ycle
bo k
tri al
la in
deliver ed
fin ding
labe led
connect ing
p ax
cluster ing
compu ting
w ag
hash ed
9 .
cro sst
h w
traf fic
ato ols
deleg ating
cx f
co le
16 2
f ort
build path
sql server
deriv ative
vi k
uni verse
crosst ab
open xml
re curre
lib s
spread sheet
resol ving
17 7
revision s
loader s
ex pose
amq p
14 8
open cmis
flo ss
tr x
vid ing
tr acing
mk dir
3 d
io s
expect s
ass ay
integer s
on a
chri stian
recei ving
new er
fore cast
non ce
group ed
vi st
no v
mo der
loc als
ag i
ko h
th u
re lay
max im
ni ce
consumer s
sket ch
al locator
ep iso
worl ds
undo able
ber lin
c raf
g li
imp o
cert s
g db
v nd
std out
ad verti
inten sity
14 9
text area
arbitr ary
experiment er
invo king
follow er
ab e
o ss
openxml formats
length s
exce eded
conclu sions
interval s
er gen
mar c
- 5
privilege s
k lass
lan e
6 18
ti er
c ml
15 9
c ant
recurre nce
ma gn
suf ficient
configur er
identi fication
ri o
recomm ended
ver ified
pun ct
tt tt
25 3
restri ct
intro sp
download s
- 8
e gl
stu dio
dra wn
err y
c q
g av
ad di
sour cing
30 7
colo red
g hi
d space
di gester
thought works
depre cation
mong odb
ce ylon
reach able
hpc c
e bm
un restricted
r dn
cor pus
an cy
bla h
s itu
30 5
har vest
over all
morph ism
co b
title s
access ing
sequ encer
ware house
for bid
17 0
week s
int f
dri ven
h g
mo un
w av
analy tics
ir ing
pa id
dis cri
ar di
ste el
graph s
null s
for k
vp n
psi m
as ing
15 1
0x 20
control led
coefficient s
808 0
2.0 f
he uri
sub query
02 0
o ws
int r
bo m
14 2
x si
tr avel
stor ing
am ong
mi r
a id
pie ces
exper ience
y n
in er
battle field
c umul
up loaded
x link
sub net
acce ssion
easy mock
lom bok
molec ular
invo c
j trace
play back
craw l
th rot
ter rit
alert s
lik ely
17 4
throt tle
display s
inc r
dis count
pre ce
s we
throw ing
propag ate
01 4
lo west
ob eo
un bounded
screen shot
con form
u als
own ing
quad r
autom ation
li zer
dispos able
f ew
0. 7
gmf gen
rec v
fact s
zz le
at la
01 7
i w
tut orial
guaran te
occure d
cv q
ro m
base x
runner s
ho re
gover ned
recur sion
appro x
sli ces
flex i
span s
jj matched
qu al
ce p
describe s
j x
par ms
scal a
finger print
thre aded
atla ssian
nan os
tin y
no p
arm or
n arrow
2 32
x i
qu art
front end
2 10
app liance
transpare ncy
ti um
variant s
se map
g bean
ti m
cap able
h ql
ele ms
initiali se
rascal mpl
is er
48 0
q p
sing ular
favorite s
u conn
n def
37 4
fin est
supp lement
operand s
su ke
predi ction
l paren
comput ation
meet ups
pro viding
add on
k in
wrapper s
con tr
j ul
30 6
selection s
clean er
scro ller
ab orted
band s
13 1
t ren
appro val
clin ic
resid ue
tr on
stub s
ar oo
juli en
m ad
mess enger
document library
16 9
web service
s force
an des
01 64
l ng
are as
appro ved
flu me
reason er
0x C
i se
19 8
th om
ti ps
min a
mp i
nomin al
resp ective
cali br
jed is
secure d
mo ment
koh suke
res ident
ro unded
measure d
resiz able
conven tion
ar ily
ben e
obj ective
partition er
recon cil
in box
c lic
ordin ary
an nex
wor th
00 8
page d
ob s
en sures
tog af
mer ger
snap shots
item stack
lv es
cent ral
en a
ill ing
exist ent
is ition
person nel
s po
der e
sign ing
compo sed
forwar ding
2 14
a es
20 7
v ard
di ms
close s
-1 5
do min
2 11
mis matched
bon us
thom as
ro ck
asse mble
re ferred
milli second
spec tr
ne y
me ch
reg ents
cri t
y l
semap hore
be ar
g ather
open iam
under line
o a
compress or
inclu sion
un specified
15 2
gen re
te ach
ri ck
3 64
weight x
colle cted
man ually
hor n
enti ally
f light
devi ation
back ed
co met
0x 80
implement or
3 02
craw ler
b link
03 9
hpcc systems
work book
st i
in vert
tun g
x er
f name
observer s
gp x
descend ant
respon d
ver s
ab cs
bu bble
z l
uni fied
c ra
deleg ated
overri ding
g data
collection space
command line
oblig ated
se xt
ed am
govern ance
quart z
bet acon
w l
down loaded
popul ated
stand ing
sum mar
a j
an u
open stack
v f
and o
c ron
dal vik
s warm
block quote
enumer ated
betacon cept
0. 2
01 3
fun ctx
if s
x k
equ ation
sh el
adv ent
dis covered
24 0
n z
un load
abbre vi
syn ch
un marshall
00000000 00000000
k as
neighbor s
pk cs
00 l
tw ice
provision al
open ide
token ize
ear th
000 3
ar s
m ind
us r
log back
don ald
answ ers
o is
pr inted
st ap
out age
car rot
ex hi
cycle s
expand able
15 8
assig nee
p nl
circ uit
adjac ent
s now
web flow
width s
compose able
jp ql
de que
g un
light ing
strate gies
f arm
ab y
an imal
plan s
compart ment
en emy
ad j
execute s
ger rit
supp ly
tr ay
ro v
ci ate
link plain
re ve
letter s
3 000
x ac
search ed
si an
cam bridge
manipul ator
forbid den
qu ar
addi tive
2 18
focus able
vr ap
eef nr
lear ning
just ification
c in
advent ure
3 60
in ce
ban ner
class file
0x f
c ler
print ing
text ual
end a
tun nel
0x b
inte gri
l g
ad ri
integri ty
bol ton
decor ate
physi cs
strate lia
4 32
graph y
g res
op m
rever sed
q q
u u
cont rib
engine ering
ph en
mock ed
o os
sc ada
trim med
in ver
inser ts
j server
ca el
pre condition
b age
un authorized
prote ct
mile stone
accessor s
ff t
x mi
o le
scan ning
j bo
g ss
sig g
recur se
pool s
s ld
mach ines
veri fies
ssi ble
sco tt
s mp
mp se
k ins
initi ator
67 8
tung sten
skip ping
2. 2
t sk
post gres
1 e-
tech n
macro s
doc type
cer y
gli mpse
radi x
con cer
n w
men us
orph an
un subscribe
car te
cael um
27 5
e i
chro mo
17 9
q names
dis position
ch ee
retry ing
b h
cof fee
har vard
fail ing
tri e
so lete
jj s
accept ance
ist ic
y an
st s
f out
and engine
experiment al
pat t
decre ment
group id
a h
dec ide
ob solete
kind s
d as
p ty
hun ger
intent s
ba si
ss o
scr atch
x r
gar bage
cre ative
context ual
pref use
dis c
smi les
do ll
peer fact
dt m
or ange
- 7
jbo sst
db ms
j do
ffff ff
p lid
25 4
re entr
ing u
- 999
con sent
ase d
ye h
ad s
ag enda
techn ical
ship ment
is k
df u
stick y
por tion
20 9
poke mon
jbosst s
temp er
in ferred
lar gest
n pe
cl ing
17 8
al ti
cali co
34 5
discri minator
suite s
gr ass
p he
j v
23 7
dru gis
18 9
rame ses
sq lite
reason s
data model
text s
expect ation
d df
track ers
intern ally
retriev ing
h al
when ever
g us
g od
xp p
pu p
4 000
lin ed
relev ance
v cloud
are n
iso to
es ar
0x 30
ar range
canon ic
dep s
comm its
go o
j git
lex icon
launch ing
script ing
enhance d
aroo a
monito red
par ity
stef an
descend ants
xac ml
es c
sk u
bound aries
anim ate
jb illing
br and
bar code
se cs
b urn
princip als
reentr ant
ge phi
ch er
request er
gle s
0x00000000 0000
loc ally
shard s
border s
fin er
c ql
17 3
sign als
chromo some
k rb
sy non
cons or
q e
consor tium
p ac
pick axe
auth z
drag ged
individ uals
publish ing
ad l
q b
rr d
open rdf
ca esar
en roll
am s
rai se
22 2
rand omi
ction al
wh ate
d bo
n ation
u df
rai sed
recor ded
of tware
speci es
heuri stic
12345 6789
adjust ed
ge l
message boards
iz ations
m w
whate ver
oh mage
stri de
en rich
cc c
at ys
ls n
resolver s
ri sk
geom atys
retri ever
tag lib
dd dd
s one
identi fies
o val
ab br
is vn
insp ect
f ran
wal let
dh cp
id io
aaaa aaaa
- 0.0
j rib
datatype s
. 9
m z
ac i
af p
path name
19 7
bi i
ur ing
aspect s
faster xml
d or
coll ator
want s
pre par
subst ance
host ed
19 5
1 d
bug zilla
loop s
30 4
big int
en force
fam ili
thick ness
arg b
ava il
tele com
commer cial
appro ve
adri an
un changed
print s
jrib ble
clear s
ig v
b ld
un g
0x c
f ps
generator s
display ing
0x D
res in
ip s
perio dic
archi vist
ex if
stap ler
op c
gi ves
ss on
ire ctional
setter s
f und
el m
eu cli
be z
n is
stack s
lv l
26 2
imp lies
02 60
s log
vi br
bread crumb
vi vid
cu to
cos mo
gt fs
p ter
w ps
fre em
pre fetch
square d
sto ol
1000 l
ur er
temper ature
compare d
scri be
mani pu
vivid solutions
core xt
side s
viol ations
un qualified
customi ze
updat able
26 1
si a
k dc
ap k
nest ing
ar ab
triple s
quad s
assu mption
integr ated
serv ant
develo ped
w cm
ro lap
initi ate
c gi
ed m
nil lable
com bat
pu re
intro spection
ab ling
ri m
spe ar
c lan
cy ber
socket s
dis player
gi on
alo ad
ce ler
sor s
x ri
t n
au ction
0 d
k on
w ns
abcdef ghi
end rov
ng l
flow s
b mp
man u
kil led
t st
ch ess
skill s
exo lab
incor por
sub graph
id l
ht m
20 8
ag gr
scrol led
lu t
copy left
fr uit
web services
compute s
001 f
sm ith
attribu ted
is ol
jy thon
ar cs
vi r
k r
a er
ful fill
nes se
gra ce
k p
ge e
change set
coord ination
end if
de pt
j ab
achieve ment
black board
business entities
c en
note book
tr ap
da wn
ol der
connector s
shortcut s
r ab
eff ort
ap point
mid night
inter po
cu bo
andre w
g sm
symbo lizer
os lc
appear s
assert s
in variant
mo ther
cb c
n fe
al to
const s
coll ation
av o
st eve
embed dable
ue st
q ry
val ve
li th
database s
compar ing
anim ated
getter s
ceil ing
bb b
re pr
substit utor
iterator s
le o
corner s
ab b
son ic
x el
25 8
si yeh
suggest ed
0. 3
ap er
cr ud
fro zen
design ates
activity info
black list
en queue
ambigu ous
v d
ar ms
work ers
comp action
m rs
vis its
intersect s
ate l
23 9
v illa
repe ating
o ms
0x E
seem s
count ries
concaten ation
jd wp
arri val
open s
f ence
18 7
selector s
li e
confir med
der r
2 64
plant uml
re writer
cent re
distribu ting
slo p
28 4
. 1
ne u
first name
bul let
scrol lable
t ama
tan k
19 4
fe b
01 8
147 48
con junction
og c
dest in
pain ted
ar ker
l int
cumul ative
ti e
glo bus
s ash
audi ence
ran s
27 0
d ual
chro me
th in
r paren
svg path
ma inten
00 9
rh ino
accumul ator
20 3
si bility
analy zed
pro log
guarante ed
45 6
aggreg ated
prote in
se ason
model ling
re new
trun cated
actor s
iv r
j ide
sales force
alti tude
grid width
service mix
evi ction
18 8
come s
claim s
freem arker
g ent
de ser
ang ular
200 00
ex er
atten dee
spring modules
save point
geo gebra
exce ss
jax rs
enc uest
den y
wan ted
0123456789 0123456789
ter rain
neg ate
sav es
conglo mer
archi ved
den se
p dom
dim dim
enchant ment
accumul ate
g z
mock ery
0x 10
ch ed
encuest ame
cs sext
invoc ations
h mm
ul ty
y aff
lime group
flexi ble
altern atively
x ava
um d
sm alle
g low
ing le
m h
mainten ance
18 5
fo ob
exhi bit
become s
and y
week ly
0. 8
conver ting
v b
18 4
new dawn
sub sonic
complete ly
ri p
communic ations
smalle st
30 3
24 5
yaff s
isoto pe
j ure
driver s
z an
position ed
0x7f 05
multiplic ative
op p
heat on
12 98
dimension al
i test
23 8
craf ting
cent roid
ho od
g al
0. 4
patient s
style able
j ce
ssi ve
quali fy
r ti
p lastic
popul ator
navig able
6 .0
lock er
37 7
me des
e tag
app ing
int act
b v
sol ve
mute x
sh p
archi medes
attack er
abcdefghi jk
z h
17 1
sm ack
fetch ing
2 65
- 12
port fo
63 9
en un
ter as
d ust
ves oftware
to s
univer sal
e th
chee se
servlet s
exp lain
st derr
ji vesoftware
un initialized
vol ve
ber g
en ess
star ter
ele ct
enun ciate
ic c
f resh
cd ma
validate s
22 6
j f
4 01
exp en
curve to
punct uation
draw er
cast ed
aux ili
serializ ers
red wood
sym metric
v x
ip c
clo jure
if c
x ist
spectr um
chunk ed
it al
w k
territ ory
open qa
0x7f 06
recomm end
rout ines
mut ations
time sheet
char d
rep lies
betaconcept framework
hyper visor
h ill
os af
c argo
w ed
vari ation
fuse source
def ect
cursor s
angle s
adventure works
t node
capture d
u ci
ru f
abs ence
select s
cy clic
interpo late
d pi
re lax
lo ts
w g
text ures
teras ology
episo de
ne th
0x0000 0004
10 .
expand er
f an
dec ls
e ot
blo om
mp eg
sle e
perform ing
grad ing
lif es
02 7
manu fact
met al
xer ces
acceler ator
break s
d j
mort bay
sa w
confid ence
0x7f 07
1 000000
hy dro
i ec
dm c
per c
n th
si e
o op
export s
la va
portfo lio
ent ando
introsp ector
ho li
io p
qr stu
feed s
mat ter
in gest
perio ds
meter s
23 6
addition s
app ed
reconcil er
g host
es dbg
rib bon
b lit
cra zy
bit wise
24 9
re te
pre de
impo ssible
mask s
resp ect
b rix
t ld
dist ri
im s
j on
k bd
go als
kar ma
co uch
dynam ics
consist s
cili a
check list
j meter
ia e
interest ed
ir st
dis crete
x ls
sc af
forum s
f h
sk ype
ruf monitor
calibr ation
u cs
sp in
shi ro
b son
m av
datatype definition
o mo
manipul ation
factor s
10 .0
be h
x z
slo pe
si mon
svn wc
equival ence
leav ing
super type
j ap
ob ao
se per
t type
prede cess
w u
pen rose
drag on
b ic
24 3
30 8
bu rel
tor que
m frame
re generated
deri ve
re se
u de
ne c
por ti
e git
render able
wol f
web remoting
calcul ates
jan rufmonitor
direct webremoting
succe ed
cs id
lo s
0. 0000
re am
am eric
ur y
sub title
h la
wire less
32 4
ta obao
ali sation
ob served
tell s
ke pt
re di
pre pend
10000 0
li qu
sli me
w ig
de fer
dead line
win ner
pico container
h mac
de serialized
tic ker
qrstu vw
cle ver
idio matic
porti co
s ale
24 8
db f
f ren
stra ight
ire d
month ly
il s
am f
69 8
migr ate
reve al
back wards
in sic
gr ave
gree ting
registr ar
jen kins
position al
25 9
foob ar
mule soft
last name
sw rl
j og
2 63
acknow led
hu x
double s
mapper s
ap ro
mo s
m ms
sc ience
with draw
or able
slee py
on ne
re fine
18 1
pick ed
h ab
ob serve
1. 6
famili es
ti ll
hux horn
bre dex
situ ation
ebm web
red und
m g
interce ption
han g
is land
an ian
p q
intern ational
aster isk
th i
ni h
auxili ary
in fix
sr vc
multi valued
ro bert
j ni
ol ga
rol led
bid irectional
invoke s
enable s
boun cy
ebmweb sourcing
subscri bed
se m
irst v
replace s
chro mat
02 139
e y
wa iter
wa arp
p di
s per
02 5
non null
ex hau
li lith
ta int
jas per
vali gn
e+ 01
medi an
chron o
en o
per mutation
stool kit
g xt
so s
jjt n
archivist stoolkit
66 6
join er
zan ata
x ref
0x B
chain ing
met ac
p ong
22 8
eu x
life time
te en
volume s
quiet ly
ti tan
j ak
zer os
tal end
subject s
ll ing
link age
n it
jj tree
micro blogs
-1 .0
d pp
scheme s
show case
- 6
ae ther
ti led
like s
represent ations
es b
23 3
timestamp s
sh or
pro motion
action bar
2 19
or che
al gebra
pr d
ath on
contribu ted
um ing
sf tp
tag ger
sort able
ko v
continu ent
ti fy
n ar
support ing
cry pt
conglomer ate
bb bb
re o
pr c
ac re
acqu isition
cili b
ex ited
hy phen
p ec
s rs
qrstuvw xyz
bud dy
appoint ment
saf ely
sal ary
0 32
destin ations
vo tes
exhau st
be have
proto types
sub s
estim ator
s df
38 4
mut ator
un id
fu sc
image j
add is
at an
pod cast
is ation
27 7
celer ator
c dr
le gion
deno minator
c act
neth err
be on
mary tts
restore d
netherr ack
app celerator
introdu ce
n ac
j q
orche str
recei ves
g k
lower case
twe ak
post ed
rab bit
comp ares
jop design
y u
pass ive
hist or
customi zer
22 9
a qua
base s
sleepy cat
ap t
sur ro
02 6
a led
soc ks
h ence
un caught
vi et
n ist
cuto ff
ext js
fil ing
60 6
of ten
fourth line
instanti ates
ig en
icpp ast
re usable
type face
state model
round s
ac ron
dm r
t db
e fs
inver ted
urn ame
redu ction
db l
car rier
e- 001f
or beon
bez ier
comp en
dat anu
sp acer
0000 000
datanu cleus
hel l
cubo id
ge ms
28 6
integr al
ban ned
be half
fin ite
r set
re act
kno ws
or tion
in vest
direc tives
ap ol
ul li
z es
86 01
ce a
gt na
ou se
03 4
no op
bl k
xt reme
initi ally
w iring
lu kas
measure ments
w cs
e volution
jo sh
comm uni
pre processor
print able
oper ate
di visor
step han
archi ves
sm m
j ay
32 8
d in
ni co
sar os
ro bin
samp led
l cd
cap tor
27 2
2 14748
w adl
un modified
ger man
evi ct
combin er
la g
he ssian
b eck
instanti ator
tre ated
dy na
p be
j g
re ven
f red
san iti
negoti ation
acre ator
01 00
separator s
so la
3 11
x c
app l
gu dy
4 096
str s
c ue
att ri
tr ac
30 9
resol ves
k oku
normali zer
correspon d
license es
ear lier
vi m
power ed
up stream
mer ging
calendar s
ser de
sp am
comp os
ta king
ni k
gold en
anti alias
q n
ri chard
nc l
s ac
register ing
long s
28 7
cact us
writer s
v ille
ne ur
se lves
distri ct
an imo
append able
rt l
gau ge
s it
sq le
type def
forwar ded
trace s
r j
drag ging
bay eux
x ds
orth og
e ther
u gh
pla f
metac lass
fix es
car ded
diag onal
chromat tic
speci alized
j ee
lo oper
ar i
h sql
x e
tr u
s urname
parenthe sized
sp line
3 20
repe ti
28 8
24 4
618 50
d na
vrap tor
26 8
invo k
sa ver
ra mp
dist ingu
d ge
x j
micro edition
04 1
monitor s
fr ance
jo han
in pos
25 2
rt mp
fre ely
put s
id b
program s
direction s
o e
is bn
cla mp
lete c
repeat able
partition ing
fit nesse
19 3
tri ed
. 7
transfer s
j ason
partic les
po lar
cr lf
bin s
imp act
termin ator
attemp ted
agi letec
glo be
j pos
open e
. 8
0 66
ee e
cast able
comp lement
to dor
pr une
g ence
opene health
web dav
ag ue
ip f
lu cent
geo graphic
out pos
in set
ss a
todor oo
premi um
. 4
02 8
cti vely
license e
k session
receiver s
transform ers
white list
un marshalling
wn d
un deploy
th or
chri s
dif fs
0. 6
io i
app server
rg ba
triangle s
off s
email s
up loader
sw i
re sized
conversion s
st ay
27 8
rese au
multi line
sup posed
release s
- 2.
reduce d
a ment
recent ly
1 e
enter ing
gn l
object web
bat is
mt d
07 7
19 70
br on
ro b
pass wd
vy sper
person ne
19 0
fulfill ment
t ue
span nable
ep s
a abb
shif ted
li ers
acron ym
theme s
ular ity
de mon
k m
activi ti
zz a
strict ly
ic mp
ob fusc
0x 08
customi zation
t body
con sequence
dos age
3 32
ji bx
exten sible
mar athon
vir go
iss ued
blob s
bru sh
suffix es
3 l
ed t
am en
renderer s
ring s
i pojo
re sets
ad hoc
be y
j mock
play ed
proj ected
c df
y ml
un typed
magn itude
mut ate
j lan
norm als
em ergen
18 6
3 66
modify ing
ele ctr
ed na
nor ms
ne ti
ha ir
ox f
sur f
shor test
stand ardi
way point
d ry
r ue
la f
ing redi
apol lo
ne phe
ax on
du ck
inde terminate
substit u
cour rier
orthog onal
c uri
neighbour s
open nlp
ch uk
wall paper
pri cing
ue i
stati sti
fren ch
onne es
polygon s
and er
goo dies
coord onnees
n im
interest ing
35 7
exten der
list enable
sp r
statisti ques
host ing
24 6
dis carded
encry ptor
reven u
comp li
oc to
point cut
03 7
j cas
i h
scenario s
di a
ci ti
key map
sq oop
simul ate
tw ist
invest ig
enroll ment
termin als
an tic
sp m
3 13
pixel mon
visu alizer
15 16
over loaded
attri bs
repl acing
th y
re actor
0x ffff
organ izations
up time
forwar ds
9 40
s lu
do ctor
recover able
p cs
nephe le
deriv ation
ecti vely
education al
alth ough
albu ms
push ed
vo y
establish ed
g ant
refer ent
su s
ja sig
sho vel
fac ing
ry an
1.0 d
q nx
manage s
di com
overlap ping
it m
transi tive
t gt
b il
initializ ers
head less
p iped
chart s
pre cise
emergen cy
persist able
call ers
d z
st h
over la
3 10
redu ces
so on
0x 05
integrated modelling
work around
l z
satis fy
invo l
li ent
fore ach
ic u
o li
serializ ing
rule set
nh in
inject able
capit alize
re bind
exer cise
de m
less void
delimiter s
e opposite
debug gee
z ing
cor p
flush ed
s om
java fx
de signed
le ak
me te
face lets
citi zen
extern alizable
ws a
trans coder
redirect s
18 2
q f
02 3
exist ence
creation al
guar ded
g loss
identi ties
conver tor
ch ic
overlay s
difference s
v ac
hid ing
pol ly
i he
s op
rad ial
s se
liqu id
ty pen
27 4
04 4
d rain
analy ser
li tis
con volve
03 6
execution s
n xt
fun ctor
eli min
satis fies
sy mp
nbt tag
co in
sn if
cm ds
an um
ui binder
ro py
ro p
e- 01
ad am
coer ce
float s
3. 2
tag ging
cluster ed
switch er
revo ke
decry pted
shif ts
03 5
re used
notify ing
weap ons
cond uct
ae litis
w ap
ip di
am i
100 .0
mat the
on click
ted itor
138 77
d ave
vo xel
su do
dock ing
re serve
v jet
au i
collabor ation
sor cery
v ary
se ven
v on
un recognized
an si
js x
ok ay
do ts
dr ug
3 17
ba hn
ge on
conflic ting
of s
w illi
bal lo
imp rove
tp l
app a
s mar
compen sation
32 9
gener ally
y am
ancestor s
replic as
p im
noti f
ne ther
up to
on ed
flu ent
di ce
j eff
kar af
12 13877
depart ure
explo sion
lex eme
e id
v la
ch ip
com mission
fs m
managed builder
to l
2 99
b sp
un compressed
mix er
is atools
i sed
27 9
an on
hash code
k h
over written
team s
xxxx xxxx
sh allow
distance s
abstr action
app y
enc il
e z
nt lm
fore st
v q
3 34
-1 l
fer a
gar ulli
info sys
ob sid
compli ant
m um
obsid ian
05 4
multi set
over load
s light
ark infosys
25 f
0x d
trad er
pot entially
st ability
pre load
b lin
nico las
sp l
33 7
dat am
post ings
vari ate
k ids
df n
cur ator
neti fera
exce ed
22 1
v ti
t fs
b z
syl lable
37 5
cler e
upper case
affili ation
emul ator
decorator s
was n
hydro gen
2. 5
02 1
data sets
clip ping
c rt
full screen
j ingle
domin ant
dis cre
jj new
cre f
var args
bon ds
be am
ass uming
36 8
0x 200
chuk wa
expr s
c ce
y ama
normali zation
0x7f0 200
par is
sub steps
pr j
ac ct
dif fic
bey ond
man uel
clere zza
child s
decre ase
hed wig
un parsed
ct l
administr ative
schedule s
poly morph
parame tri
k ry
dur ability
qu or
bear ing
ri ot
ac s
happen ed
59 7
co res
do zer
x di
m ur
organ ism
select ing
imp ro
t ter
sibl ings
embed der
conf lu
am b
guess ing
clean ed
arab ic
bo w
l un
rt n
r q
holi day
hy brid
bu st
b j
cont ribute
re delivery
beh ind
. 2
pe ts
manufact urer
web kit
mat he
0x e
render s
000000 l
quor um
transl ations
k appa
se ller
at os
fire fox
drop down
safe ty
encoding s
rid ge
prece ding
cl z
ma a
o si
blit z
y k
type of
ba is
gree k
28 9
b arch
watch ed
caesar j
account ing
transform ations
americ a
b erry
fro g
sp on
clou data
app engine
gd x
initi ated
barch art
port ray
04 7
b cc
omo z
spell ing
x n
ac ute
h all
ra id
dead lock
speak er
ele cted
55 5
2 66
simpli fy
01 9
ent ropy
by pass
birth day
i y
ever note
coun ted
sign s
ph ones
stre ss
ac ls
p cm
q m
speci alization
mi ke
29 8
m gmt
back off
iped ia
sum mon
3 14
glu ster
trans acted
lon gest
graph stream
launch ed
k nu
to ad
ordin ate
quar ter
fa ir
3 12
un ame
ssi st
b cel
se ment
acknowledge ment
wik ipedia
34 374
r n
a il
word processing
99 8
tr n
h sb
26 9
game objects
auto bahn
ask s
ho e
slu g
1298 34374
p ct
29 7
ballo on
k under
0x0000 0008
25 1
x d
specific ations
java ssist
svn url
web activ
b are
gran ularity
10 l
j na
e ip
la ke
in consistent
request ing
recur ring
jj state
prov ince
colle ctively
t ro
recomm ender
hash es
bio s
v z
obj ec
wor m
gre at
escap ing
through put
loc ality
exit ing
cast ing
dat at
it iner
i co
t urned
i text
gain ed
cre ds
intr insic
sn d
p ki
al a
point ing
gen model
z u
u gi
size of
07 2
pay s
e type
chri stop
nut ch
li ty
