e r
i n
o n
o r
e t
a t
e n
e s
t h
i c
a l
s t
l e
i on
a n
r e
s e
a r
c t
r o
i t
in g
m p
en t
g et
t r
e d
i s
u r
c e
d e
th e
a m
u t
u b
l ic
a s
c o
r i
u l
or t
i f
at e
ub lic
n e
i mp
c h
p ublic
i l
a g
i d
e x
S tr
p t
Str ing
ur n
i st
et urn
a d
imp ort
u n
a p
as s
in t
r eturn
ne w
at ion
e l
c l
I n
p e
t o
es s
E x
am e
u e
c k
o f
pt ion
a b
m ent
C on
e ct
or g
es t
l o
C o
ag e
a v
c on
s et
er t
th is
ul l
f or
ex t
an d
a y
q u
o t
e m
f in
ce ption
\ \
f i
0 0
o de
n ull
Ex ception
S t
y pe
d er
s er
p ar
p ro
j ect
v o
u p
R e
ct ion
i m
av a
v er
fin al
en d
ab le
vo id
o o
r es
P ro
L ist
en se
b ut
al ue
a ck
p ri
t er
h t
o c
N ame
L ic
ro w
ul t
Lic ense
v ate
o d
j ava
u m
pri vate
b ject
a ct
T h
T ype
st at
\ '
F i
cl ass
v e
ad d
i z
co m
o ur
t ext
i th
i o
i p
er s
le ment
o l
stat ic
O N
th row
a se
at a
i g
ch e
en er
b e
I d
I N
a in
l i
o s
n ot
t e
par am
p r
ap p
A N
E R
o ut
a re
or e
E n
st r
an g
or y
it y
R es
O bject
f a
S e
I T
u s
al s
our ce
C h
st an
e y
f er
O R
D e
o w
a che
ic e
A R
ass ert
p er
P ar
le an
S er
S et
A r
b y
co de
n ame
p ert
v alue
C l
oo lean
p l
throw s
v ent
c re
p ut
un d
s ion
at h
ode l
al l
at or
tr i
at ch
Fi le
qu als
T o
p y
con t
E S
E N
r it
fi le
T est
e w
w ith
i al
u se
co mp
el d
Cl ass
b u
im e
v ice
T I
ack age
tri but
V alue
it ion
o m
iz e
cl ip
s h
u le
l in
clip se
b oolean
t est
ut il
et h
ar t
ess age
u re
p ort
N ode
r ay
un t
c ess
L o
M ap
u ser
w or
for m
al se
A S
o u
c ur
D ata
I S
ist ri
istri but
tr ue
ro up
Con t
t p
on g
en ce
Co l
w w
i v
T r
fi g
un der
g in
Co mp
g er
de x
i ew
i es
a c
e clipse
tr y
el se
eth od
B u
O ver
f alse
cre ate
at ed
stan ce
v al
ess ion
d istribut
E lement
Con text
f o
ri de
o p
in d
w h
c ri
g ht
pert y
I D
a ce
qu est
res ult
m l
Th e
re ad
an s
Over ride
l l
mp l
re e
i re
g r
U R
i r
w are
l et
d oc
A t
ri ght
S E
t ype
int er
U n
en g
Ar ray
F or
d o
A s
u ment
of t
m a
il d
it or
lo g
p ackage
o b
w rit
t il
ap ache
S y
l ist
U T
K ey
eng th
re am
l y
U til
ro m
A d
A n
L E
act ory
oft ware
I O
ht tp
M an
Ser vice
A L
E vent
T ext
th at
er y
st em
r or
le ction
B y
u th
A T
co l
G roup
s up
m o
ag er
il l
a st
pro t
m s
0 1
co py
b er
o und
n al
t y
fa ult
a w
Fi eld
e c
i ve
E quals
ect ed
ar y
if i
lin k
tribut e
M essage
c ase
I t
pe c
g e
k ey
p os
A p
wor k
r ent
ig n
f f
prot ected
Th is
d ata
distribut ed
p o
G ener
F actory
Lo g
es cri
ad er
N ot
P ath
c an
o bject
l ength
E D
lo w
M odel
if ic
Q u
ar d
ation s
h as
V iew
Pro perty
app end
O F
S T
Man ager
r y
m odel
en s
St ream
Con fig
It em
St ate
le ct
on e
end s
on ent
u i
p re
In ter
il der
l ang
c atch
L I
Sy stem
v id
f fer
a k
u st
u ct
st art
et a
w e
c ore
p on
Par am
i le
c al
m ethod
m ay
E d
n g
1 0
R E
A ction
l ong
fer ence
ang e
lo ck
and l
L oc
in stance
Co m
ar g
a ction
e quals
g ener
b r
n ode
com m
a uth
As s
ext ends
L in
x t
T ime
cur rent
am es
2 00
f rom
P l
ver sion
s ize
k en
ub le
V ers
y ou
Vers ion
C ON
r ule
s pec
In fo
an t
se e
d ate
m od
it e
0 x
ow n
th er
W AR
i ent
List ener
um n
in dex
. 0
ww w
P ublic
et er
A c
H O
St at
N U
av e
P o
m is
A M
as k
B e
pon se
il ter
e vent
ul d
Se e
con text
D E
m in
p u
or d
ar get
sup er
t s
T Y
S h
Re quest
In dex
andl er
cont ain
Co py
cont ent
D ate
java x
P re
L O
AN Y
I mpl
ab el
s p
an y
s w
re g
EN T
fi eld
Res ource
U ser
e lement
ay out
pr int
R AN
Cont ent
R O
ur ation
A B
ar ch
s ub
In te
C O
um ber
T H
A ll
C H
ce pt
an ce
C E
ig ht
s oftware
by te
O f
auth or
m at
pl ay
D oc
Res ult
as h
s y
mis sion
Inte ger
At tribute
n ing
O ut
writ e
pert ies
i b
f r
e v
S ource
Tr ans
o uld
at ure
fa ce
Gener al
Bu ilder
pr ession
In put
n et
ne ction
S ize
L A
p ath
Copy right
G NU
str act
I L
M ethod
Ad d
D escri
WAR RAN
imp lement
C re
Qu ery
vid er
che ck
m essage
if y
V al
In stance
w ill
st ate
b o
le g
el l
I m
m y
ec ut
k e
a x
re quest
N O
Y ou
N ull
pe ct
Com m
t on
E r
u es
li ed
W IT
or der
it er
str ing
ap h
F ound
R eturn
qu ire
U L
con fig
A b
1 2
H andler
m ap
lo ad
ith er
o ver
x ml
Comp onent
v iew
e ither
a pt
Er ror
val id
d i
A l
C T
gener ated
sh ould
gr am
lic ens
ne xt
do uble
s ource
c es
1 1
Co de
in put
P an
TI ON
HO UT
WIT HOUT
in it
Bu ffer
mo ve
d is
b ack
In t
o ther
P ackage
re ak
ES S
n o
licens es
er ror
2 01
imp lied
Ac cess
co unt
it em
s o
Con stan
a ch
00 00
r st
h e
inter nal
m ar
Col lection
de fault
H ash
En try
P O
en der
De fault
En t
u age
ne l
cl ient
U p
H e
G et
P E
quire d
im it
O r
op en
O per
u gin
To ken
lin e
app lic
oo l
r c
tr ans
T able
ire ct
o g
Stat us
M L
str uct
Im age
S oftware
h o
is h
S ub
IT Y
v is
T O
b reak
M od
I f
W rit
M o
a f
ial iz
p es
qu ery
u d
e ature
ch ar
Re g
k er
Ent ity
lo at
con d
IN D
fi x
Ar g
Co unt
L ayout
A ct
bu g
par ent
Util s
r ess
L abel
N S
be gin
T e
ifi ed
unt ime
pr ess
R o
G r
un ction
ic h
Ex pression
e p
O n
W ith
ser ver
B ase
ser vice
v ert
Col or
A G
ex ception
pt or
re move
instance of
t ing
v ed
wor d
b ase
Pro vider
E X
per mission
se d
pro perty
p ace
g roup
W or
Pro ject
re f
Ap ache
u al
en sion
ifi er
at es
ro id
ag es
P age
LI C
B ut
o ption
P er
a mp
F ilter
R I
F OR
ri d
C all
m ore
- 1
P AR
Ass ert
n s
fr ame
ar i
imp le
not ation
But ton
Res ponse
n c
re quired
ol d
un it
Out put
Be an
IN G
Constan ts
l imit
t arget
Config uration
H t
spec ific
Ed itor
m atch
eta il
s rc
ed itor
D O
Found ation
Ab stract
A P
Col umn
ol der
O p
IT I
Pro perties
Loc al
c ord
ro ll
fin d
w id
Param eter
ap i
u c
Ap p
Doc ument
TI ES
F r
l n
T ask
Con nection
g le
ma x
D is
AM E
a il
M P
mp ty
l ess
Tr ue
y le
l ast
use d
Ch ild
n er
h ave
ch em
Re ference
C li
For mat
g en
Re f
a int
lang uage
UR L
leg al
I ter
N ON
r et
0 2
o se
apt er
ate g
WARRAN TIES
er e
s i
ter ms
t ime
F I
Cli ent
Comm and
S ession
pos it
U N
po int
1 3
l at
St ack
print ln
W e
P os
AN T
g n
ro l
en u
ific ation
at tribute
f t
comm on
c all
Inter nal
Ch e
Par ser
F A
Lin e
B lock
ter n
pro ject
D o
en c
T ree
t ain
ic s
ent ry
A D
Pan el
B o
mpl ate
and roid
S up
v let
wh ich
Che ck
ial og
IL ITY
ay er
ITI ON
An d
C ell
lo c
Log ger
L S
Po int
it s
N ames
r un
and le
LIC EN
par t
ob tain
or s
res ent
R ule
Return s
und le
B AS
Cont ain
s on
ent ity
LICEN SE
pect ed
Par t
on t
U S
up date
Ch ar
Descri ptor
posit ory
ers ist
Lin k
N umber
se lect
C ase
ch ild
in fo
d b
A C
CON D
l es
ind ing
able d
O ption
it le
form ation
C ur
ib le
Pro cess
P RO
fi rst
permission s
form at
S I
L ong
d escri
fin ition
ex ecut
t es
F rom
Ser ver
let e
col umn
U I
X ML
Th read
g oo
w ar
ment s
res ource
t able
par se
B oolean
n ames
pro gram
1 6
f loat
implement s
val ues
l if
R em
Ht tp
T y
ic k
contain s
K IND
li ance
frame work
J ava
ex cept
g over
TY PE
q l
d at
S imple
St art
lo cal
T ag
m an
pro cess
N AME
r aw
re d
Se lect
c le
writ ing
N o
AB ILITY
M A
UR I
l d
br ary
er ay
of f
H el
Arg ument
tribut es
ex press
2 .0
ot e
comp liance
limit ations
applic able
le d
etail s
s ession
with out
X ml
i a
it ch
ol low
TI C
gover ning
N LS
F ree
En d
ava il
comp onent
ar ray
L ess
COND ITION
iv ity
re ed
wh ile
In c
s b
to p
C ache
et ers
C L
res ponse
l aw
License d
l ish
CONDITION S
Un less
BAS IS
avail able
goo gle
app ing
o per
P ort
iz ed
ag reed
p h
oo k
cl ose
Less er
n umber
arg s
By te
T arget
Re ader
V is
W id
c a
S Q
d es
Writ er
Val id
Oper ation
ht ml
f ilter
to ol
Wor k
for e
il es
H T
lif eray
an nel
reg ist
v el
2 5
s s
1 5
Ad apter
9 9
C al
Se lection
pl ace
copy right
j unit
ub lish
m b
Loc ation
irect ory
s um
ind ow
f ul
K E
ro ot
m e
bu f
Contain er
Reg ist
we b
iv ed
Iter ator
cur ity
sup port
S u
2 0
j j
D el
cri pt
ms g
R un
at tern
ion s
om e
P ri
bu ffer
St ore
Add ress
doc ument
wh en
M ER
1 4
re ce
Ch ange
A uth
out put
I mp
p s
f l
t ag
Ty pes
p resent
port al
chem a
SQ L
M E
Cre ate
l r
ign ment
Gr aph
bu ild
ob j
De finition
T ER
I l
inter face
gr aph
TH E
iv en
Il legal
ic al
M em
L ev
c or
r on
d om
our ces
M ENT
O L
Ex t
B it
ex pected
se arch
Lev el
ex ist
i de
r an
l t
ic t
s ing
p end
ic es
er ved
ne ct
Op en
ir t
ab ase
lic ense
o k
V ari
R ow
r en
ting s
ur l
im age
comm and
bu ilder
R ed
g iven
ant lr
Ro ot
R untime
to ken
l en
1 8
q ue
pr ing
0 .
x y
AT E
de bug
qu ence
00 0
p ublish
os s
b lock
UL T
ust om
Se arch
ess ages
imp l
j b
d etails
For m
par ser
co d
D ialog
st ream
n um
UL AR
P UR
m et
E mpty
app er
at ive
f ree
PO SE
ut e
N ESS
ect or
F IT
PAR TIC
D at
Pl ugin
F eature
are d
Ex ecut
mod ify
y our
St yle
CH ANT
B undle
AN D
PUR POSE
Ser vlet
FIT NESS
sy n
N ew
PARTIC ULAR
MER CHANT
MERCHANT ABILITY
str aint
stat us
N ext
ile d
gin e
r l
ition s
Hel per
U P
x text
m ust
p age
amp le
M enu
pl ugin
pro to
l abel
t ask
all y
m it
lic ation
U E
C S
co pe
ad ata
Do uble
a z
play er
3 2
has h
v ar
i x
ain s
n on
sw ing
M ode
KE Y
log ger
il ity
roll er
s ol
T ool
sw itch
ersist ence
struct or
En abled
3 0
O ff
in formation
lic k
V AL
J S
P r
V ER
h er
ck et
S pec
f s
In it
li brary
it ies
fa il
con tribut
Un it
ang ed
lo b
Ed it
m ary
d s
on itor
Re cord
0000 0000
M ar
te mp
AB LE
D ir
Ex p
M et
l ayout
Comp ar
F unction
E L
pro perties
j et
2 4
ab les
e o
Re pository
us h
distribut e
En um
Descri ption
on ly
f eature
s end
ateg ory
b in
od y
0 9
Bo x
u de
M atch
ev en
ass word
use ful
NO T
s ql
L ength
WARRAN TY
Te mplate
re ference
I s
init ial
j o
od es
Or der
Pro to
FA ULT
right s
de lete
L e
o ve
off set
ch ron
pro d
Cont rol
an notation
to m
sp ace
State ment
n am
LO W
con nection
AS T
i e
res erved
Act ivity
publish ed
App lication
descri ption
G rid
S p
CON T
in s
end ar
1 7
lat er
f ollow
ma il
Ser ializ
Up date
B UT
f unction
qu al
Val ues
A TION
s u
cle ar
We b
De cl
sy stem
st ore
s in
execut e
re port
h andle
He ader
in cl
param eter
R el
wid th
B inding
en ces
U rl
Trans action
Mo ck
ab stract
os ite
Par ent
fo und
ran ty
war ranty
ch ange
Mod ule
Pos ition
ex p
ass ist
D es
6 4
em f
ho pe
LO G
An notation
a ir
re distribute
m em
in al
D B
Set s
Re ad
s c
spec ified
D I
gr ess
s pring
Lo ader
Pl ayer
regist er
at ing
list ener
ent ifier
rece ived
R ender
distribut ion
P ER
Wid th
ac comp
2 3
ES T
Th row
M ult
lic y
enc y
a it
r untime
sh ow
pos ition
M O
O b
ro und
wid get
ad l
re place
c ache
m ain
st ack
act er
ma ke
S o
Res ol
W indow
Regist ry
AS F
ition al
iter al
ur es
M apping
res ol
or ig
R A
i als
Cur rent
iter ator
content assist
mar k
201 1
1 9
br ains
jet brains
loc ation
By tes
fer ences
J ob
con vert
le m
At tributes
M in
lo y
f actory
M eta
t itle
arg ument
M ax
aw t
ul es
implement ation
M ath
Off set
Ass ignment
S W
t ree
names pace
act or
pro vid
oc i
le x
c r
P attern
v ices
final ly
F l
w as
AG E
0 3
M S
D ER
ch ed
Fr ame
i um
an not
Str uct
follow ing
S U
a mpl
ap e
C ore
F OL
s or
a o
el li
or m
P R
M essages
EX T
i ver
d t
jb oss
ut o
ack et
Q U
as ic
B ound
al low
ker nel
Inter face
T er
JS ON
I C
g ing
0 4
and om
w i
c s
mod ule
ho st
or age
W r
U ID
V ector
Con straint
m eta
Field s
k it
al ong
P L
ne ed
Tr ace
b ound
config uration
C lo
T E
be an
r s
w r
in vo
j ob
e f
int elli
th read
intelli j
le vel
R ange
Set tings
sin ce
f ull
Select ed
N E
bo x
ex pression
P si
if act
W ar
Ch annel
af ter
uc cess
oo p
T im
s m
o cl
ers on
f iles
w ay
pl it
f low
Ext ension
d ir
Per mission
c m
AN CE
DE FAULT
cond itions
ut ion
3 4
D own
syn chron
D irectory
u id
ty pes
contain er
2 2
H o
1 .
s ave
B ar
o v
d est
param s
Se quence
T itle
an k
co ver
read er
pro vider
I con
FOL LOW
Fi rst
A X
ac cess
at form
S chema
Not ification
Param eters
s l
f e
Sup port
th en
G E
tr ack
Option s
Cal endar
writ er
le ft
dis play
ampl es
F ont
c ent
Cont roller
Lo ad
W h
r ender
he ight
se cond
mo ck
b l
De bug
F older
TO DO
S ER
IN ST
0 .0
AL L
spring framework
D om
201 0
r ange
support ed
Dis play
applic ation
Compar ator
Ch anged
V E
k n
g l
Comp osite
re l
S cript
w t
in e
2 .
do es
OR T
val u
mb ol
d own
ER R
Ex pr
con nect
Pan e
re cord
ig h
Pro d
F F
S H
Q ue
mat er
AP I
CO L
Lo ck
F e
Con vert
U SE
add itional
ed it
col or
H andle
Process or
m er
vis ion
ar ation
iz ation
201 2
pre fix
Ar t
M at
Ro le
al y
d raw
res h
L ast
Vari able
te mplate
un ter
oper ation
6 3
He ight
cod ing
r est
vis it
se curity
v ari
sh ort
1 00
U D
ther e
her it
s k
e mpty
re present
ent ic
st yle
at t
m t
be fore
o id
SW T
Bu ild
h andler
Su ite
Con structor
param eters
A g
synchron ized
2 7
O w
r u
N um
F a
Ho st
B ack
select ed
Re port
wh ere
O UT
G L
f oo
O P
ust er
b ind
l v
Throw able
S V
en gine
st op
g round
irt ual
L ang
Met adata
t mp
C or
Rem ote
p ed
De f
C lick
e ar
D AT
col lection
VAL UE
in st
In valid
by tes
Pro xy
Del et
se len
Que ue
b ar
ct x
selen ium
ur i
War ning
h ip
ed ia
result s
C ategory
le ase
Po licy
Se curity
ers hip
C ustom
s ign
Dat abase
re ct
S cope
mp s
P h
but ton
6 7
s ort
T ab
lo t
Pre fix
us ing
add ress
order ed
t d
at tributes
he ader
cre en
B ig
INST ANCE
B O
sw t
w s
pre v
de fin
g wt
ins ert
L iteral
p loy
r m
con f
be en
ach ed
dom ain
B in
provid ed
et ch
p c
io us
U ri
S ign
p an
en ame
Sh ort
im ension
G HT
ext ension
valid ate
v ir
m ult
A tom
I gn
y nam
iz er
ict ion
b it
6 5
ad oc
Pro gress
d f
u ff
re pository
B order
Int ent
av adoc
im um
stan t
ch annel
c ast
2 8
a use
Names pace
co gn
M IT
S S
P RE
d ic
R ight
option s
fa iled
D A
Con tribut
m enu
0 7
Con d
AT T
Array s
a adl
N et
To p
S c
d irectory
Id entifier
J o
In s
h ad
View er
u ction
F alse
im al
sub string
port let
vir on
t im
orig inal
M onitor
ca use
De c
3 3
reg ard
a de
ser ial
eth er
mater ials
method s
c ip
UR E
os ate
R ect
1 .0
Element s
Collection s
ma de
h el
gram mar
Trans form
IS T
dat abase
R ES
ac cept
T ri
comp are
int o
ord in
tr act
u ce
Call back
in herit
ag ment
li b
E clipse
Par se
c at
u g
fl ag
Imp lement
element s
Param s
ynam ic
res ources
ff ect
ang le
I M
ST R
return s
ser vlet
t ed
L i
viron ment
t xt
w ait
d ro
t t
leg ate
In vo
Z E
cont rol
M e
IN CL
ec ore
n t
act ive
B Y
m ote
P ool
n ow
S w
fa ces
P air
t al
ag ree
at ures
lob al
S O
SE T
Tr ack
un k
proto col
cont in
ri x
Ac count
U se
P ersistence
F loat
wor ld
common s
j p
lo ok
ac es
w o
5 9
A re
NO TI
cre ated
T AG
E V
C A
Mem ber
So cket
F in
se lection
oc cur
RI BUT
6 6
sum er
de cl
il er
A uto
ex amples
Imp ort
B E
in ation
H E
J avadoc
Gener ator
Link ed
h av
en ers
d ialog
ateg y
TH ER
N on
man ager
object s
L L
and ard
had oop
B asic
exist s
Pre ference
h i
ce l
Ign ore
regard ing
M B
l a
c ul
d if
k i
bin ary
Warning s
field s
p assword
On ly
Wor ld
0 5
J son
b undle
er r
g o
M y
s chema
own ership
he ad
N am
D S
kn own
event s
c ustom
ow er
annot ations
O ri
Lang uage
j son
A x
un ch
ERR OR
4 8
p ersistence
Resol ver
I MP
d l
m ode
c i
po st
4 5
Dom ain
en um
Sup press
p atch
Ad min
Re cogn
read y
ut able
to tal
e ach
IN T
ab ove
n able
ak e
INCL UD
N odes
cal e
de pend
ri ver
contribut or
at tr
b inding
ax is
ser vices
2 9
MA X
re q
SI ZE
s plit
p ush
Vis ible
Con nect
Fl ag
m on
NOTI CE
Be fore
F iles
G en
Proto col
INCLUD ING
S ort
O ne
B ody
res et
L R
form ed
ix el
ang es
ect ion
V ert
Res ources
s cri
ill is
Decl aration
P A
p op
3 5
b ody
stan ces
Child ren
iv id
Id s
St ep
6 0
ber n
tool s
ce ll
A f
Char acter
R et
CO M
s ame
bern ate
s uccess
s n
agree ments
t x
F ollow
child ren
Item s
v m
St orage
PO S
b ook
i que
Rel ation
ure d
Po st
F S
W OR
DAT A
Serializ able
i an
c ert
0000 00
en ch
ag r
y nc
j ust
P assword
3 7
class es
contin ue
z er
Get s
t en
V I
Ob j
e e
Recogn ition
Wid get
EN D
200 9
Rem ove
not ice
log ging
j face
Local e
8 9
h ere
pro p
al t
est amp
Buffer ed
Wr apper
S ing
or ed
Act ive
c ation
ed u
US A
ru pt
or ity
orm al
P AT
h ref
return ed
s ite
hav i
5 1
incl ud
s cript
n odes
O M
g rid
ind ic
p attern
en e
WAR E
item s
2 6
t ab
ass oci
act ual
Sy mbol
C an
cl ou
Are a
Constan t
m onitor
Delet e
accomp an
Gener ic
S OF
gener ate
ri ft
SOF T
g ment
w indow
th ing
action s
B U
L ayer
p ol
av ig
ist ory
De pend
par ator
S pace
Qu al
end ed
C K
Pro file
Convert er
En gine
entic ation
oc us
y y
c ed
At t
LI MIT
Pr int
Red istribut
wi se
Key s
m apping
bo ard
Bound s
Comm on
key s
w ard
SOFT WARE
b ers
rit er
si de
ANT LR
S C
f ill
G EN
que ue
Reg ion
Writ e
u x
il ename
Render er
av en
d ent
RI GHT
v g
I F
own er
Art ifact
I P
iz ard
se l
s cope
test s
LE MENT
gn u
e pl
b est
c c
sh ip
trans form
M illis
V irtual
az z
de f
200 8
ver ify
ib ility
sub ject
g or
N e
T P
s ome
Cur sor
ic on
cal led
B l
Cre ates
Test s
g ed
g t
con n
W S
5 0
accomp any
Th at
x s
Execut ion
int e
ac ro
ac count
IT E
accompany ing
ire ction
contribut ors
um e
set tings
f older
4 4
b lem
Re vision
prod uct
F low
P ol
met adata
Re ce
Mult i
wh ether
In ject
U M
Mo use
a i
s can
AS S
IN TER
He ad
c ard
app ed
P acket
pl y
8 8
D imension
a im
gor ith
m d
s imple
c ar
Run nable
co der
2. 1
V ar
Li brary
OR Y
Af ter
ab ility
M on
trans action
M s
res co
Po inter
p ack
s ible
D ao
iv es
f resco
ent er
C TION
ri es
er ation
Ax is
Dec imal
D L
j s
d ay
ched ule
F ail
Key word
resol ve
se quence
l ay
tr im
F E
pl atform
L IN
R andom
struct ure
Le ft
accompan ies
set s
M IN
Cond ition
RE CT
TH IS
act ivity
prev ious
g re
defin ed
se ction
Str ategy
1 10
AC K
O K
b ench
pan el
oc ial
st on
200 6
ex ample
pri mary
I B
Mar k
up le
check ed
state ment
p or
H as
7 7
H older
Un supported
0 8
Constraint s
y cle
W N
SI ON
af t
util s
Vari ables
c ap
con structor
agr am
FI X
Bo ston
Mem ory
k ens
Prod uct
Bin ary
in ject
Implement ation
st ep
re mote
n ed
HT ML
log y
P op
In st
Te mp
PRO PER
add ed
comm it
Oper ations
ad apter
C I
2 1
tr a
S k
Ter m
d irect
K ind
Not e
C ard
ro le
o ice
Valid ator
pro xy
app ly
Result s
Net work
5 5
ge o
ag ed
De vice
SV N
E LEMENT
3 1
S top
lo or
op ens
ic le
Execut or
P resent
Contribut ors
Com ment
S ection
0x 00000000
i od
char acter
start s
c ategory
200 0
gorith m
al ready
f ont
mem ber
3 9
M is
age ment
incl ude
invo ke
cod ed
LI ED
B us
Su ch
c p
Vis itor
p ing
H i
call back
th an
M edia
0x 000000
be ans
r andom
J E
th rift
cl azz
TI ME
IMP LIED
F O
E MP
str uction
ip le
descri ptor
D IS
let ion
ef x
GE T
P erson
Pre ferences
D AM
po se
qu ot
sh all
Init ial
Fa iled
CO MP
C ap
des ign
G PL
4 0
ivid ual
p m
D i
T EST
p erson
L ook
Init ializ
ry pt
r ic
mer ge
Ori gin
widget s
c f
P Y
qu ick
ad min
e qual
D b
Ed ge
D ay
FI EL
Fr agment
U s
d ist
Pl ace
Con sumer
pre c
T R
havi or
k kit
ke ep
En vironment
G ame
il y
F IL
STR ING
r ation
user name
mit ive
D est
at ype
S ite
200 5
s ure
3 6
FI LE
3 8
sol ution
Nam ed
B ook
base d
res pon
Re quired
PAT H
fer red
cl aim
T EXT
row ser
4 7
Valid ation
1 000
F IN
H ome
CL ASS
Port let
re et
vari able
db c
OR S
Auth or
point s
M ain
D ES
re mo
U LE
Ap i
ut ure
sh ared
argument s
M apper
fi re
AC TION
b irt
LIMIT ED
as on
b on
D raw
t a
pro ps
as es
l ight
0 6
riter ia
V er
F ac
Arg s
e valu
Des c
W ord
is ion
sol ute
A v
CH E
d en
F ull
AR Y
EV ENT
Ht ml
CO UN
e k
ud io
As ync
Cont act
cur sor
t wo
in ner
G eo
P ay
SE LE
com ment
ploy ment
An aly
Time out
R out
ul ar
rupt ed
ent ries
S creen
Ms g
CO PY
I G
Oper ator
A UT
T ABLE
oo m
cur r
200 7
s f
Sh ow
b b
Ex ist
g ui
Z one
not ify
ol s
g ame
st er
ur al
d r
b ro
b ed
LI ABILITY
Con f
b ot
U UID
af e
FIEL D
en v
u ch
s av
g i
L imit
y s
Ar ch
match es
m essages
re al
col lect
Mat rix
regist ry
uff ff
m ed
4 9
Ch at
p th
ver y
J AX
d ated
let ed
W E
Sc roll
p ass
DO M
c lick
EX PR
allow ed
in cip
d iv
c ached
S ql
p i
St andard
end ing
ri e
E valu
W H
B ag
Co unter
g reg
Sing le
l er
net work
SU B
S ave
dic ate
content s
co unter
Content s
other wise
CO DE
sing le
f etch
associ ated
o pt
ign ore
pre p
Object s
O THER
Mo ve
initial ize
tr ace
D ATE
Re al
j ar
B ro
ex pect
O B
cont act
d d
Cor por
G ER
d k
L if
En coding
co uld
Ow ner
int ent
cl one
PROPER TY
ind ividual
con straint
proto buf
JE CT
es e
so le
track ing
Pl atform
can not
6 9
form s
c v
Corpor ation
S can
or iz
open api
as ure
Cl uster
ick et
sh ot
g u
F ind
de v
V IS
ifi ers
C R
COUN T
an aly
S Y
Match er
Com bo
M AT
p ay
D etails
F loor
art ifact
Stat ic
C C
WOR D
US ER
R est
An y
In formation
Ex ter
Ag ent
en abled
Mar ker
L a
comp iler
id x
An not
comp lete
local e
u mp
rel ation
jo in
Sh ape
ME T
G lobal
Column s
ex pr
5 7
look up
cont roller
id entifier
Exter nal
exist ing
C ance
O T
document ation
contain ment
Id entity
F ocus
k ind
G RO
cept or
R ad
D ig
de finition
S n
Se c
d c
ist ics
best solution
C ert
e b
p aint
er ial
tri es
Pri mary
Event s
ro ke
match ing
Fin der
OR DER
in k
als o
S PE
b et
in valid
ch anged
B r
efx clipse
Ch ain
iction ary
cl uster
Cre ated
A li
8 7
Back ground
ATT RIBUT
HT TP
S um
sel f
lo ader
ag ing
sk ip
JAX B
des c
L IST
Rect angle
dis claim
Struct ure
al og
ach ment
m m
uc ene
SELE CT
AR T
ser ializ
author s
d ao
disclaim er
pro file
dest ination
st orage
F if
Fr ank
time out
pos sible
con s
init ializ
bu kkit
C P
as et
id ent
As set
UN D
f ilename
em ail
Stat s
de c
Lo gin
un c
per form
comp any
Con struct
st mt
d on
oriz ont
reg ion
incip al
Al tern
Ass oci
V O
MO DE
n ormal
C AL
Sw itch
Qu est
al i
est ed
H istory
hi bernate
h a
ver se
b us
Fif th
cm d
Act iv
E ffect
Frank lin
eter min
V ID
0x 7
Graph ics
ne x
LA Y
at er
Sign ature
Method s
l ayer
Redistribut ions
O S
v as
prec ated
D F
graph ics
con current
02 110
13 01
we en
N avig
urn al
in stances
om et
comp lex
Set ting
Inter rupted
T uple
cre ment
chem e
s un
Sup er
de legate
re cover
dro ols
End point
DA O
S ame
EXPR ESS
trans l
W A
tag s
D if
Invo cation
quick fix
P ORT
plugin s
d one
W izard
s is
n b
cor rect
AG ES
ser v
Work bench
Class es
occur red
ast er
Port al
it es
back tracking
At tr
d ynamic
O ther
the y
Ed ition
V M
i ate
D river
orizont al
Jo in
ref resh
ED E
a a
D ist
cl o
In cl
res sed
way s
S ample
Auth entication
so ap
G e
ire d
pro gress
act iv
list eners
en coding
Track er
S ol
L ower
st ub
error s
LIN E
l s
Work space
ok ie
is on
ro y
f ly
Sh ell
D ynamic
6 8
s ender
el y
scri ption
KEY WORD
fl ush
Tim estamp
P ersist
Co ordin
ug h
M I
T ot
t n
n ative
st it
ap shot
ing s
mo use
let on
cent er
contain ing
component s
Inter val
be ing
v n
can cel
COL UM
ic ip
su ite
h older
al eo
C RE
en able
ge oid
for ce
mod ified
fer ent
Select or
ST ATE
p ersist
cal cul
La unch
row s
RO M
COPY RIGHT
S AX
at om
Clo se
uc er
Serializ er
25 5
ON E
it ude
comp ar
Access or
not ification
actor ing
valid ation
Depend ency
Al low
th ers
or ies
ph a
S uccess
a e
r ad
De legate
gener ator
e lem
r a
in ess
UT F
Vert ex
h andl
p k
RE AD
Mod ified
r ics
5 8
a ut
g g
un ique
comp ute
s creen
A adl
D R
add ing
u uid
msg s
d ed
b asic
Se cond
Action s
clou ds
R ol
e et
p si
as y
P aint
Av ail
im ation
id s
R ULE
Tot al
I ON
se parator
cond ition
us es
NON E
ac ity
F ROM
il ities
p acket
EN TI
m f
s cale
Class path
column s
le ep
re lease
p air
cur s
S pring
bo y
co ordin
00 1
ro p
group s
if est
w so
Pop up
load ed
set up
En tries
match er
an ch
PRO VID
d ig
d a
Sy n
ad apt
Fa ult
ch art
Se gment
D irect
id er
u k
Comp letion
j ax
de vice
o thers
E mail
IB M
CH AR
m utable
z on
Util ities
fin ish
1 99
p ool
no st
sp an
Wh en
CH AN
DES C
inst all
rie ve
res tr
lo gin
rest ore
Loc ator
lic it
ref lect
Comm it
RA CT
H igh
ass et
4 2
writ ten
pl an
s ent
mod ules
po licy
ixel s
P y
wr ap
P e
war n
U B
so cket
org e
c dt
Ins ert
C D
al fresco
Ab solute
M ESS
m age
cl os
fe atures
ched ul
j clouds
M er
be cause
Ter min
ro s
er arch
user s
I Z
D uration
at ient
i us
AP P
tool ing
par ts
l iteral
Pri mitive
re po
IS E
e ch
flag s
de lt
List eners
Pro ps
l ing
ag nost
Sy nc
un checked
Un known
the m
am ily
wi ki
h s
200 1
Pol y
Group s
Con cept
D etail
Gener ated
Pro p
S plit
8 0
r aft
act ers
G O
ch anges
os gi
S m
ro ugh
Qual ified
max imum
a uto
with in
t jp
sav ed
Ser vices
Fe ed
Us age
C U
h igh
jj fly
tjp editor
jjfly boy
E qual
Ex port
5 4
as sed
RE F
C ar
hel p
COLUM N
ac le
f sp
it o
PRO C
Format ter
omet ry
mit ted
am o
remo ved
ST ART
AR E
sy mbol
m aven
CONT ENT
W i
PA CE
Fe atures
NU LL
Fi x
se c
Assert ion
X X
ur ing
bet ween
Relation ship
Res erved
GRO UP
200 4
Tim er
Pl ay
Argument s
c ss
St ub
ab out
IT S
g lobal
re qu
UT E
view er
Trans l
w ant
cal endar
ut down
L at
Comp lete
ed ge
Transform er
h ome
F IND
M ail
low er
VER SION
throw n
0x00000000 000000
M utable
um b
BU G
0 l
fe ed
Ch unk
vo l
dro p
ent ial
R ED
c lean
Run ner
ific ate
Per formed
U i
Ass ign
In f
9 7
v ide
AT OR
ter m
Al ignment
prep are
Mat erial
s ample
Ex pected
EDE FAULT
ST AT
P K
5 2
ER E
F T
il li
Fail ure
PRO P
su ch
we ight
H at
Text ure
LE TE
AT URE
an c
P ack
Head ers
icip ant
b a
ex cl
Al gorithm
il ation
includ ed
02 l
Ow ned
Sh ared
F uture
Per iod
Connect or
T RAN
task s
A ut
A ma
lo op
ab ilities
Enum eration
CONT RIBUT
ux eo
Ama zon
if ies
M acro
Hel p
0x 00
enc ies
s leep
l ucene
om at
H int
cert ware
d ing
en code
A A
Null able
prod uce
ab s
S cale
Dis patch
ex tract
De fin
St roke
Be havior
a ff
AUT H
st d
Associ ation
command s
and id
s im
B reak
r ules
m edia
ER AL
Pro blem
delt a
Point s
ex it
process or
e ad
z ip
ag ent
dent ials
Regist er
CONTRIBUT ORS
c ut
Work flow
ch unk
F etch
b c
F oo
fer enc
R aw
Mon th
Down load
4 6
U sed
S im
Des ign
con sum
red uce
rid ge
T ile
mod ification
PRE FIX
ass ign
5 6
amo unt
Cance l
mpl ates
M ore
P UT
SV G
at ives
e ffect
lin es
ext er
work s
F R
0x00000000000000 02l
A V
vis ible
Origin al
MB ER
if t
S end
Descriptor s
ch ain
fa c
Mod ifier
E P
Right s
C LA
are a
Look up
work space
comp osite
R ules
Pl an
Tool s
N ative
J ar
ex port
j dbc
li ke
gr ation
other lv
S l
Co ord
Trans ition
f orge
g es
vent ory
Trans port
s ocial
ar m
mail to
AS K
to kens
ATTRIBUT E
mo unt
Flag s
Atom ic
8 6
N AM
UR CE
execut ion
mp loy
f fix
Writ able
LO CK
d river
B oss
G B
Pre p
ne g
model s
C tx
up dated
j dt
open n
dis patch
Cre ation
C riteria
re lat
dis pose
Bit map
J et
DE BUG
der ived
work flow
o us
second s
DI RECT
exp and
DAM AGES
xt end
P H
ro t
Avail able
mar shall
O c
y ear
end point
V AR
Inst all
EMP TY
Top ic
I R
D irection
s ig
m ath
B rowser
im g
In et
comp ile
an other
Sub ject
S vg
Gr am
4 3
B ot
Del ta
D D
D ictionary
ud it
process ing
sy nc
HE AD
b el
run ning
C OR
ON T
register ed
bound s
Pre dicate
iver s
Pri ority
S chedule
bo th
HO L
G IN
x x
is s
er ic
represent ation
b order
SH ALL
DE X
i k
tr ig
P C
L EN
erarch y
dif ferent
De ployment
MESS AGE
Sh ould
Sy nt
d etermin
ID ENT
Sp an
VI CE
C at
depend ent
v irtual
up lic
inte ger
d ates
dif f
p assed
re p
F ore
nam ed
v en
Pri vate
pr et
And roid
S P
con struct
Pr incipal
Ch oice
Tri g
ex o
Wi ki
resh old
R ate
vis itor
3 .
D rop
Ch art
Iter able
SE QU
ho to
ro ov
sh ape
ic ally
e qu
ali as
ter min
roov y
P RI
mem ory
Man agement
S em
fr agment
pe ed
Pro vid
M D
Synt ax
D r
Rece iver
N ING
LI ABLE
opens ource
r t
ot ion
pos al
co ll
en vironment
th ese
n ess
hel per
E OF
de code
L en
PR OF
IN DEX
pro blem
la unch
or ient
Pro f
Vis ibility
1 l
Component s
h ow
exception s
PROVID ED
ly ing
l it
up per
View s
al ways
A udio
ec ycle
W HE
SPE CI
st andard
Support ed
Trig ger
In struction
Col lect
NE G
ent ities
cor respon
z z
In stances
sh ell
spec ial
car bon
ific ations
CON NE
c b
9 8
cover y
L IT
Att achment
il t
Dest ination
ff ff
STAT US
on y
G R
ret ain
RI P
Exp and
it ive
Trans fer
sign ature
s chedule
th rough
zer o
config ure
E l
Not ify
SU CH
Arch ive
Tag s
design er
a u
M ach
in stant
S ender
work ing
con stant
m id
relat ive
Do ck
Ser ies
WA Y
WHE THER
quot ed
4 1
um my
O W
Error s
S D
com e
Me asure
St reet
tool kit
temp t
inst ead
Un ique
Di agram
WH ERE
evalu ate
Co st
ind ent
Custom er
ap pro
top ic
Ali as
T T
sp i
gener ic
oper ator
W ISE
b le
S ur
f x
Hi bernate
Class ifier
no thing
exter nal
ver s
i se
AR IS
ifi able
Sum mary
tim estamp
the ir
Te am
O pt
C am
st ored
PRE F
Y ear
view s
ul ate
C ENT
ul ation
er a
ac y
Config ur
7 5
CS S
01 5
CLA IM
Pre v
ARIS ING
E M
Re p
CONT RACT
Stat es
WIT H
User s
I ss
Rout e
NO DE
Task s
y ard
p p
B atch
ar k
H andl
set ting
D FA
Proto type
Token izer
resol ved
De cor
Se parator
fi rm
el ine
LE D
S M
9 6
Inter ceptor
ON G
SER V
option al
clo sed
s es
select or
LO SS
Log ging
mult i
V ol
VAL ID
OTHER WISE
does n
P ass
Or g
chedul er
7 8
down load
d st
Altern atives
se gment
Le g
Struct ural
RA Y
E C
dist ance
0. 5
not e
k top
view ers
T ORT
mult iple
g mf
u ally
Permission s
0x7 f
g on
call s
com bin
ce ed
i res
IN C
a h
200 2
openn ms
EN CE
W R
ens ure
sc roll
decl aration
source forge
trans port
FIND ER
z one
word s
Ext ended
0x 0
N MS
j oo
C UR
COL OR
Scan ner
ces sed
ro ut
Gram mar
Dif f
n l
LIT ERAL
ag ain
Man aged
S ig
ret val
Man y
joo q
end or
id entity
per mitted
MET HO
TI VE
exo platform
M AP
AT ED
FE ATURE
W ait
d uring
wh at
Cre ator
me an
OB JECT
re ason
on d
M aven
F aces
Path s
Work ing
dat ab
J DB
char acters
USE D
d et
ret rieve
back ground
at ter
sm all
Fac et
G TH
Comp lex
Mis sing
g h
B ad
v an
F ace
d ot
D istribut
un try
h ar
In d
stat s
bot tom
S cheme
L Y
it ter
k aleo
IN FO
Row s
d imension
n uxeo
Ag greg
Up per
F actor
Id ent
switch yard
sl f
ENTI AL
in f
Re place
LE T
ha us
Stat istics
w ave
an ization
B US
R ot
C enter
6 2
ul a
SI B
s afe
C ast
s ur
pe ar
X html
G u
Col l
B lob
Compar ison
P I
Cert ificate
s core
N OR
Cal led
Pay load
oo ser
head ers
P a
implement ed
5 3
extension s
P ublish
A mount
V oid
se q
ant ic
E mb
B ran
e ff
oper ations
D T
HOL DER
con sumer
mar ker
Un ivers
cl s
man agement
g ov
Ex tra
SER VICE
op eng
Sub component
list ing
c y
Im mutable
lic e
Te ch
mat rix
JDB C
de l
O CL
ri an
full y
C annot
v c
Sub stit
ht able
trig ger
Cal cul
To kens
IC ES
LEN GTH
vari ables
Bran ch
log s
7 9
D to
Struct ured
co ord
SI G
We ight
User name
un ic
d irection
in crement
i i
Sort ed
RE G
az y
war ning
et r
av er
ev t
Ex cl
f act
De pth
SPECI AL
o pe
J vm
S core
Pre ferred
Be gin
d uration
represent ing
c d
reg ex
SO AP
e u
Annot ations
R S
ud son
Del ay
11 1
ro ss
String s
Quest ion
i ation
Pri v
D s
Exist s
auth entication
s vg
b its
Re present
Ref actoring
N ormal
I RECT
current ly
NAM ES
POS SIB
ul ator
n a
ation al
aw n
Z ip
Con sole
LE FT
e -
RI CT
compar ator
i id
le ar
g d
FOR MAT
D et
h old
cess ary
SERV ICES
V ec
ill a
our s
b io
H orizontal
p a
t w
0.0 f
o x
P M
m acro
system s
a ion
T ip
Ac cept
R T
re ply
Or acle
li er
sup p
d im
vel ope
T wo
de ploy
Al ert
ex tra
Dat aset
Ty ped
B ACK
m ask
RO OT
rece ive
pre ference
m ule
need ed
Bro ker
ir d
us ive
id den
AD D
Process ing
inter faces
Sub scription
n or
t f
Termin al
d le
n avig
Mach ine
5 00
t ile
ex ec
ID E
fin der
n d
th on
sh utdown
IN ESS
VI E
re main
C ause
p w
Co okie
Part ition
Emb ed
Met rics
7 0
sign ed
TRAN S
f w
i ed
de precated
IT UTE
IS O
In ner
BUS INESS
An t
Res tr
M id
c rypt
y les
C ss
nex pected
Rel ative
am az
er ies
An imation
Re ferences
9 5
consum e
GO O
v ector
b s
clou d
g s
In fi
pl ac
se mb
de pth
Vert ical
t ip
s model
ath er
g gle
en a
D art
pri ority
F ill
B al
SEQU ENTIAL
Fin ish
Sh eet
BAS E
LOG GER
E core
Ex ample
Bin der
In stant
In dic
com ing
al th
ST RICT
m i
Al fresco
ma ster
j av
amaz on
er ializ
mon th
Spec ification
FIL L
re produce
ri end
8 4
i vate
m ic
e very
Comp any
ad ing
J MS
Un der
v ing
ec raft
occur s
M ON
mo st
Prep ared
Pe er
S lot
am odel
andid ate
k ed
code haus
Sw ing
Ob server
er o
em e
CON SEQUENTIAL
12 3
h istory
valid ator
C ATION
L ex
Comp ilation
NU MBER
in c
pre d
de leted
ad cast
calcul ate
POSSIB ILITY
AS E
s ca
pre ferences
IND IRECT
Redistribut ion
layout s
X Y
attr s
EV EN
an a
Regist ration
Fi g
os m
ow l
INC IDENT
R UP
HEAD ER
cip ient
Has htable
mark s
over ride
Ph one
al le
Prof ession
mploy ee
200 3
ne ver
B L
Co uld
vel op
Pr ice
Mer ge
en coded
n one
M T
vid ence
w ould
ferenc ed
iv al
L ight
pay load
nb sp
filter s
Comp iler
par sed
12 8
AD VIS
g c
t c
orig in
le v
Dist ance
G oo
p ng
ic o
ar ies
pri or
Ch anges
S ocial
7 4
M aster
SUB ST
d etail
am l
po sed
Proto s
jo urnal
restr iction
mp t
av or
contain ed
T x
Univers ity
y et
al loc
PROF ITS
y per
b tn
sing leton
t ax
Cl ause
A ware
iter als
INCIDENT AL
ADVIS ED
rel ated
co des
m x
comp at
B R
us age
TR UE
L ib
doc s
add r
Profession al
Dr ag
Mult iple
PAR AM
f c
un known
DAM AGE
Sn apshot
Analy zer
per i
Frame work
M ask
c ases
w izard
te iid
di agnost
correspon ding
Ge ometry
fail ure
Con s
7 6
block s
C UP
URE MENT
En ter
METHO D
ro om
es c
C md
L oop
record s
dest roy
Un able
z k
INTER RUP
led ge
Man ifest
S afe
ateg ories
VIE W
M IS
CA USED
Pro gram
tim es
HO WE
Rad io
HOWE VER
M AR
ak ai
THE ORY
ub e
pre f
Fig ure
sm art
Check ed
al gorithm
z e
8 5
b ig
iv ot
bro ker
Can vas
i ator
ate way
CON FI
UN I
res p
9 0
render er
analy sis
per iod
RE MO
in side
convert er
it al
M al
resol ver
P ut
pe ction
L T
string s
SUBST ITUTE
GEN CE
Add ed
arch ive
im ages
LI GENCE
k ing
E qu
test ing
Run ning
NEG LIGENCE
CLAIM ED
M ix
En coder
J s
Part icipant
B und
Draw able
S av
con sole
kn ow
cat alog
Lin es
wr apper
W T
G o
Pro posal
inter val
ad le
EX EMP
Con current
n io
L ARY
GOO DS
for ward
V m
INTERRUP TION
PROC UREMENT
uplic ate
Prod ucer
mis sing
DIS CLAIMED
Check er
e jb
Valid ate
l ar
e ver
b rowser
EXEMP LARY
c z
C LO
el et
E E
So ap
c as
00 2
is n
ist ic
DA Y
aw s
request ed
6 1
For ward
G ui
connect or
constraint s
execut or
M ime
RE QU
xs d
Ex it
Al t
Edit ing
s ax
List s
J B
serial ize
ch or
etr ice
B its
L ONG
transl ate
trans ition
Ex tr
ch oice
m ob
CENT ER
5 09
Ex change
S ING
Evalu ator
i er
match ed
v ia
S el
W atch
M ule
Block s
or b
1. 1
connect ed
xt ure
PO ST
im ate
CE P
al es
Set up
F ilename
Option al
ri ev
std lib
A st
unt il
P atient
Im ages
Util ity
ad get
pri se
Persist ent
al pha
Navig ation
thread s
R GB
g a
Allow ed
Coordin ate
TO K
OP TION
format s
ent ion
Collect or
custom er
part ition
f n
Check s
bus iness
ext ended
need s
un ity
H ex
start ing
li es
p ur
ial ect
om eth
In dent
s lot
med iate
G ap
F amily
Ob serv
Th ere
quest ion
S cal
AR RAY
RES ULT
B ind
I AST
alle l
ometh ing
EN ABLE
S ide
U uid
HOLDER S
U CT
En able
m any
Se q
DO CU
Ref resh
e q
Id x
M M
wh o
comp ut
0 f
pl ain
v es
LO AD
SIG N
or es
DOCU MENT
de ployment
m ut
Res et
ne cessary
s cal
re c
f ocus
r df
ar r
path s
product s
eb ay
Nam ing
jp a
k s
P lease
Up load
Incl ude
B A
un set
s q
sh al
f actor
own ed
DE FIN
test ng
M ed
O C
Cre dentials
in dependent
Execut e
go ing
In ventory
mem bers
Ph ase
Dispatch er
Re ply
W ID
SS L
depend ency
th ose
OW L
7 2
Re lease
Qu ot
M ake
c riteria
AME TER
b um
c am
datab inding
wr apped
A ffer
be havior
Ab ility
pol y
t ables
CONFI G
Affer o
Get ter
O WN
8 2
es h
D TO
h app
P P
ac ing
Dig est
Jo urnal
rece iver
d id
O ld
QU AL
inter pret
includ ing
F ast
p ixels
REQU EST
inte gration
ill ing
fin e
Con version
Mult ip
char set
En coded
re m
on ical
Pay ment
NE W
b atch
link s
sort ed
p lot
PAR AMETER
Syn chron
Be ans
ph one
p id
log ic
g ments
pri me
loc ator
n om
A udit
Filter s
1.0 f
can vas
V ED
g ot
s d
C F
D er
de lay
am age
qual ified
e ef
ar io
oc ity
Resol ve
h udson
C lear
s r
Base d
ar ing
I p
ess aging
in v
gr ade
ab c
Art icle
cre ation
Clo ud
re ally
pop up
Cat alog
En v
opt im
p et
o prot
ap se
W O
OF F
s chem
collection s
w er
Mem bers
G UI
WOR K
Te mplates
Ch ooser
C lean
st one
po inter
Sk ip
ap es
re quire
cre ating
de cor
IN TE
gg est
F LA
ver ity
d y
c n
te ar
Mod ify
Ne ed
C ached
ATT R
h base
ou gh
up load
Th eme
support s
S co
99 99
p ies
G l
Tech no
b ad
25 6
0x FF
An chor
OR IZ
out er
SER T
S AM
7 3
str ategy
ver age
re en
OR E
s akai
High light
A IN
Sp out
di agram
Mal formed
trans fer
Q UE
A CT
c ms
We ek
pri ate
AC C
indic ated
Comp ound
pend ing
J dbc
ain ing
I E
Bu f
call ing
Fix ed
is m
m k
tr ade
graph view
L et
pect ive
class path
re vision
IL L
par sing
j ms
n ested
man aged
CHAN GE
Vis ual
ebay opensource
row se
oo se
ser ies
bu ff
S HO
dis able
ENT ITY
FIL TER
re v
h ide
pe at
De precated
start ed
me ans
P ending
ut es
TER N
CA CHE
s vn
UN K
bo ot
T S
il ver
Add s
B LOCK
function s
d fs
request s
st reet
g mail
atter ns
br anch
DE LETE
sub mit
portal web
1 01
Over lay
N ow
ov irt
r ate
Ad apt
FLA G
tim er
pect or
Hi erarchy
spec ify
op ping
oo th
m ag
pro vide
Mock ito
im o
m apper
Dis k
w ell
as ync
WAR NING
ag greg
f uture
C r
Re ason
R oom
L iterals
il i
t ak
P ixel
format ter
RES O
re ferences
P df
wr ong
i qu
P ower
or ph
IG N
log ies
direct ly
- 0.
ast ic
dat aset
pk g
mod ifiable
r ase
Vis it
d ump
fw k
en ario
10 24
Vol ume
Bu cket
render ing
de p
draw able
ud ed
sn apshot
Al pha
E s
r us
iv ely
De v
al k
Tri p
om g
TOK EN
vert ex
P lot
Call able
In sets
Access ible
appro priate
or net
Function s
coordin ate
Clo sed
Extension s
invo cation
ign ored
D one
bu cket
initializ ed
trans ient
att ach
Char set
ip eline
TE MP
um l
ws dl
plac ed
An gle
index es
der by
9 4
Lif ecycle
ad ient
array copy
min imum
Qual ifier
Trans formation
E lem
track er
B ridge
m ime
c u
w ish
F C
ci pe
ble ms
act ivate
Clo sure
0x ff
DO WN
C LI
FA CT
N A
dr ag
Serializ ation
clos ing
Label s
Ex pect
Tool kit
m c
t ake
Cl one
Tr y
DI R
B eta
pr ite
as is
c up
ne o
S ens
J st
J O
3 30
Contain s
represent s
m apped
st age
L AB
i prot
dig est
R UN
d to
Decl ared
Bot tom
esc ape
in fin
Ver ify
Sec ret
igh b
Render ing
MS G
IM AGE
stan ts
p aces
p ages
cf g
Rem o
Default s
Initializ er
To uch
Char s
UP DATE
Re quire
cr aft
load ing
Fac ade
Iss ue
E sc
aut omat
bl ue
CRE ATE
dis abled
se m
call er
ap s
CHE CK
em bed
y stem
DESC RIP
cons ist
nam ing
M ASK
on es
M AN
mult ip
AR CH
Distribut ion
Up dat
remain ing
Sing leton
ED IT
ild card
P ixels
L ite
ge om
x path
RO W
9 3
St mt
c ret
con stants
ext end
io m
G it
co st
T IT
te am
F X
v a
ds f
allow s
8 3
ex tr
w ere
l on
vers ation
Activ ator
De leg
T ables
Hel lo
New s
b lob
and ra
pr eter
h orizontal
openg is
se ll
ys ical
Tim es
rm f
p ixel
S on
AR D
Annot ated
d x
Present ation
co okie
In line
ca de
Priv ile
o logy
O PER
Max imum
FOR M
ad ow
Con tract
state ments
under lying
Construct s
e h
st ill
to o
F AL
em on
IN VALID
En velope
E ach
a udio
P AGE
FI ER
marshall er
F inal
th ird
adapt or
do ck
f d
Le af
e val
str ong
Ori ent
d u
r ail
io l
SER VER
To ast
fac et
al e
9 2
Rol es
de li
Binding s
gr ant
1 0000
defin e
now ledge
N ested
q name
c dk
FAL SE
part ic
R DF
g ames
se ct
Cl ip
10 7
De coder
er ator
provid es
et c
sy s
rad ius
NAMES PACE
local host
Lif eray
Con st
van ced
ass andra
p x
G em
ve y
AV A
EX P
H ORIZ
e asy
mater ial
Poly gon
D C
dis k
ced ure
F act
ot er
Link s
L AST
j or
ry ption
supp lied
relation ship
Bus iness
0x 8
R ob
Th reshold
des ktop
Per form
sub scription
sub scri
b i
c um
Sol r
Up dated
SH A
t re
CONNE CTION
Ret ention
Sem antic
anch or
ass ignment
K er
the me
HORIZ ONT
u ed
pri v
un used
B ond
Map s
at io
An sw
ap sed
ir ror
Cur r
http s
I A
k a
if os
peri ment
sh ift
D sl
im iter
HORIZONT AL
determin e
4 .
Met ric
S ent
str ap
ites pace
Log ical
on ce
geo toolkit
pl us
ar c
ec m
INTE GER
Par sed
T w
ach ing
ro ute
ma ch
x p
ST Y
Bu g
pre dicate
diagnost ics
Analy sis
Initializ ed
k es
TIT LE
L atch
12 34
01 6
par ty
Num eric
app lied
de leg
ans wer
TO P
G reg
char s
Goo gle
SY ST
scan ner
man ifest
M ic
su ffix
ant ity
decl ared
PAR ATOR
CONT EXT
P LA
mo us
fs f
Act or
min ecraft
4 04
Con sum
r d
fix ed
al ign
sakai project
Aut ow
in struction
c mis
al f
FS F
expression s
roll back
M gr
me asure
le ast
3 .0
handl ers
g it
s cheme
iss ue
ty ped
Rece ived
config ured
sp out
al ert
AN G
Edit able
run ner
R ich
pro b
Sub program
S ome
Un its
Rem ov
P UB
S A
SO URCE
W ay
l ab
com ments
VAL U
Ser ial
s omething
s amples
S un
pri mitive
p atient
Start ed
r pc
0x 0000
w ind
Inf os
over rid
RE Q
Oc curs
Definition s
S cheduler
ic ient
v als
co pies
Prev ious
Ass ist
Reg ex
Q T
L GPL
amazon aws
ENABLE D
U sing
Def n
Color s
O k
NO WN
ud y
pro j
d it
M UL
pr ice
p df
w icket
ony mous
U AL
se par
f amily
P LAY
E O
WID TH
label s
As pect
read ing
Re q
mean ing
M ag
pe er
Add r
se qu
r ing
auth entic
MO D
or ary
j un
ap pear
A F
d m
as cript
V EL
P S
Pre view
PO INT
sum mary
curr ency
goo d
sy m
PL U
co s
ant s
12 7
P i
Sup p
z oom
att achment
neg ative
ITE M
Cap abilities
Assign able
pre fs
G RE
D FS
met ric
um an
Connect ed
indic ate
mar gin
CLO SE
Wr ap
Fore ground
Doc s
SE COND
DO UB
Gener ate
b d
Command s
STR UCT
AS H
St amp
Resol ution
IN SERT
h ex
Dest roy
Decor ator
D ummy
z a
CON ST
Ex ec
pro mote
cret e
N a
met amodel
Rot ation
L D
MODE L
Pro t
Su ffix
Auth entic
Evalu ation
H and
Z oom
in ce
Per cent
g roovy
CD DL
P ACK
4 00
Par allel
Record s
h and
EN C
NOT E
et te
ad just
Del iver
Lo an
key word
oo d
OR D
vo lat
lic ies
Depend encies
AR G
Compar able
ds l
R C
ith ub
LAY OUT
199 9
Defin ed
us ion
Ne g
j cr
C apt
B and
ic ker
Line ar
Gener ation
requ ency
X A
M ob
S PACE
est or
X S
Window s
ter s
sh eet
res er
LIC ATION
schem as
LAB EL
p hoto
f it
Thread s
x core
il ar
lic t
With out
EN SION
s ib
COM M
ref actoring
Se qu
OP EN
GEN ER
pro per
I GHT
Cap acity
client s
g b
pay ment
bl ack
C a
str ument
Test ing
Pl us
S peed
Substit ute
0x 1
Short cut
partic ular
Comp are
DOUB LE
up on
sol r
red irect
AD DR
we et
r is
volat ile
de ep
S UP
ers pective
ON ENT
T ick
Org anization
E mployee
m ight
Re po
am b
unit s
Tr ust
COMP LETE
Delet ed
En c
edit ing
cv ut
ax iom
er ver
gre y
for d
Autow ired
STY LE
Oper and
E JB
mat ical
Sec ure
Min imum
Th an
Un do
f p
SH ORT
Dat atype
de m
B rian
includ es
on imo
text ure
Load ing
R ank
In herit
w atch
h int
R ST
Con firm
x html
Comp ut
Br ains
project s
hel lo
pop ulate
3 00
it self
M otion
pro cessed
ch at
Sur face
vert ical
qu are
j sp
Wor ker
At tempt
c apt
u a
13 07
U nexpected
v s
g ithub
De ploy
r ich
comp leted
Project ion
at is
Des erializ
ut ions
serializ er
ERR ED
R ename
RESO URCE
COM MENT
P hoto
G roovy
NU M
Ent ities
to logy
th es
c andidate
C ycle
Part ial
e +
vel oper
UNK NOWN
ex change
K e
Temp le
el astic
In v
tr ust
J D
Par ts
M F
syn pred
ocl in
N L
av oid
M ut
p ag
Author ization
M ust
qu ote
Opt im
Di agnost
PLU GIN
p ower
K n
Sy s
ator s
f unc
U id
Red irect
tri b
oclin ecore
Z ero
7 1
P ush
r ession
G ateway
ab solute
exp licit
Answ er
L azy
ong o
Mapping s
for um
endor se
Att ach
link ed
cap acity
VALU ES
Mod ification
t uple
AL O
W s
j ack
3 0000
Comp at
pm n
re ferenced
02 111
met rics
ur se
min e
license d
wh ose
Th us
DESCRIP TION
Exception s
p ap
or er
google mail
bel ow
CC ESS
PRO JECT
syn tax
depend encies
R ing
E asy
gener al
d ue
restr ict
E T
Qu ick
m ifos
9 1
SE PARATOR
Sig nal
H yper
Present er
illi an
mock ito
f ed
me et
P ressed
Q L
Code c
h am
ph p
s peed
or ian
ew ard
COMP ONENT
qual ifier
S rc
v i
n ail
f g
qu illian
Embed ded
Sy m
D ot
Descri be
K aleo
R ound
transform er
ON LY
B io
indic ating
Bund ler
con cat
fr actions
h p
handl ing
curs ive
ATE G
z illa
cre ates
8 1
gram matical
Auth ority
Wr ong
coordin ates
d ictionary
E v
b ership
ph ase
FA CE
n ers
requ ires
rol es
ER Y
S ch
5 .
finish ed
st ri
Dis covery
Q NAME
d n
list s
com bo
Remo ved
E PL
ER X
Contribut ion
Spec ial
Orient ation
ren ame
at tempt
V i
St eward
un modifiable
Handl ers
Mod ifiers
bu ilt
E u
umb nail
ch an
M X
it i
Mis c
Break point
LE AN
jet ty
grammatical framework
L on
G uid
N T
re verse
b al
ch oose
man ent
al led
A jax
For ce
MUL TI
M ay
version s
ud ent
PREF ERRED
Re write
cons ider
Graph ic
no un
SU CCESS
F UN
R Y
H ook
ER ENCE
Admin ist
Connection s
Load ed
parser s
MAR K
p ick
Second s
son atype
f m
pe as
part ment
y n
ud ig
en ne
Re c
Ins pection
ING S
ear l
config ur
C AP
C ir
pr incipal
Inject ion
Rol l
FA IL
co untry
Al ign
enum eration
APP LICATION
ly n
G G
S ound
ud es
l and
at ory
Com ments
H ow
ip her
0. 1
im ap
Co des
h it
- 2
day s
h n
rm i
LIN K
m ix
Contribut or
Dir ty
om y
gre ater
s ch
Real m
ri f
Curr ency
ac cord
D em
pe ek
us ic
P ages
O s
M ED
Ap pl
U ST
bo se
V K
iv ing
I LED
per cent
m illi
execut able
To ggle
rail o
Can onical
fx graph
REMO VE
again st
AUT O
s a
In verse
av elet
pl orer
Transaction al
i j
FI RST
Button s
mar shal
b p
iz able
ret riev
C ALL
document s
step s
st and
t m
ival ent
T ASK
al ette
Do es
persist ent
In crement
w c
earl grey
Bro adcast
I CON
ge ometry
App lic
N AL
mach ine
scan pos
Key board
DE P
ir a
c ad
DEFIN ITION
J PA
r and
map s
io e
f il
d art
d p
u et
Dis abled
invo ked
S CHE
t urn
filter ed
Sk ill
Bo ard
IN PUT
Mar shall
happ en
B UND
r b
Pol l
th reshold
li ve
le af
B B
W C
S to
Block ing
O ffer
s ound
m v
op s
Pos itions
sub stit
MP S
v ie
Up dates
ly ph
Provid ers
Mo jo
QU ERY
n r
BUND LE
Greg orian
D Y
at ial
RE T
re play
C atch
Re v
SYST EM
et o
mark up
h an
Bo ot
d ummy
l g
Ret ry
EXPRESS ION
mapping s
Act ual
Qu ad
es per
I ES
Activ ation
Sub type
und o
ST A
67 89
option ally
convert ed
an imation
P ur
ilver peas
ss l
stat es
art icle
Bu ilt
LO CATION
b ridge
j st
j ac
un lock
Indic ator
re cipient
unic ation
connection s
iz es
assign ed
V ide
dir s
FF ER
ri er
os ition
xml ns
handle d
PAR T
.0 f
t or
Ex tract
Un ic
Parameter ized
FA ILED
is pan
ind ices
u er
ex act
S cm
F LO
TY P
Res pon
p ub
Inf later
my lyn
al tern
TIME OUT
Ch an
te mplates
VAR I
av ers
gre en
Co untry
Cont in
ae um
al ity
fail s
AS N
navig ation
vol ume
N either
Par cel
code c
cre dentials
P AS
ger onimo
Diagnost ic
g if
t v
Project s
button s
r p
T re
or n
j d
LE VEL
as pect
Transl ation
Expression s
Trans ient
Decl ar
Index ed
C ross
Mic ro
IL D
Set ter
LA TION
P adding
ESS ION
ab a
C as
h our
l p
Bl ank
D M
check s
pol l
L d
S ink
Det ector
board s
Local ized
oper and
12 5
L AT
binding s
OUT PUT
return ing
g em
f un
0x 2
f el
E AR
lt k
Son atype
Inject or
QU OT
th ree
riter ion
CONT AIN
lat est
Model s
ict ure
VIS IB
COR BA
c ir
L ive
serializ ation
anc er
ER O
EN U
comp letion
Op s
Represent ation
ar ound
IF T
channel s
Loc ations
Remov es
Mar gin
R EST
or ing
25 0
Relation al
S ince
mp p
Request s
X t
as semb
num bers
ak er
ess ment
check ing
OWN ER
t ail
od a
accord ing
MO DI
C ipher
g ive
e vidence
r ink
PAT TERN
elastic search
apes try
Finish ed
m gt
S oft
act ually
D en
Match es
Match ing
U ML
Bl ue
dialog s
ub y
Schedule d
stan ford
Sel f
T RA
u ces
us pend
nt k
Target s
F riend
aw ay
enc rypt
Mid dle
if f
PAR ENT
termin ate
Mark up
nex us
apt ana
sh are
LO CAL
D av
I o
Vide o
enter prise
AL I
B T
vis ual
ACC ESS
in coming
g able
h y
who le
add s
t b
FI ED
WR ITE
Exist ing
Sm all
Deliver y
M ig
em a
col ors
prod ucer
noun ce
Extr actor
NE T
2 20
part icipant
bin der
B ORDER
cl ause
Sp inner
py thon
re fractions
Restr ict
back up
pos itor
TO M
uc ed
c x
real m
cre ator
em u
de velop
IS H
Gr adient
t le
aff ili
Inte gration
uet ooth
Provid es
B C
H old
cal c
D N
Spec ific
L F
qu ark
G WT
t ick
10 5
ld ap
T icket
St yles
automat ically
open quark
SH IFT
n i
System s
spec ifies
Control s
con version
R pc
games erver
TI V
se ver
on ic
pre view
street map
D etermin
Se verity
O sm
ie ce
Pack ages
E QUAL
Ld ap
l an
se y
j osm
Sh ift
MA IN
Throw n
ocl stdlib
S N
open streetmap
u ate
D on
f b
PACK AGE
l as
Or d
B IT
u ation
FF FF
Ref lection
assert ion
es pert
espert ech
MAT CH
ul ated
result ing
ALO G
se ed
control s
crypt o
cast le
CUR R
D iv
excl ude
Bl ack
ir ation
St age
new s
con firm
j desktop
BO O
Xt end
D amage
J AVA
high light
Unic ode
Re cipe
lar ge
EXT ENSION
PUB LIC
st roke
W ire
descri be
ain ed
compat ible
affili ates
qu eries
Ind ices
u ght
sig nal
display ed
CONNE CT
Order ed
hi erarchy
f our
Resol ved
et ype
Th rift
Des cr
BU FFER
util ity
Observ able
Pi pe
represent ed
Lock ed
e lect
P ull
we ek
EX CEP
Limit ed
SING LE
St ation
S prite
Initial ize
ten ant
positor ies
clean up
c nt
aw id
RO LL
PAR EN
lo ts
con cept
in ventory
op aeum
not es
ag ments
F ed
99 9
Contact s
n di
Sub scri
s ources
w in
jax b
Pro j
loc ations
over lay
L ab
specific ation
de al
T ex
S lice
ed ges
G C
V el
MON TH
W ing
Updat er
er ate
up dates
INTER NAL
PER S
res ence
Ins pector
Al so
vis or
Con n
NOR M
G ED
Com bin
Techno logy
ci ence
f old
dat as
N C
success ful
class ifier
c it
re placed
re load
n orm
execut ed
B en
Comp leted
e arch
Trip le
uc ceed
FOR E
M ac
SE VER
inter n
Ter ms
TI LE
vari ant
ar row
ph ere
Ar c
K ee
An im
prod uction
T A
ay enne
D ialect
ot ype
AC TIVE
Pre f
trans formation
Comm unity
at temp
ens ity
infin ispan
00 01
Test er
Version s
t apestry
Cam era
proto type
Ret rieve
wait ing
jack son
UNI QUE
g ers
b an
ch o
T AR
Day s
job s
Match ers
er sey
ATTRIBUT ES
Mon ey
iqu o
od d
provid ers
F ONT
5 f
jun a
IN F
ADDR ESS
b g
C ATEG
orient ation
vis ions
F unc
h ook
c er
ath ema
Bu ff
at al
fa st
instant iate
Sub mit
H our
de mo
ID ENTI
Co verage
g bc
Document s
Out line
pt p
J ust
i ally
He alth
pi ed
limit ed
default s
dec ision
AM P
var s
Add itional
org anization
mic ros
PR ES
eff icient
b logs
Qu eries
ut s
s cheduler
EXCEP TION
s v
ot ing
l u
PROC ESS
f riend
BOO LEAN
p ad
C lock
P atch
OL D
Con versation
Launch er
work bench
12 0
Cap ability
s co
p n
play ers
O VER
log ical
H AND
tribut ion
ast e
BE GIN
inter ceptor
MI ME
T ON
p d
e g
n v
W ildcard
ur a
stat istics
P DF
p ivot
st ar
00000000 l
Su ggest
t i
indic ates
Restr iction
re peat
Ch ron
Rad ius
a que
g sn
c ategories
SHO W
Wh ile
AM Q
CLI ENT
s ens
un register
g ate
embed ded
C ategories
Ph ysical
D a
Dec ision
co g
B AR
Dock able
P ow
r r
bu i
ITI VE
h ard
Fore ign
ret ry
X SD
d uplicate
a udit
cl i
Kee per
ref ers
see k
G F
Rel ated
M a
L ATE
C ube
ool s
vide o
p b
Mod ules
c ity
r ator
HO ST
L ucene
Check box
p lease
Z ERO
LL C
ty p
un g
st yles
Aggreg ate
sp aces
he et
gener ation
d ict
p de
iol ation
TAR GET
App end
AC L
T AB
11 6
br aries
inal ity
T en
P ivot
format ted
Ed ges
in sets
REQ UI
l hs
Report er
f all
Sh un
Form al
L ow
coord s
success fully
Ad just
Red uce
jav ascript
havi our
Pre fs
get s
le c
Ker nel
M ILL
Ref s
Ap ply
UR N
St ored
A I
an sion
Par sing
normal ize
14 7
up dat
dispatch er
Ph rase
p en
mod ifiers
P ick
Word s
pos als
agr aph
to k
gr adle
in ct
bit map
SW ORD
rep lic
l bl
st ation
incl usive
E st
H idden
ib l
RES OL
an athema
Fl ush
re cogn
h alf
E m
graph ic
A ck
f lat
atom ic
Sh utdown
15 0
S cor
get her
Navig ator
fi xture
LO B
de e
L td
wh ite
Sol ution
lif ecycle
lob als
can y
pro blems
ca ught
BY TE
Th ese
nom ial
un ge
h idden
G adget
S ources
c ross
COMM AND
mod ifier
OPER ATION
Multip lic
BUT TON
F o
us cany
WS DL
lo an
FLO AT
St ar
opens cience
and atory
te le
ab et
i ated
n p
h ive
to uch
tw itter
is ation
b f
Inter preter
ST OP
pi pe
AN NOT
MET A
ul k
Publish er
app s
replace ment
rest let
L ANG
Not ifier
RE E
y castle
TI M
milli seconds
ord inal
E vidence
d eta
i ence
p om
t icket
Count s
G over
rout ing
pos itions
mer ged
Wh ere
awid get
F UL
icon s
Address es
Sens or
Sh ot
inter pol
m ol
wave protocol
bo lic
Keyword s
XX X
Invo ke
cell s
w a
g ree
B an
ob server
I J
Al arm
M essaging
p adding
M apped
get ter
c ending
al bum
c assandra
analy zer
correct ly
s imp
Inc or
a head
Vari ant
Lex er
per m
re paint
B I
6 .
b rowse
code gen
Back up
w st
regist ration
Ad vanced
or acle
Er r
associ ation
in a
Ke ep
pair s
grant ed
Inter est
Vel ocity
Inter faces
B et
D uplicate
dec imal
r ating
comp ilation
Calcul ator
access or
open jpa
25 7
des ired
x a
Read able
R EN
Call s
editor s
sec ret
SE ARCH
t l
collect or
23 45
M Y
te ch
j ena
ing er
An c
se gments
3 f
reg ular
sh opping
Rece ive
F lat
DE F
num eric
ag ation
es cap
con tract
at s
Al ready
Require ment
WE B
cre ase
G reen
g is
PE CT
descri b
g adget
Es per
FR AME
mid dle
Fr ont
j e
ar quillian
B IND
import s
UN SET
HE IGHT
G P
im mediate
Wh ether
pan e
IC PP
NORM AL
G IS
k o
Wh ite
S an
to gether
set ter
S AS
H it
en counter
Sh are
dat atype
pre vent
ph abet
As semb
ro o
Pr inter
p ow
FO UND
F LOW
Use ful
Other wise
Act uate
AC TIV
Place ment
an o
N or
sin k
Re cipient
Fi re
comp ress
po licies
OFF SET
Un marshaller
Fi xture
Configur able
s dk
1 12
D n
loc ated
annot ated
Incor rect
t uscany
11 7
C ity
FOL DER
key words
T M
Mail box
cul ar
clos ure
alloc ate
posit ive
serializ ed
Sc enario
p ot
ac er
For um
Des ktop
KE T
CURR ENT
geo server
gu ard
S ESSION
PAS SWORD
to ggle
as a
un ion
cr est
det ect
st uff
pro te
decl are
ir th
S ales
fel ix
h at
Chron ology
n pc
Y EAR
10 4
Char acters
N one
Serializ ed
an n
net mgt
st o
10 2
be on
CATEG ORY
at os
In to
pack ages
m gr
ba os
he alth
A m
bro adcast
mob ile
11 5
initializ ation
FACT ORY
De veloper
an im
Sl ider
R ating
EXT RA
fr ont
e per
Cancel led
Tw itter
s id
AL IGN
g y
Wh itespace
project ion
char ge
State ments
ok ies
l ig
efx bean
Inter action
in ox
vis ibility
op le
ad v
f ab
Esc ape
loc ate
x sp
Re covery
L ar
VISIB LE
C y
2 f
sl ash
0.5 f
Ch em
l im
U DE
gr ession
N ex
ent ire
D ump
w d
Par en
att ack
l ass
r hs
tr ip
sk ill
Deserializ er
pre ferred
de let
L ES
cm r
pl ug
ab ort
erial ize
m ig
avers al
l c
FIX ME
H ard
Cam el
Me et
throw able
L s
r v
bel ong
Y P
activ ation
FUN CTION
s oft
Ws dl
V cs
b ank
Wr apped
T RI
Cance led
al ice
u ne
Tool bar
ORDER ED
0x00000000 00000000l
AUTH ORS
CO D
ri ends
LET TER
J sp
d ltk
ne ar
Un signed
PH P
ass um
00 4
resol ution
Sh ip
y pt
1 f
r ss
Nex us
sh ard
N s
ver bose
P atterns
target s
b iz
AL LOW
Roll back
pro c
H ornet
C DATA
W all
RO LE
RES P
N eo
lex er
part ial
G i
we bui
Sm art
Sav ed
Al bum
dent ial
ham crest
ment o
u ous
al ignment
I AL
Rep lic
Cal c
es oft
PRI M
cm u
Under lying
I VED
A ge
PROPER TIES
h its
M R
stri p
ere otype
combin ed
ach es
a cl
le ave
un pack
MOD ULE
pag in
Cor rect
T ax
Pro vision
definition s
fill er
Comp ile
q a
P tr
b and
rot ation
G MF
AUTH OR
j a
oci et
ibl io
f loor
OR B
de ad
St e
f u
TYP ES
compar ison
Over rid
Te le
yy yy
Br acket
b ag
cal ypt
LE G
calypt us
DS L
R PC
et ic
v ation
LE AD
ro bot
ident ify
P ipeline
Th en
W al
SCHE MA
vert ices
int ended
ak ed
lec ule
R atio
Hint s
w ire
chron ous
fore ign
Lif e
ct or
log ged
a el
Bl uetooth
Represent s
get ting
Import s
TEMP LATE
IN ITI
db g
QUOT ES
VAR CHAR
E val
X HTML
DO C
O ct
PRI V
NO I
r al
We ak
K nowledge
array s
u nexpected
De partment
pro mpt
N G
sc r
in es
Transl ator
JO IN
x la
at ural
ar n
d ialect
MA IL
web app
Var s
Marshall er
ENT RY
RE L
handl es
token izer
mod ifications
rect angle
Form ula
assert ions
Oc cur
Initializ ation
Lic ens
mon y
j am
q i
AS SIGN
s cor
run nable
1. 5
M Q
Qu ote
vel ocity
S K
IN FR
lex us
B IN
P erspective
add ition
present ation
Ph p
inter rupt
Id le
S ib
IN E
Out come
h dfs
C ANCE
P D
m otion
index ed
Neg ative
P k
m ac
subscri be
reser ve
Bu kkit
ar juna
Feed back
m essaging
fr ames
Click ed
11 4
h ours
Ap pro
D im
ut or
M ENU
rest art
ENT ATION
in line
ch a
Pro cedure
sub class
W IND
INTER FACE
Index es
clo ck
m irror
De velop
no logies
all eng
lock ed
Cur ve
s lice
Se gments
rm art
w all
it r
S L
Ver ifier
re fer
Find s
dir ty
Pow rmart
interpret ing
c ayenne
all ery
lo ur
Privile ged
help ers
Register ed
Sh adow
WH ITE
en onic
dis connect
gre es
Ten ant
E MENT
ne ighb
Vi able
boot strap
rot ate
sp awn
o ad
TRAN SI
TRANSI ENT
Pro b
comp ound
any thing
H ide
en coder
t u
port ions
ociet ies
min utes
mer ic
Sequ ential
Sc ene
bio java
long er
09 6
equ ivalent
list en
a ux
trade mark
G T
andid ates
F ake
car et
Coordin ates
Gover n
j node
K S
may be
ER S
INFR ING
an te
ve c
Off ice
POS ITE
IDENTI FIER
Sib ling
temp orary
Sign ed
c g
HO UR
p tr
Dis able
o auth
D IST
on s
t ex
Invo ker
br a
e le
Sp aces
H ar
is o
10 8
Sco ped
k ill
n ick
N V
host name
SM ALL
16 0
0x 4
Start ing
Defin es
sc m
implement ations
descriptor s
How ever
Mix ed
St d
UN IT
Comp ute
F q
j ersey
C andidate
DO T
Content fwk
d ash
C raft
min or
h pl
X core
JD K
n asa
CHAN GED
cover ed
ro d
b eta
t bl
TIC AL
p atterns
U NS
str ict
perform ance
equ inox
E very
Need ed
B ay
oo st
Un ary
del imiter
INFRING EMENT
b t
inter mine
Supp lier
j mx
18 0
ur ther
s ocieties
ent s
14 5
MA TION
Num bers
decl ar
h ist
Bal ance
n h
ab ly
x wiki
k w
Spec ifier
l atch
complete ocl
f ish
iter ation
Pre conditions
amb da
RESP ON
deli very
In strument
1. 2
b und
Prod uction
is p
co pied
Rob ot
inter est
map red
of fer
p g
10 9
amp a
Enc ryption
REF ERENCE
000 4
C ASE
H uman
at ar
inter cept
ven ience
Hyper link
S CO
Ali ve
UT C
Per manent
19 2
ma jor
p ipeline
p in
rad io
ke eper
Sp acing
content fwk
comp ressed
root s
IMP ORT
I de
et ime
L ESS
re cent
G mb
inst alled
sp ong
Mem bership
Rout ing
follow s
ev i
AD MIN
window s
M AC
x doc
Med iator
cam era
ALI AS
N ls
ac c
Step s
M aker
Anc estor
Names paces
t mat
activ em
A cl
lat itude
Symbol s
W ill
sh rink
c mp
TH READ
P alette
iblio the
til es
C ms
Bal ancer
applic ations
H ours
activem q
i eld
ibliothe k
tmat esoft
Measure ment
inf os
SE D
b illing
Ne ighb
G re
L stdlib
h ornet
Sh ard
po logy
c ycle
sim ilar
Sp ot
Icon s
cap s
mark ed
Bound ing
on line
it ation
BO X
PO LIC
Job s
qu ad
ob serv
il ing
13 8
Root s
b all
m es
P LE
Pa inter
Un ion
F it
spong ycastle
b ool
Call er
In coming
ech nologies
as cal
retriev ed
t ur
T or
12 2
Sp ell
dic ates
ampa ign
comp ass
U V
View port
T ail
atis fi
bound ary
B rowse
m illis
p at
13 9
UR ATION
e as
00 3
gl ass
i et
ip pet
STA TIC
BO DY
T ES
as m
CU ST
in validate
Micro systems
aw ait
F s
ma king
descri bed
ou ght
Play ers
com es
evi ware
Kn own
y rus
ech o
hornet q
An onymous
01 2345
tr ain
work er
fig ure
comm er
to do
F TP
att ached
Gr ant
RO P
K it
Cond itions
VO LA
url s
FI CATION
VOLA TILE
Poly nomial
G lobals
con st
Indic ates
inherit ance
Pl ain
Coord s
Expand o
b id
ran k
M ass
Request ed
COM MA
p ic
s pl
ri ve
LEAD ING
r gb
Search er
ab iquo
C rypt
P icker
av es
Tab bed
Implement ed
al ty
mis s
e a
in o
D eta
orient echnologies
0x 6
F req
Ex plorer
J ul
Inter pol
su ggest
Enter prise
Conf lict
sm i
h yper
Tag ged
sem antic
long itude
x query
y pes
ref s
K B
cert ificate
net ty
evalu ation
Coordin ator
DA V
b at
des erializ
Part icle
j avadoc
H y
property set
ST ORE
l ap
F requency
R M
Comp ass
import ed
Fr ames
sur vey
o ct
an ode
E ss
En crypt
US H
Index er
dep ends
I LE
bound ing
r ack
B id
out side
initializ er
DE C
Out er
prec ision
tak es
Check ing
pagin ating
Sh opping
En code
sq rt
aver se
per formed
st ores
encounter ed
DE CL
ide a
C AT
col s
transl ation
u ages
5 000
Ex periment
sub classes
ang ing
st e
m r
C riterion
EN COD
alleng e
Art ist
10 3
in verse
0x 01
list ed
ex periment
INITI AL
est ure
to w
tool tip
e mployee
H ive
Sub mission
PRO D
mk dirs
SEVER E
i api
proper ly
at able
B est
lg pl
DER IVED
B er
Py thon
Con cat
holder s
at ment
at ts
mit ives
y m
C lob
sc enario
Construct ors
address es
W avelet
4 .0
v r
Rest ore
map reduce
s il
T own
sc ene
i sed
inject ion
Re ferenced
PLA CE
Car et
Qu antity
J N
Filter ed
H A
Ar m
man age
N EXT
ct rl
Cond itional
G er
C aching
LI GHT
qu antity
Go al
12 4
Start up
visit ed
Inter net
dem ort
bl ank
P ing
Par ty
POLIC Y
B AD
SAM L
fl ate
Z oo
ME MBER
C M
H I
av el
EX IST
SC ROLL
Li ke
Dem o
Excl ude
Appl et
0x 3
aion emu
tool bar
le e
Altern ative
al one
Execut able
Context s
al ib
SECOND S
S CA
se en
j m
re w
c us
POS ITION
expand ed
it ect
Debug ger
ar ity
CO S
A K
Me as
Pos itive
fab ric
let ter
Res ume
Op aque
bund les
ag ers
re ject
10 6
1234 5
en ough
account s
separ ate
gl ue
pro vision
P ub
Aut omat
C art
if orm
M ongo
ro bo
present er
comm unity
app l
g ml
s ess
des erialize
har mony
q s
ST RACT
De ad
J an
H H
effect s
G A
ess ential
inter sect
ma int
Sp awn
Inst it
Out bound
Lar ge
DI ALOG
Se ed
ward s
o gram
LD AP
j ira
l igh
Dig it
comp let
contact s
ST RE
j c
s ales
C B
symbol s
Unit ed
Let ter
Ab s
chan ism
l fr
Gu ard
lay ers
COL LE
T urn
f tp
alib aba
V iolation
Cre ature
D EN
fl ip
mic ro
c di
red hat
bet ter
H AS
licens ing
Factor ies
reen et
PRO TO
GRO UND
Lat itude
Server s
J MX
ge f
AB STRACT
author ity
my sql
Imp licit
pap yrus
li a
Multiplic ity
pos es
A CH
PRIV ATE
mo ved
C tr
11 3
B tn
atos phere
in correct
0 99
v y
St an
Str ict
curr ence
CS V
poly gon
Check sum
app ers
C V
sp ot
s ucceed
Im g
o asis
Un set
sh own
not ifications
Scal ar
inject or
Fr action
ho use
Al location
J C
fed eration
one bus
de coded
n f
W I
art ist
min us
Attr s
onebus away
m ot
N EL
oper a
CANCE L
inte gr
H its
combin ation
Applic able
VER S
b ob
or al
mag ic
n y
Document ation
N aked
R od
aggreg ate
Rem aining
Ar r
ew ire
sh adow
11 8
IN ATION
Middle ware
tab s
sec ure
F un
REQUI RED
C ent
SUP PORT
simp ly
Ab out
I V
Ret riev
At temp
UNSET TABLE
Book mark
E last
12 6
11 9
r ain
Invo ice
B ool
al d
V jo
RESPON SE
lim ewire
d amage
al g
M APP
AS C
Rout er
VER TICAL
os en
context s
l azy
O cl
v l
R AM
CONTAIN ER
000 l
chedul ing
g ateway
Full y
ed ition
xy z
ut f
cam el
F B
Aggreg ation
b pmn
ag g
REN DER
Sn mp
Att ack
az el
accompan ied
com ma
person s
check sum
N ick
ich ael
att le
Depend ent
b ibliothek
min ute
Gr a
web objects
Format ted
Perform ance
j ndi
Format s
input s
bug s
termin al
Iter ation
multip ly
C ES
up s
consider ed
geo tools
G iven
c are
Read y
Bund les
CHANGE ABLE
Re peat
BU ILD
z oo
log o
g lo
Bound ary
B IG
Dig its
ci i
EM F
r ant
re cursive
le y
i el
8 .
Techno logies
w alk
2 13
C N
TIM EST
0 30
itect ure
Un ordered
b m
start up
comm unication
Long itude
as n
j an
b os
draw ing
iss ues
mail box
00 5
f urther
test er
Administ rator
pro cedure
tr ail
SU F
let s
nv ae
Handl es
h en
Transl ate
Capt ure
sub tract
Ty p
A verage
Un til
comput ed
WA IT
Not es
c pu
EX PECT
Export er
j free
insert ed
Restrict ions
send ing
FUL L
Contain ed
RE COR
s ilverpeas
debug ger
escap ed
0x000000 01
H ist
CR S
24 7
DIS PLAY
ish ed
of biz
S vn
launch er
Af fine
L C
aver age
Con crete
gr ab
defin es
lock s
Sto ck
oc used
j dom
D ro
restrict ed
chain ed
us ions
E ar
ne mon
AS CI
if ace
server s
g ap
N pc
u ent
Dir s
ab ul
AA AA
dis card
begin ning
g ar
raw types
D ROP
se am
ell a
RS A
T od
- 9
AT ER
VARI ABLE
c ube
2 02
u do
In fin
J cr
pret ty
Elast ic
E K
con c
l b
smart gwt
count s
abul ary
A u
On tology
ass ume
describ ing
reg ions
buffer ed
IN FIN
H over
Config ure
nounce ments
Contain ing
s z
sur face
M usic
Plugin s
expand o
we ka
GRE EN
T s
re write
der a
C ST
AL TER
Authentic ator
so a
Inter cept
dock able
se verity
q p
o h
re view
mut ation
Mig ration
Log s
Prod uces
gu est
accept or
A WS
Pro blems
Ch ri
en velope
Track ing
Min e
S and
M irror
ac cum
l ude
per mit
t cf
G wt
SPE C
Channel s
Sur vey
w p
Compat ible
Re view
Sim ulation
N uxeo
dif ference
App ender
T ED
ANNOT ATION
Inherit ance
n il
y es
Fl avor
D ur
soap ui
Model er
deli ver
COM MIT
Res er
DI G
net beans
el ist
back end
W as
artifact s
Mark et
Tool tip
g uid
Configur ator
an onymous
Exp licit
section s
8 00
re lev
previous ly
Qual ity
ASCI I
fr a
F old
Dav id
Der ived
Leg end
wh y
MO VE
Ar row
1. 4
To m
agree ment
cip her
Comp osition
TIMEST AMP
AN K
pe ated
iv y
Ro ad
Sh ader
Comp ression
ant ics
thes is
E mit
Style d
z ie
STRE AM
direct ories
b asis
BY TES
r ather
T weet
ligh ter
Synchron ization
f ld
org an
prep ared
Ins n
G lyph
U MENT
Min ecraft
lo unge
im mutable
R AD
S pl
accept ed
mote ch
cs v
14 6
R L
Fe el
23 5
adv ance
T CP
try ing
Th umbnail
lif e
interpret ed
rem oting
io s
sol utions
IM G
Boot strap
Z IP
Fe e
AF TER
S ORT
7 .
Govern ment
Tab s
Bet ween
R aster
man ip
am a
encrypt ed
world wind
De fs
BO T
Log ic
16 8
C nt
tr unc
up grade
Ctr l
C mis
Pro c
app lies
Pos sible
k b
P ause
Prot ected
str atosphere
l w
B LA
odd job
Convert s
at ic
N PC
Pair s
C ut
et work
Instant iation
Prep are
activ ities
op code
graph iti
w on
Cons ist
RUN TIME
dimension s
quest ions
dig its
Y ES
SCO PE
r am
super class
proto s
our c
un i
Mo vie
any way
Multi part
Cre dit
BIND ING
01 0
Super class
sh ake
der iv
on tology
5 12
hav ing
8 08
cert ain
S quare
AD B
ch r
res ize
xp dl
DT D
http client
f q
st udent
Rep lication
Re qu
author ization
RET URN
ch ase
Equal ity
here by
A VM
et e
f os
Us es
R P
Dis posed
fa ster
D ash
R en
On line
P en
any one
in i
plan e
re ction
St udy
report s
un signed
capt ure
h ugin
EDIT OR
COL ON
p ause
recover y
ac quire
X MP
buff ers
Cl s
g p
Import ed
block ing
N av
bal ance
TR Y
NO W
cont roll
P icture
X P
4 f
se udo
J VM
on ed
iter ate
n n
lev ation
Import er
Ca ption
r anges
et s
b ay
j ub
D an
Cas cade
str uts
search er
Replace ment
Dat agram
B ank
R anges
invo ice
F Y
SET T
proj ity
co urse
I so
publish er
W EST
Folder s
em it
RA W
function ality
su it
W SO
orb is
Card inality
Defin e
met awidget
Tri m
ap er
Re cent
h ib
t k
Ext ent
Session s
Co ded
BO OK
t ck
5 .0
level s
res ume
li de
L ater
mod s
pro posal
SC RIP
am ed
Log gable
o beon
obeon etwork
cur ve
On ce
Min i
u it
Col s
ig her
WR AP
Ind ividual
Co ver
Al ways
Develop ment
pl aces
MIS SION
CON F
Attach ments
names paces
Face book
BLA CK
ic les
open ed
var ious
In side
F avor
immediate ly
CHAN NEL
out going
s ay
St and
contribut ion
description s
o ser
M eter
COLLE CTION
re comm
Pre lude
consist ent
parent s
k k
un less
jub ula
ect ors
evalu ator
sh a
build ing
O J
f requency
ou th
render ed
appl ause
j os
S EN
ar ante
host s
cor ner
f re
INTER VAL
packet s
I VE
Op code
s ms
doc x
obtain ing
No thing
00 02
b is
M orph
n x
012345 6789
off ice
Pro mpt
exp iration
MILL ISE
local ized
contribut ions
LAYOUT LIST
de coder
Up grade
tak en
short cut
card s
s ip
cod jo
js dt
F lex
Incl uded
S OR
on ts
ar es
A WT
H S
u el
sequ ent
R a
ie ve
PROVID ER
Ab ort
Cir cle
v cs
Res earch
tx n
R uby
Mag ic
Pri m
IZ ED
R FC
b az
d av
Meet ing
con str
Expand ed
overrid den
Da emon
compat ibility
P in
FAIL URE
ffff ffff
dat at
j oda
IG H
zk oss
TO OL
r atio
Watch er
De code
pe ak
gen ius
D NS
if ty
h ot
aff ected
Mob ile
b en
feed back
PLA IN
se p
second ary
normal ized
199 8
A ff
accept s
cover age
azel cast
13 0
pos sib
GENER ATED
Configur ations
Temp orary
Render ed
f is
br acket
B logs
req if
session s
SUF FIX
PRO GR
DIS ABLE
contain ers
rc p
over write
W in
Mar shal
Read s
ref lection
al arm
s uspend
00 6
MILLISE COND
Instit ute
metamodel s
po on
e of
H EL
PARAMETER S
f lex
Assert ed
Persist er
essential ocl
P DE
gu ess
iver se
St udent
pro visions
Th ree
G a
n u
comp ression
cv s
Client s
S OL
h m
Rel oad
openg l
W ifi
u im
th umbnail
w ood
Dif ference
09 7
T C
0.0 d
off ic
Buff ers
ma kes
des cr
f urn
v p
Avail ability
pro posals
jam in
ro ve
J ax
Re ject
NOR TH
excl uded
stop ped
REL ATED
l m
ge bra
x mpp
inter preter
cp p
n es
to ur
AX IS
al ter
authentic ate
ARG UMENT
hold s
bon d
new ly
stream s
DAT AT
Build ing
assemb ly
F Q
Ex act
ro ad
am ond
Res ize
C MIS
15 6
regard less
f v
plan ation
B RA
13 7
C AN
Ac ceptor
wh itespace
T iles
Me an
H ER
A ri
schedule d
Artifact s
TH AN
RO L
Book ing
NON INFRINGEMENT
can onical
B pmn
base line
data store
id es
P ot
Cl azz
imp licit
BIN ARY
u v
Fl ash
nh inc
Tr ail
Draw ing
P resence
p lexus
Nor th
ali ases
SELE CTION
im etype
iz ing
S dk
B SD
FOR MATION
execut ing
Quot a
nemon ic
IT AL
Mult imap
Contain ment
BE FORE
L ay
16 4
Not ice
priv acy
expect ing
order ing
re cur
dec rypt
CHAR ACT
ENCOD ING
BOT TOM
0 64
vol demort
est er
Ass oc
N ature
Prop agation
pr inter
f atal
MESS AGES
asy n
st en
sever e
debug ging
CP P
BL UE
Plan e
o sed
open map
explicit ly
ip se
sk y
Out going
ent a
ivid er
st ory
M ichael
N ER
dig it
b log
L ER
2 67
B i
i pt
State ful
N ear
Cl aim
line ar
j ts
enc ryption
lo od
Del imiter
P iece
CP AL
Jo hn
CONST ANT
n av
Sim ilar
out line
sp atial
Del imit
Pl ug
read able
trade marks
Lat est
El se
extr actor
3 01
ad vanced
th ink
Dimension s
ib o
199 7
a jax
t ell
B illing
HO ME
pe g
limit ation
sub mission
Fin ally
RE C
class model
A lex
folder s
Stream s
man n
s it
sub type
16 6
conf lict
re ached
N X
DE LAY
H ad
sp acing
T X
dynamic ally
play list
Throw s
RECOR D
B el
PER IO
motech project
P t
j unction
h r
In bound
Re verse
C assandra
IMP LEMENT
12 1
Licens es
WIND OW
Re cursive
Declar ations
har poon
datas ource
15 7
32 7
Writ es
Fed erate
6 00
Report s
break point
AC COUNT
Handl ing
v fs
N BT
py dev
exact ly
Ma jor
T K
Config ured
J DOM
ST RO
az ure
m ong
g ex
Sym bolic
w ildcard
Ins ight
an e
vn or
info glue
Min utes
G MT
Com ma
Dat as
M esh
V endor
Cor relation
Counter s
G ate
Al phabet
Ess ential
Ass essment
uc le
P AG
f est
g son
cur acy
So y
j as
V ds
rit ical
e es
BO TH
14 4
m orph
qual ity
P ID
MARK ER
agent s
am ing
script s
i ans
anc estor
S MS
W W
ACTIV ITY
rich faces
separ ated
mem o
Delay ed
Log ged
ph i
Data store
T WO
report er
G esture
P ic
d os
-1 .
T ak
every thing
pe ople
H ol
s sh
optim ize
marshall ing
sent ence
up les
GR AP
print f
as l
Level s
MP L
AR B
Play list
f req
Str ip
Fo oter
wh om
zz y
W ave
analy ze
Substit ution
H IGH
St ax
Pre c
i en
pos ite
ph rase
ph ysical
thing s
arg v
un defined
google code
s prite
in strument
E Q
h uman
Host s
op acity
13 4
STRO KE
micros copy
C LE
D fa
Adapt or
fa ke
DD M
gen e
04 0
open microscopy
ferenc ing
p di
T D
Car bon
et ched
gen cy
sl ider
inter section
PRIM ARY
sw ap
0x7f 0
u als
configur ations
trans it
generated classes
F am
wish ing
c art
TEXT URE
elet on
AB C
S chem
C G
copyright ed
T ap
ir y
w al
Dat um
av ity
J av
Un used
ec art
ass essment
prob ably
12 9
av g
Privile ge
JN DI
E q
ch ooser
con versation
P ress
re cipe
b w
ber os
Tr aversal
CO VER
d rian
byte code
Gr ade
k om
iz ations
ass oc
ap ed
rep lication
c ading
Sort er
robo a
open faces
X o
DO MAIN
th ought
g row
S amples
factor ies
N N
St ory
j ames
G sn
det ected
Per forms
priv ile
test ed
Confirm ation
Ad vice
V oc
Ow n
Man age
h c
prote gex
null able
GEN ERAL
el apsed
import ant
IM AL
CD K
d ru
ool a
Tr ait
BL ANK
B g
app la
sh oola
used sl
edit able
appla usedsl
IDE A
bo of
V dc
enta ho
V an
grid y
ul er
book marks
Th rough
Comput er
J OB
Ident ifiers
boof cv
eu calyptus
fo p
T oo
on omy
p ressed
object fabric
gr adient
O ID
Order ing
comp iled
ect ions
fo oter
As cending
re positories
Min ute
Int ros
Wait ing
COPY ING
N r
DAT AB
m usic
ap on
- 3
He ap
H ub
is su
SI MP
EE F
U C
2 15
RE PORT
check er
Tx n
form ula
p ull
sim ulation
un dee
sp ell
an ces
grid x
0. 01
Proj ity
RAN GE
cre dit
x id
m andatory
Execut ors
calcul ated
CUST OM
cel erator
diagnost ic
PRI OR
in crease
ist ry
J ms
shrink wrap
jac orb
s vc
00 7
ver ification
gorith ms
se g
p f
il led
obj s
eas ily
SY S
li braries
in flate
smart works
S MB
mo lecule
Sp i
sto ck
av ing
Dro ols
Un iform
ho le
co okies
Decor ation
ced ence
Fr agments
ro tt
h l
jb pm
At tribution
Syn apse
s age
m en
B S
Crypt o
h eld
inter rupted
esh ape
INCL UDE
OWN ED
R tf
il legal
Y Y
3 65
m ass
scal ed
Mut ation
Ap pear
MAPP ING
he ap
v endor
Release d
B log
ang er
H ave
P v
rss owl
mod eshape
Back end
N ational
do ing
we ak
x ies
tr averse
Par agraph
r f
Gl ue
W ind
th etic
Place holder
Install able
re ach
s ampl
Ch rom
id ing
Con ference
LET ED
cit rus
BACK GROUND
alt ura
st ereotype
88 59
G LOB
TRANS ACTION
ci se
go al
Distribut ed
serv ic
gu arante
Lay ers
Cre dential
mark ers
lick r
be at
Prot ection
ab or
there fore
en closing
Base line
RE EN
lo st
Incl udes
ad o
Pro files
E F
LI BR
S ms
EN AME
BE AN
s and
respon sible
Arch itecture
prop ag
IN IT
tur meric
ed is
sh in
on to
Br ick
Sens itive
33 33
2 17
to g
activ ated
Activ ities
t cp
CH ED
PRES ENTATION
sens or
ag on
Process ors
f avor
report ing
i am
m bean
bp el
al ina
Bar s
St ores
Iss uer
s al
port s
L isp
Reg ions
Ret rie
ed genius
pt s
syn apse
B ulk
fil led
Process es
MAN AG
N orm
Sub system
DE AL
pur pose
PER MISSION
A ir
happ ens
exp ansion
Vert ices
Inte gr
Char ge
ch ant
Ign ored
PERIO D
f reenet
Equ ip
class name
M art
I I
S AP
i or
Group ing
d up
VIS UAL
ex c
cl es
Reg ular
t weet
l st
possib ly
ar p
Public ation
Per m
G S
ME M
P T
IG NOR
er ated
DEFIN ED
ser ve
Data center
02 2
C MD
le ading
U tf
c andidates
T OR
c ros
updat ing
M UST
fr agments
files ystem
ex ceed
blue print
27 6
respon ses
ag ger
sub stant
cr s
Cor ner
ust ers
20 6
multi part
Assemb ly
Writ ten
rol led
ang les
P ad
14 3
ik a
mo vie
Sent ence
altern ative
E jb
check box
t ar
extr as
L u
arg o
COM POSITE
inf later
uplic ates
er ing
13 2
fl ash
f ar
t z
p us
look ing
belong s
Ag ree
M C
j k
Offer ing
BRA CE
Re fer
14 0
id m
exp ressed
ob lig
Re positories
SIMP LE
opt s
g lyph
Co urse
callback s
curs ively
Ax es
V eh
Pa ul
On ms
DIRECT ORY
L java
p md
UNI VERS
tab bed
Comp ose
SC REEN
s quare
face book
Rec order
in form
st udy
Ext end
s ublic
END ING
Clean up
Res p
2 16
ch rom
GLOB AL
furn ished
Tre atment
01 1
Product s
cad a
Clone able
sublic ense
RE LATION
s an
Mo st
RESOL VE
commer ce
Second ary
14 1
o le
indic ator
m uch
Con str
substant ial
B on
0x 5
is k
. 5
20 5
20 4
relev ant
Expect ations
AL PH
ren ces
Cre ating
fore ground
EX CL
check out
EP S
book mark
x stream
S ca
WAR D
st s
depend ing
De p
u f
W he
pro files
G RAY
Add ing
p erspective
CON STRUCT
Built in
met ic
S ector
DATAB ASE
IS A
bb le
part ner
S uspend
w y
b ol
San ity
ab b
p reserve
Mo ved
construct ors
Rest art
op codes
us ually
Temp oral
ab lish
N P
Min or
f ro
opens cada
Script able
EDE FIN
TRA CE
d ur
B RE
B ench
Dis pose
go es
g ray
sh op
con omy
