e r
i n
o n
o r
e t
a t
e n
e s
t h
i c
a l
s t
l e
i on
a n
r e
s e
a r
c t
r o
i t
in g
m p
en t
g et
t r
e d
i s
u r
c e
d e
th e
a m
u t
u b
l ic
a s
c o
r i
u l
or t
i f
at e
ub lic
n e
i mp
c h
p ublic
i l
a g
i d
e x
S tr
p t
Str ing
ur n
i st
et urn
a d
imp ort
u n
a p
as s
in t
r eturn
ne w
at ion
e l
c l
I n
p e
t o
es s
E x
am e
u e
c k
o f
pt ion
a b
m ent
C on
e ct
or g
es t
l o
C o
ag e
a v
c on
s et
er t
th is
ul l
f or
ex t
an d
a y
q u
o t
e m
f in
ce ption
\ \
f i
0 0
o de
n ull
Ex ception
S t
y pe
d er
s er
p ar
p ro
j ect
v o
u p
R e
ct ion
i m
av a
v er
fin al
en d
ab le
vo id
o o
r es
P ro
L ist
en se
b ut
al ue
a ck
p ri
t er
h t
o c
N ame
L ic
ro w
ul t
Lic ense
v ate
o d
j ava
u m
pri vate
b ject
a ct
T h
T ype
st at
\ '
F i
cl ass
v e
ad d
i z
co m
o ur
t ext
i th
i o
i p
er s
le ment
o l
stat ic
O N
th row
a se
at a
i g
ch e
en er
b e
I d
I N
a in
l i
o s
n ot
t e
par am
p r
ap p
A N
E R
o ut
a re
or e
E n
st r
an g
or y
it y
R es
O bject
f a
S e
I T
u s
al s
our ce
C h
st an
e y
f er
O R
D e
o w
a che
ic e
A R
ass ert
p er
P ar
le an
S er
S et
A r
b y
co de
n ame
p ert
v alue
C l
oo lean
p l
throw s
v ent
c re
p ut
un d
s ion
at h
ode l
al l
at or
tr i
at ch
Fi le
qu als
T o
p y
con t
E S
E N
r it
fi le
T est
e w
w ith
i al
u se
co mp
el d
Cl ass
b u
im e
v ice
T I
ack age
tri but
V alue
it ion
o m
iz e
cl ip
s h
u le
l in
clip se
b oolean
t est
ut il
et h
ar t
ess age
u re
p ort
N ode
r ay
un t
c ess
L o
M ap
u ser
w or
for m
al se
A S
o u
c ur
D ata
I S
ist ri
istri but
tr ue
ro up
Con t
t p
on g
en ce
Co l
w w
i v
T r
fi g
un der
g in
Co mp
g er
de x
i ew
i es
a c
e clipse
tr y
el se
eth od
B u
O ver
f alse
cre ate
at ed
stan ce
v al
ess ion
d istribut
E lement
Con text
f o
ri de
o p
in d
w h
c ri
g ht
pert y
I D
a ce
qu est
res ult
m l
Th e
re ad
an s
Over ride
l l
mp l
re e
i re
g r
U R
i r
w are
l et
d oc
A t
ri ght
S E
t ype
int er
U n
en g
Ar ray
F or
d o
A s
u ment
of t
m a
il d
it or
lo g
p ackage
o b
w rit
t il
ap ache
S y
l ist
U T
K ey
eng th
re am
l y
U til
ro m
A d
A n
L E
act ory
oft ware
I O
ht tp
M an
Ser vice
A L
E vent
T ext
th at
er y
st em
r or
le ction
B y
u th
A T
co l
G roup
s up
m o
ag er
il l
a st
pro t
m s
0 1
co py
b er
o und
n al
t y
fa ult
a w
Fi eld
e c
i ve
E quals
ect ed
ar y
if i
lin k
tribut e
M essage
c ase
I t
pe c
g e
k ey
p os
A p
wor k
r ent
ig n
f f
prot ected
Th is
d ata
distribut ed
p o
G ener
F actory
Lo g
es cri
ad er
N ot
P ath
c an
o bject
l ength
E D
lo w
M odel
if ic
Q u
ar d
ation s
h as
V iew
Pro perty
app end
O F
S T
Man ager
r y
m odel
en s
St ream
Con fig
It em
St ate
le ct
on e
end s
on ent
u i
p re
In ter
il der
l ang
c atch
L I
Sy stem
v id
f fer
a k
u st
u ct
st art
et a
w e
c ore
p on
Par am
i le
c al
m ethod
m ay
E d
n g
1 0
R E
A ction
l ong
fer ence
ang e
lo ck
and l
L oc
in stance
Co m
ar g
a ction
e quals
g ener
b r
n ode
com m
a uth
As s
ext ends
L in
x t
T ime
cur rent
am es
2 00
f rom
P l
ver sion
s ize
k en
ub le
V ers
y ou
Vers ion
C ON
r ule
s pec
In fo
an t
se e
d ate
m od
it e
0 x
ow n
th er
W AR
i ent
List ener
um n
in dex
. 0
ww w
P ublic
et er
A c
H O
St at
N U
av e
P o
m is
A M
as k
B e
pon se
il ter
e vent
ul d
Se e
con text
D E
m in
p u
or d
ar get
sup er
t s
T Y
S h
Re quest
In dex
andl er
cont ain
Co py
cont ent
D ate
java x
P re
L O
AN Y
I mpl
ab el
s p
an y
s w
re g
EN T
fi eld
Res ource
U ser
e lement
ay out
pr int
R AN
Cont ent
R O
ur ation
A B
ar ch
s ub
In te
C O
um ber
T H
A ll
C H
ce pt
an ce
C E
ig ht
s oftware
by te
O f
auth or
m at
pl ay
D oc
Res ult
as h
s y
mis sion
Inte ger
At tribute
n ing
O ut
writ e
pert ies
i b
f r
e v
S ource
Tr ans
o uld
at ure
fa ce
Gener al
Bu ilder
pr ession
In put
n et
ne ction
S ize
L A
p ath
Copy right
G NU
str act
I L
M ethod
Ad d
D escri
WAR RAN
imp lement
C re
Qu ery
vid er
che ck
m essage
if y
V al
In stance
w ill
st ate
b o
le g
el l
I m
m y
ec ut
k e
a x
re quest
N O
Y ou
N ull
pe ct
Com m
t on
E r
u es
li ed
W IT
or der
it er
str ing
ap h
F ound
R eturn
qu ire
U L
con fig
A b
1 2
H andler
m ap
lo ad
ith er
o ver
x ml
Comp onent
v iew
e ither
a pt
Er ror
val id
d i
A l
C T
gener ated
sh ould
gr am
lic ens
ne xt
do uble
s ource
c es
1 1
Co de
in put
P an
TI ON
HO UT
WIT HOUT
in it
Bu ffer
mo ve
d is
b ack
In t
o ther
P ackage
re ak
ES S
n o
licens es
er ror
2 01
imp lied
Ac cess
co unt
it em
s o
Con stan
a ch
00 00
r st
h e
inter nal
m ar
Col lection
de fault
H ash
En try
P O
en der
De fault
En t
u age
ne l
cl ient
U p
H e
G et
P E
quire d
im it
O r
op en
O per
u gin
To ken
lin e
app lic
oo l
r c
tr ans
T able
ire ct
o g
Stat us
M L
str uct
Im age
S oftware
h o
is h
S ub
IT Y
v is
T O
b reak
M od
I f
W rit
M o
a f
ial iz
p es
qu ery
u d
e ature
ch ar
Re g
k er
Ent ity
lo at
con d
IN D
fi x
Ar g
Co unt
L ayout
A ct
bu g
par ent
Util s
r ess
L abel
N S
be gin
T e
ifi ed
unt ime
pr ess
R o
G r
un ction
ic h
Ex pression
e p
O n
W ith
ser ver
B ase
ser vice
v ert
Col or
A G
ex ception
pt or
re move
instance of
t ing
v ed
wor d
b ase
Pro vider
E X
per mission
se d
pro perty
p ace
g roup
W or
Pro ject
re f
Ap ache
u al
en sion
ifi er
at es
ro id
ag es
P age
LI C
B ut
o ption
P er
a mp
F ilter
R I
F OR
ri d
C all
m ore
- 1
P AR
Ass ert
n s
fr ame
ar i
imp le
not ation
But ton
Res ponse
n c
re quired
ol d
un it
Out put
Be an
IN G
Constan ts
l imit
t arget
Config uration
H t
spec ific
Ed itor
m atch
eta il
s rc
ed itor
D O
Found ation
Ab stract
A P
Col umn
ol der
O p
IT I
Pro perties
Loc al
c ord
ro ll
fin d
w id
Param eter
ap i
u c
Ap p
Doc ument
TI ES
F r
l n
T ask
Con nection
g le
ma x
D is
AM E
a il
M P
mp ty
l ess
Tr ue
y le
l ast
use d
Ch ild
n er
h ave
ch em
Re ference
C li
For mat
g en
Re f
a int
lang uage
UR L
leg al
I ter
N ON
r et
0 2
o se
apt er
ate g
WARRAN TIES
er e
s i
ter ms
t ime
F I
Cli ent
Comm and
S ession
pos it
U N
po int
1 3
l at
St ack
print ln
W e
P os
AN T
g n
ro l
en u
ific ation
at tribute
f t
comm on
c all
Inter nal
Ch e
Par ser
F A
Lin e
B lock
ter n
pro ject
D o
en c
T ree
t ain
ic s
ent ry
A D
Pan el
B o
mpl ate
and roid
S up
v let
wh ich
Che ck
ial og
IL ITY
ay er
ITI ON
An d
C ell
lo c
Log ger
L S
Po int
it s
N ames
r un
and le
LIC EN
par t
ob tain
or s
res ent
R ule
Return s
und le
B AS
Cont ain
s on
ent ity
LICEN SE
pect ed
Par t
on t
U S
up date
Ch ar
Descri ptor
posit ory
ers ist
Lin k
N umber
se lect
C ase
ch ild
in fo
d b
A C
CON D
l es
ind ing
able d
O ption
it le
form ation
C ur
ib le
Pro cess
P RO
fi rst
permission s
form at
S I
L ong
d escri
fin ition
ex ecut
t es
F rom
Ser ver
let e
col umn
U I
X ML
Th read
g oo
w ar
ment s
res ource
t able
par se
B oolean
n ames
pro gram
1 6
f loat
implement s
val ues
l if
R em
Ht tp
T y
ic k
contain s
K IND
li ance
frame work
J ava
ex cept
g over
TY PE
q l
d at
S imple
St art
lo cal
T ag
m an
pro cess
N AME
r aw
re d
Se lect
c le
writ ing
N o
AB ILITY
M A
UR I
l d
br ary
er ay
of f
H el
Arg ument
tribut es
ex press
2 .0
ot e
comp liance
limit ations
applic able
le d
etail s
s ession
with out
X ml
i a
it ch
ol low
TI C
gover ning
N LS
F ree
En d
ava il
comp onent
ar ray
L ess
COND ITION
iv ity
re ed
wh ile
In c
s b
to p
C ache
et ers
C L
res ponse
l aw
License d
l ish
CONDITION S
Un less
BAS IS
avail able
goo gle
app ing
o per
P ort
iz ed
ag reed
p h
oo k
cl ose
Less er
n umber
arg s
By te
T arget
Re ader
V is
W id
c a
S Q
d es
Writ er
Val id
Oper ation
ht ml
f ilter
to ol
Wor k
for e
il es
H T
lif eray
an nel
reg ist
v el
2 5
s s
1 5
Ad apter
9 9
C al
Se lection
pl ace
copy right
j unit
ub lish
m b
Loc ation
irect ory
s um
ind ow
f ul
K E
ro ot
m e
bu f
Contain er
Reg ist
we b
iv ed
Iter ator
cur ity
sup port
S u
2 0
j j
D el
cri pt
ms g
R un
at tern
ion s
om e
P ri
bu ffer
St ore
Add ress
doc ument
wh en
M ER
1 4
re ce
Ch ange
A uth
out put
I mp
p s
f l
t ag
Ty pes
p resent
port al
chem a
SQ L
M E
Cre ate
l r
ign ment
Gr aph
bu ild
ob j
De finition
T ER
I l
inter face
gr aph
TH E
iv en
Il legal
ic al
M em
L ev
c or
r on
d om
our ces
M ENT
O L
Ex t
B it
ex pected
se arch
Lev el
ex ist
i de
r an
l t
ic t
s ing
p end
ic es
er ved
ne ct
Op en
ir t
ab ase
lic ense
o k
V ari
R ow
r en
ting s
ur l
im age
comm and
bu ilder
R ed
g iven
ant lr
Ro ot
R untime
to ken
l en
1 8
q ue
pr ing
0 .
x y
AT E
de bug
qu ence
00 0
p ublish
os s
b lock
UL T
ust om
Se arch
ess ages
imp l
j b
d etails
For m
par ser
co d
D ialog
st ream
n um
UL AR
P UR
m et
E mpty
app er
at ive
f ree
PO SE
ut e
N ESS
ect or
F IT
PAR TIC
D at
Pl ugin
F eature
are d
Ex ecut
mod ify
y our
St yle
CH ANT
B undle
AN D
PUR POSE
Ser vlet
FIT NESS
sy n
N ew
PARTIC ULAR
MER CHANT
MERCHANT ABILITY
str aint
stat us
N ext
ile d
gin e
r l
ition s
Hel per
U P
x text
m ust
p age
amp le
M enu
pl ugin
pro to
l abel
t ask
all y
m it
lic ation
U E
C S
co pe
ad ata
Do uble
a z
play er
3 2
has h
v ar
i x
ain s
n on
sw ing
M ode
KE Y
log ger
il ity
roll er
s ol
T ool
sw itch
ersist ence
struct or
En abled
3 0
O ff
in formation
lic k
V AL
J S
P r
V ER
h er
ck et
S pec
f s
In it
li brary
it ies
fa il
con tribut
Un it
ang ed
lo b
Ed it
m ary
d s
on itor
Re cord
0000 0000
M ar
te mp
AB LE
D ir
Ex p
M et
l ayout
Comp ar
F unction
E L
pro perties
j et
2 4
ab les
e o
Re pository
us h
distribut e
En um
Descri ption
on ly
f eature
s end
ateg ory
b in
od y
0 9
Bo x
u de
M atch
ev en
ass word
use ful
NO T
s ql
L ength
WARRAN TY
Te mplate
re ference
I s
init ial
j o
od es
Or der
Pro to
FA ULT
right s
de lete
L e
o ve
off set
ch ron
pro d
Cont rol
an notation
to m
sp ace
State ment
n am
LO W
con nection
AS T
i e
res erved
Act ivity
publish ed
App lication
descri ption
G rid
S p
CON T
in s
end ar
1 7
lat er
f ollow
ma il
Ser ializ
Up date
B UT
f unction
qu al
Val ues
A TION
s u
cle ar
We b
De cl
sy stem
st ore
s in
execut e
re port
h andle
He ader
in cl
param eter
R el
wid th
B inding
en ces
U rl
Trans action
Mo ck
ab stract
os ite
Par ent
fo und
ran ty
war ranty
ch ange
Mod ule
Pos ition
ex p
ass ist
D es
6 4
em f
ho pe
LO G
An notation
a ir
re distribute
m em
in al
D B
Set s
Re ad
s c
spec ified
D I
gr ess
s pring
Lo ader
Pl ayer
regist er
at ing
list ener
ent ifier
rece ived
R ender
distribut ion
P ER
Wid th
ac comp
2 3
ES T
Th row
M ult
lic y
enc y
a it
r untime
sh ow
pos ition
M O
O b
ro und
wid get
ad l
re place
c ache
m ain
st ack
act er
ma ke
S o
Res ol
W indow
Regist ry
AS F
ition al
iter al
ur es
M apping
res ol
or ig
R A
i als
Cur rent
iter ator
content assist
mar k
201 1
1 9
br ains
jet brains
loc ation
By tes
fer ences
J ob
con vert
le m
At tributes
M in
lo y
f actory
M eta
t itle
arg ument
M ax
aw t
ul es
implement ation
M ath
Off set
Ass ignment
S W
t ree
names pace
act or
pro vid
oc i
le x
c r
P attern
v ices
final ly
F l
w as
AG E
0 3
M S
D ER
ch ed
Fr ame
i um
an not
Str uct
follow ing
S U
a mpl
ap e
C ore
F OL
s or
a o
el li
or m
P R
M essages
EX T
i ver
d t
jb oss
ut o
ack et
Q U
as ic
B ound
al low
ker nel
Inter face
T er
JS ON
I C
g ing
0 4
and om
w i
c s
mod ule
ho st
or age
W r
U ID
V ector
Con straint
m eta
Field s
k it
al ong
P L
ne ed
Tr ace
b ound
config uration
C lo
T E
be an
r s
w r
in vo
j ob
e f
int elli
th read
intelli j
le vel
R ange
Set tings
sin ce
f ull
Select ed
N E
bo x
ex pression
P si
if act
W ar
Ch annel
af ter
uc cess
oo p
T im
s m
o cl
ers on
f iles
w ay
pl it
f low
Ext ension
d ir
Per mission
c m
AN CE
DE FAULT
cond itions
ut ion
3 4
D own
syn chron
D irectory
u id
ty pes
contain er
2 2
H o
1 .
s ave
B ar
o v
d est
param s
Se quence
T itle
an k
co ver
read er
pro vider
I con
FOL LOW
Fi rst
A X
ac cess
at form
S chema
Not ification
Param eters
s l
f e
Sup port
th en
G E
tr ack
Option s
Cal endar
writ er
le ft
dis play
ampl es
F ont
c ent
Cont roller
Lo ad
W h
r ender
he ight
se cond
mo ck
b l
De bug
F older
TO DO
S ER
IN ST
0 .0
AL L
spring framework
D om
201 0
r ange
support ed
Dis play
applic ation
Compar ator
Ch anged
V E
k n
g l
Comp osite
re l
S cript
w t
in e
2 .
do es
OR T
val u
mb ol
d own
ER R
Ex pr
con nect
Pan e
re cord
ig h
Pro d
F F
S H
Q ue
mat er
AP I
CO L
Lo ck
F e
Con vert
U SE
add itional
ed it
col or
H andle
Process or
m er
vis ion
ar ation
iz ation
201 2
pre fix
Ar t
M at
Ro le
al y
d raw
res h
L ast
Vari able
te mplate
un ter
oper ation
6 3
He ight
cod ing
r est
vis it
se curity
v ari
sh ort
1 00
U D
ther e
her it
s k
e mpty
re present
ent ic
st yle
at t
m t
be fore
o id
SW T
Bu ild
h andler
Su ite
Con structor
param eters
A g
synchron ized
2 7
O w
r u
N um
F a
Ho st
B ack
select ed
Re port
wh ere
O UT
G L
f oo
O P
ust er
b ind
l v
Throw able
S V
en gine
st op
g round
irt ual
L ang
Met adata
t mp
C or
Rem ote
p ed
De f
C lick
e ar
D AT
col lection
VAL UE
in st
In valid
by tes
Pro xy
Del et
se len
Que ue
b ar
ct x
selen ium
ur i
War ning
h ip
ed ia
result s
C ategory
le ase
Po licy
Se curity
ers hip
C ustom
s ign
Dat abase
re ct
S cope
mp s
P h
but ton
6 7
s ort
T ab
lo t
Pre fix
us ing
add ress
order ed
t d
at tributes
he ader
cre en
B ig
INST ANCE
B O
sw t
w s
pre v
de fin
g wt
ins ert
L iteral
p loy
r m
con f
be en
ach ed
dom ain
B in
provid ed
et ch
p c
io us
U ri
S ign
p an
en ame
Sh ort
im ension
G HT
ext ension
valid ate
v ir
m ult
A tom
I gn
y nam
iz er
ict ion
b it
6 5
ad oc
Pro gress
d f
u ff
re pository
B order
Int ent
av adoc
im um
stan t
ch annel
c ast
2 8
a use
Names pace
co gn
M IT
S S
P RE
d ic
R ight
option s
fa iled
D A
Con tribut
m enu
0 7
Con d
AT T
Array s
a adl
N et
To p
S c
d irectory
Id entifier
J o
In s
h ad
View er
u ction
F alse
im al
sub string
port let
vir on
t im
orig inal
M onitor
ca use
De c
3 3
reg ard
a de
ser ial
eth er
mater ials
method s
c ip
UR E
os ate
R ect
1 .0
Element s
Collection s
ma de
h el
gram mar
Trans form
IS T
dat abase
R ES
ac cept
T ri
comp are
int o
ord in
tr act
u ce
Call back
in herit
ag ment
li b
E clipse
Par se
c at
u g
fl ag
Imp lement
element s
Param s
ynam ic
res ources
ff ect
ang le
I M
ST R
return s
ser vlet
t ed
L i
viron ment
t xt
w ait
d ro
t t
leg ate
In vo
Z E
cont rol
M e
IN CL
ec ore
n t
act ive
B Y
m ote
P ool
n ow
S w
fa ces
P air
t al
ag ree
at ures
lob al
S O
SE T
Tr ack
un k
proto col
cont in
ri x
Ac count
U se
P ersistence
F loat
wor ld
common s
j p
lo ok
ac es
w o
5 9
A re
NO TI
cre ated
T AG
E V
C A
Mem ber
So cket
F in
se lection
oc cur
RI BUT
6 6
sum er
de cl
il er
A uto
ex amples
Imp ort
B E
in ation
H E
J avadoc
Gener ator
Link ed
h av
en ers
d ialog
ateg y
TH ER
N on
man ager
object s
L L
and ard
had oop
B asic
exist s
Pre ference
h i
ce l
Ign ore
regard ing
M B
l a
c ul
d if
k i
bin ary
Warning s
field s
p assword
On ly
Wor ld
0 5
J son
b undle
er r
g o
M y
s chema
own ership
he ad
N am
D S
kn own
event s
c ustom
ow er
annot ations
O ri
Lang uage
j son
A x
un ch
ERR OR
4 8
p ersistence
Resol ver
I MP
d l
m ode
c i
po st
4 5
Dom ain
en um
Sup press
p atch
Ad min
Re cogn
read y
ut able
to tal
e ach
IN T
ab ove
n able
ak e
INCL UD
N odes
cal e
de pend
ri ver
contribut or
at tr
b inding
ax is
ser vices
2 9
MA X
re q
SI ZE
s plit
p ush
Vis ible
Con nect
Fl ag
m on
NOTI CE
Be fore
F iles
G en
Proto col
INCLUD ING
S ort
O ne
B ody
res et
L R
form ed
ix el
ang es
ect ion
V ert
Res ources
s cri
ill is
Decl aration
P A
p op
3 5
b ody
stan ces
Child ren
iv id
Id s
St ep
6 0
ber n
tool s
ce ll
A f
Char acter
R et
CO M
s ame
bern ate
s uccess
s n
agree ments
t x
F ollow
child ren
Item s
v m
St orage
PO S
b ook
i que
Rel ation
ure d
Po st
F S
W OR
DAT A
Serializ able
i an
c ert
0000 00
en ch
ag r
y nc
j ust
P assword
3 7
class es
contin ue
z er
Get s
t en
V I
Ob j
e e
Recogn ition
Wid get
EN D
200 9
Rem ove
not ice
log ging
j face
Local e
8 9
h ere
pro p
al t
est amp
Buffer ed
Wr apper
S ing
or ed
Act ive
c ation
ed u
US A
ru pt
or ity
orm al
P AT
h ref
return ed
s ite
hav i
5 1
incl ud
s cript
n odes
O M
g rid
ind ic
p attern
en e
WAR E
item s
2 6
t ab
ass oci
act ual
Sy mbol
C an
cl ou
Are a
Constan t
m onitor
Delet e
accomp an
Gener ic
S OF
gener ate
ri ft
SOF T
g ment
w indow
th ing
action s
B U
L ayer
p ol
av ig
ist ory
De pend
par ator
S pace
Qu al
end ed
C K
Pro file
Convert er
En gine
entic ation
oc us
y y
c ed
At t
LI MIT
Pr int
Red istribut
wi se
Key s
m apping
bo ard
Bound s
Comm on
key s
w ard
SOFT WARE
b ers
rit er
si de
ANT LR
S C
f ill
G EN
que ue
Reg ion
Writ e
u x
il ename
Render er
av en
d ent
RI GHT
v g
I F
own er
Art ifact
I P
iz ard
se l
s cope
test s
LE MENT
gn u
e pl
b est
c c
sh ip
trans form
M illis
V irtual
az z
de f
200 8
ver ify
ib ility
sub ject
g or
N e
T P
s ome
Cur sor
ic on
cal led
B l
Cre ates
Test s
g ed
g t
con n
W S
5 0
accomp any
Th at
x s
Execut ion
int e
ac ro
ac count
IT E
accompany ing
ire ction
contribut ors
um e
set tings
f older
4 4
b lem
Re vision
prod uct
F low
P ol
met adata
Re ce
Mult i
wh ether
In ject
U M
Mo use
a i
s can
AS S
IN TER
He ad
c ard
app ed
P acket
pl y
8 8
D imension
a im
gor ith
m d
s imple
c ar
Run nable
co der
2. 1
V ar
Li brary
OR Y
Af ter
ab ility
M on
trans action
M s
res co
Po inter
p ack
s ible
D ao
iv es
f resco
ent er
C TION
ri es
er ation
Ax is
Dec imal
D L
j s
d ay
ched ule
F ail
Key word
resol ve
se quence
l ay
tr im
F E
pl atform
L IN
R andom
struct ure
Le ft
accompan ies
set s
M IN
Cond ition
RE CT
TH IS
act ivity
prev ious
g re
defin ed
se ction
Str ategy
1 10
AC K
O K
b ench
pan el
oc ial
st on
200 6
ex ample
pri mary
I B
Mar k
up le
check ed
state ment
p or
H as
7 7
H older
Un supported
0 8
Constraint s
y cle
W N
SI ON
af t
util s
Vari ables
c ap
con structor
agr am
FI X
Bo ston
Mem ory
k ens
Prod uct
Bin ary
in ject
Implement ation
st ep
re mote
n ed
HT ML
log y
P op
In st
Te mp
PRO PER
add ed
comm it
Oper ations
ad apter
C I
2 1
tr a
S k
Ter m
d irect
K ind
Not e
C ard
ro le
o ice
Valid ator
pro xy
app ly
Result s
Net work
5 5
ge o
ag ed
De vice
SV N
E LEMENT
3 1
S top
lo or
op ens
ic le
Execut or
P resent
Contribut ors
Com ment
S ection
0x 00000000
i od
char acter
start s
c ategory
200 0
gorith m
al ready
f ont
mem ber
3 9
M is
age ment
incl ude
invo ke
cod ed
LI ED
B us
Su ch
c p
Vis itor
p ing
H i
call back
th an
M edia
0x 000000
be ans
r andom
J E
th rift
cl azz
TI ME
IMP LIED
F O
E MP
str uction
ip le
descri ptor
D IS
let ion
ef x
GE T
P erson
Pre ferences
D AM
po se
qu ot
sh all
Init ial
Fa iled
CO MP
C ap
des ign
G PL
4 0
ivid ual
p m
D i
T EST
p erson
L ook
Init ializ
ry pt
r ic
mer ge
Ori gin
widget s
c f
P Y
qu ick
ad min
e qual
D b
Ed ge
D ay
FI EL
Fr agment
U s
d ist
Pl ace
Con sumer
pre c
T R
havi or
k kit
ke ep
En vironment
G ame
il y
F IL
STR ING
r ation
user name
mit ive
D est
at ype
S ite
200 5
s ure
3 6
FI LE
3 8
sol ution
Nam ed
B ook
base d
res pon
Re quired
PAT H
fer red
cl aim
T EXT
row ser
4 7
Valid ation
1 000
F IN
H ome
CL ASS
Port let
re et
vari able
db c
OR S
Auth or
point s
M ain
D ES
re mo
U LE
Ap i
ut ure
sh ared
argument s
M apper
fi re
AC TION
b irt
LIMIT ED
as on
b on
D raw
t a
pro ps
as es
l ight
0 6
riter ia
V er
F ac
Arg s
e valu
Des c
W ord
is ion
sol ute
A v
CH E
d en
F ull
AR Y
EV ENT
Ht ml
CO UN
e k
ud io
As ync
Cont act
cur sor
t wo
in ner
G eo
P ay
SE LE
com ment
ploy ment
An aly
Time out
R out
ul ar
rupt ed
ent ries
S creen
Ms g
CO PY
I G
Oper ator
A UT
T ABLE
oo m
cur r
200 7
s f
Sh ow
b b
Ex ist
g ui
Z one
not ify
ol s
g ame
st er
ur al
d r
b ro
b ed
LI ABILITY
Con f
b ot
U UID
af e
FIEL D
en v
u ch
s av
g i
L imit
y s
Ar ch
match es
m essages
re al
col lect
Mat rix
regist ry
uff ff
m ed
4 9
Ch at
p th
ver y
J AX
d ated
let ed
W E
Sc roll
p ass
DO M
c lick
EX PR
allow ed
in cip
d iv
c ached
S ql
p i
St andard
end ing
ri e
E valu
W H
B ag
Co unter
g reg
Sing le
l er
net work
SU B
S ave
dic ate
content s
co unter
Content s
other wise
CO DE
sing le
f etch
associ ated
o pt
ign ore
pre p
Object s
O THER
Mo ve
initial ize
tr ace
D ATE
Re al
j ar
B ro
ex pect
O B
cont act
d d
Cor por
G ER
d k
L if
En coding
co uld
Ow ner
int ent
cl one
PROPER TY
ind ividual
con straint
proto buf
JE CT
es e
so le
track ing
Pl atform
can not
6 9
form s
c v
Corpor ation
S can
or iz
open api
as ure
Cl uster
ick et
sh ot
g u
F ind
de v
V IS
ifi ers
C R
COUN T
an aly
S Y
Match er
Com bo
M AT
p ay
D etails
F loor
art ifact
Stat ic
C C
WOR D
US ER
R est
An y
In formation
Ex ter
Ag ent
en abled
Mar ker
L a
comp iler
id x
An not
comp lete
local e
u mp
rel ation
jo in
Sh ape
ME T
G lobal
Column s
ex pr
5 7
look up
cont roller
id entifier
Exter nal
exist ing
C ance
O T
document ation
contain ment
Id entity
F ocus
k ind
G RO
cept or
R ad
D ig
de finition
S n
Se c
d c
ist ics
best solution
C ert
e b
p aint
er ial
tri es
Pri mary
Event s
ro ke
match ing
Fin der
OR DER
in k
als o
S PE
b et
in valid
ch anged
B r
efx clipse
Ch ain
iction ary
cl uster
Cre ated
A li
8 7
Back ground
ATT RIBUT
HT TP
S um
sel f
lo ader
ag ing
sk ip
JAX B
des c
L IST
Rect angle
dis claim
Struct ure
al og
ach ment
m m
uc ene
SELE CT
AR T
ser ializ
author s
d ao
disclaim er
pro file
dest ination
st orage
F if
Fr ank
time out
pos sible
con s
init ializ
bu kkit
C P
as et
id ent
As set
UN D
f ilename
em ail
Stat s
de c
Lo gin
un c
per form
comp any
Con struct
st mt
d on
oriz ont
reg ion
incip al
Al tern
Ass oci
V O
MO DE
n ormal
C AL
Sw itch
Qu est
al i
est ed
H istory
hi bernate
h a
ver se
b us
Fif th
cm d
Act iv
E ffect
Frank lin
eter min
V ID
0x 7
Graph ics
ne x
LA Y
at er
Sign ature
Method s
l ayer
Redistribut ions
O S
v as
prec ated
D F
graph ics
con current
02 110
13 01
we en
N avig
urn al
in stances
om et
comp lex
Set ting
Inter rupted
T uple
cre ment
chem e
s un
Sup er
de legate
re cover
dro ols
End point
DA O
S ame
EXPR ESS
trans l
W A
tag s
D if
Invo cation
quick fix
P ORT
plugin s
d one
W izard
s is
n b
cor rect
AG ES
ser v
Work bench
Class es
occur red
ast er
Port al
it es
back tracking
At tr
d ynamic
O ther
the y
Ed ition
V M
i ate
D river
orizont al
Jo in
ref resh
ED E
a a
D ist
cl o
In cl
res sed
way s
S ample
Auth entication
so ap
G e
ire d
pro gress
act iv
list eners
en coding
Track er
S ol
L ower
st ub
error s
LIN E
l s
Work space
ok ie
is on
ro y
f ly
Sh ell
D ynamic
6 8
s ender
el y
scri ption
KEY WORD
fl ush
Tim estamp
P ersist
Co ordin
ug h
M I
T ot
t n
n ative
st it
ap shot
ing s
mo use
let on
cent er
contain ing
component s
Inter val
be ing
v n
can cel
COL UM
ic ip
su ite
h older
al eo
C RE
en able
ge oid
for ce
mod ified
fer ent
Select or
ST ATE
p ersist
cal cul
La unch
row s
RO M
COPY RIGHT
S AX
at om
Clo se
uc er
Serializ er
25 5
ON E
it ude
comp ar
Access or
not ification
actor ing
valid ation
Depend ency
Al low
th ers
or ies
ph a
S uccess
a e
r ad
De legate
gener ator
e lem
r a
in ess
UT F
Vert ex
h andl
p k
RE AD
Mod ified
r ics
5 8
a ut
g g
un ique
comp ute
s creen
A adl
D R
add ing
u uid
msg s
d ed
b asic
Se cond
Action s
clou ds
R ol
e et
p si
as y
P aint
Av ail
im ation
id s
R ULE
Tot al
I ON
se parator
cond ition
us es
NON E
ac ity
F ROM
il ities
p acket
EN TI
m f
s cale
Class path
column s
le ep
re lease
p air
cur s
S pring
bo y
co ordin
00 1
ro p
group s
if est
w so
Pop up
load ed
set up
En tries
match er
an ch
PRO VID
d ig
d a
Sy n
ad apt
Fa ult
ch art
Se gment
D irect
id er
u k
Comp letion
j ax
de vice
o thers
E mail
IB M
CH AR
m utable
z on
Util ities
fin ish
1 99
p ool
no st
sp an
Wh en
CH AN
DES C
inst all
rie ve
res tr
lo gin
rest ore
Loc ator
lic it
ref lect
Comm it
RA CT
H igh
ass et
4 2
writ ten
pl an
s ent
mod ules
po licy
ixel s
P y
wr ap
P e
war n
U B
so cket
org e
c dt
Ins ert
C D
al fresco
Ab solute
M ESS
m age
cl os
fe atures
ched ul
j clouds
M er
be cause
Ter min
ro s
er arch
user s
I Z
D uration
at ient
i us
AP P
tool ing
par ts
l iteral
Pri mitive
re po
IS E
e ch
flag s
de lt
List eners
Pro ps
l ing
ag nost
Sy nc
un checked
Un known
the m
am ily
wi ki
h s
200 1
Pol y
Group s
Con cept
D etail
Gener ated
Pro p
S plit
8 0
r aft
act ers
G O
ch anges
os gi
S m
ro ugh
Qual ified
max imum
a uto
with in
t jp
sav ed
Ser vices
Fe ed
Us age
C U
h igh
jj fly
tjp editor
jjfly boy
E qual
Ex port
5 4
as sed
RE F
C ar
hel p
COLUM N
ac le
f sp
it o
PRO C
Format ter
omet ry
mit ted
am o
remo ved
ST ART
AR E
sy mbol
m aven
CONT ENT
W i
PA CE
Fe atures
NU LL
Fi x
se c
Assert ion
X X
ur ing
bet ween
Relation ship
Res erved
GRO UP
200 4
Tim er
Pl ay
Argument s
c ss
St ub
ab out
IT S
g lobal
re qu
UT E
view er
Trans l
w ant
cal endar
ut down
L at
Comp lete
ed ge
Transform er
h ome
F IND
M ail
low er
VER SION
throw n
0x00000000 000000
M utable
um b
BU G
0 l
fe ed
Ch unk
vo l
dro p
ent ial
R ED
c lean
Run ner
ific ate
Per formed
U i
Ass ign
In f
9 7
v ide
AT OR
ter m
Al ignment
prep are
Mat erial
s ample
Ex pected
EDE FAULT
ST AT
P K
5 2
ER E
F T
il li
Fail ure
PRO P
su ch
we ight
H at
Text ure
LE TE
AT URE
an c
P ack
Head ers
icip ant
b a
ex cl
Al gorithm
il ation
includ ed
02 l
Ow ned
Sh ared
F uture
Per iod
Connect or
T RAN
task s
A ut
A ma
lo op
ab ilities
Enum eration
CONT RIBUT
ux eo
Ama zon
if ies
M acro
Hel p
0x 00
enc ies
s leep
l ucene
om at
H int
cert ware
d ing
en code
A A
Null able
prod uce
ab s
S cale
Dis patch
ex tract
De fin
St roke
Be havior
a ff
AUT H
st d
Associ ation
command s
and id
s im
B reak
r ules
m edia
ER AL
Pro blem
delt a
Point s
ex it
process or
e ad
z ip
ag ent
dent ials
Regist er
CONTRIBUT ORS
c ut
Work flow
ch unk
F etch
b c
F oo
fer enc
R aw
Mon th
Down load
4 6
U sed
S im
Des ign
con sum
red uce
rid ge
T ile
mod ification
PRE FIX
ass ign
5 6
amo unt
Cance l
mpl ates
M ore
P UT
SV G
at ives
e ffect
lin es
ext er
work s
F R
0x00000000000000 02l
A V
vis ible
Origin al
MB ER
if t
S end
Descriptor s
ch ain
fa c
Mod ifier
E P
Right s
C LA
are a
Look up
work space
comp osite
R ules
Pl an
Tool s
N ative
J ar
ex port
j dbc
li ke
gr ation
other lv
S l
Co ord
Trans ition
f orge
g es
vent ory
Trans port
s ocial
ar m
mail to
AS K
to kens
ATTRIBUT E
mo unt
Flag s
Atom ic
8 6
N AM
UR CE
execut ion
mp loy
f fix
Writ able
LO CK
d river
B oss
G B
Pre p
ne g
model s
C tx
up dated
j dt
open n
dis patch
Cre ation
C riteria
re lat
dis pose
Bit map
J et
DE BUG
der ived
work flow
o us
second s
DI RECT
exp and
DAM AGES
xt end
P H
ro t
Avail able
mar shall
O c
y ear
end point
V AR
Inst all
EMP TY
Top ic
I R
D irection
s ig
m ath
B rowser
im g
In et
comp ile
an other
Sub ject
S vg
Gr am
4 3
B ot
Del ta
D D
D ictionary
ud it
process ing
sy nc
HE AD
b el
run ning
C OR
ON T
register ed
bound s
Pre dicate
iver s
Pri ority
S chedule
bo th
HO L
G IN
x x
is s
er ic
represent ation
b order
SH ALL
DE X
i k
tr ig
P C
L EN
erarch y
dif ferent
De ployment
MESS AGE
Sh ould
Sy nt
d etermin
ID ENT
Sp an
VI CE
C at
depend ent
v irtual
up lic
inte ger
d ates
dif f
p assed
re p
F ore
nam ed
v en
Pri vate
pr et
And roid
S P
con struct
Pr incipal
Ch oice
Tri g
ex o
Wi ki
resh old
R ate
vis itor
3 .
D rop
Ch art
Iter able
SE QU
ho to
ro ov
sh ape
ic ally
e qu
ali as
ter min
roov y
P RI
mem ory
Man agement
S em
fr agment
pe ed
Pro vid
M D
Synt ax
D r
Rece iver
N ING
LI ABLE
opens ource
r t
ot ion
pos al
co ll
en vironment
th ese
n ess
hel per
E OF
de code
L en
PR OF
IN DEX
pro blem
la unch
or ient
Pro f
Vis ibility
1 l
Component s
h ow
exception s
PROVID ED
ly ing
l it
up per
View s
al ways
A udio
ec ycle
W HE
SPE CI
st andard
Support ed
Trig ger
In struction
Col lect
NE G
ent ities
cor respon
z z
In stances
sh ell
spec ial
car bon
ific ations
CON NE
c b
9 8
cover y
L IT
Att achment
il t
Dest ination
ff ff
STAT US
on y
G R
ret ain
RI P
Exp and
it ive
Trans fer
sign ature
s chedule
th rough
zer o
config ure
E l
Not ify
SU CH
Arch ive
Tag s
design er
a u
M ach
in stant
S ender
work ing
con stant
m id
relat ive
Do ck
Ser ies
WA Y
WHE THER
quot ed
4 1
um my
O W
Error s
S D
com e
Me asure
St reet
tool kit
temp t
inst ead
Un ique
Di agram
WH ERE
evalu ate
Co st
ind ent
Custom er
ap pro
top ic
Ali as
T T
sp i
gener ic
oper ator
W ISE
b le
S ur
f x
Hi bernate
Class ifier
no thing
exter nal
ver s
i se
AR IS
ifi able
Sum mary
tim estamp
the ir
Te am
O pt
C am
st ored
PRE F
Y ear
view s
ul ate
C ENT
ul ation
er a
ac y
Config ur
7 5
CS S
01 5
CLA IM
Pre v
ARIS ING
E M
Re p
CONT RACT
Stat es
WIT H
User s
I ss
Rout e
NO DE
Task s
y ard
p p
B atch
ar k
H andl
set ting
D FA
Proto type
Token izer
resol ved
De cor
Se parator
fi rm
el ine
LE D
S M
9 6
Inter ceptor
ON G
SER V
option al
clo sed
s es
select or
LO SS
Log ging
mult i
V ol
VAL ID
OTHER WISE
does n
P ass
Or g
chedul er
7 8
down load
d st
Altern atives
se gment
Le g
Struct ural
RA Y
E C
dist ance
0. 5
not e
k top
view ers
T ORT
mult iple
g mf
u ally
Permission s
0x7 f
g on
call s
com bin
ce ed
i res
IN C
a h
200 2
openn ms
EN CE
W R
ens ure
sc roll
decl aration
source forge
trans port
FIND ER
z one
word s
Ext ended
0x 0
N MS
j oo
C UR
COL OR
Scan ner
ces sed
ro ut
Gram mar
Dif f
n l
LIT ERAL
ag ain
Man aged
S ig
ret val
Man y
joo q
end or
id entity
per mitted
MET HO
TI VE
exo platform
M AP
AT ED
FE ATURE
W ait
d uring
wh at
Cre ator
me an
OB JECT
re ason
on d
M aven
F aces
Path s
Work ing
dat ab
J DB
char acters
USE D
d et
ret rieve
back ground
at ter
sm all
Fac et
G TH
Comp lex
Mis sing
g h
B ad
v an
F ace
d ot
D istribut
un try
h ar
In d
stat s
bot tom
S cheme
L Y
it ter
k aleo
IN FO
Row s
d imension
n uxeo
Ag greg
Up per
F actor
Id ent
switch yard
sl f
ENTI AL
in f
Re place
LE T
ha us
Stat istics
w ave
an ization
B US
R ot
C enter
6 2
ul a
SI B
s afe
C ast
s ur
pe ar
X html
G u
Col l
B lob
Compar ison
P I
Cert ificate
s core
N OR
Cal led
Pay load
oo ser
head ers
P a
implement ed
5 3
extension s
P ublish
A mount
V oid
se q
ant ic
E mb
B ran
e ff
oper ations
D T
HOL DER
con sumer
mar ker
Un ivers
cl s
man agement
g ov
Ex tra
SER VICE
op eng
Sub component
list ing
c y
Im mutable
lic e
Te ch
mat rix
JDB C
de l
O CL
ri an
full y
C annot
v c
Sub stit
ht able
trig ger
Cal cul
To kens
IC ES
LEN GTH
vari ables
Bran ch
log s
7 9
D to
Struct ured
co ord
SI G
We ight
User name
un ic
d irection
in crement
i i
Sort ed
RE G
az y
war ning
et r
av er
ev t
Ex cl
f act
De pth
SPECI AL
o pe
J vm
S core
Pre ferred
Be gin
d uration
represent ing
c d
reg ex
SO AP
e u
Annot ations
R S
ud son
Del ay
11 1
ro ss
String s
Quest ion
i ation
Pri v
D s
Exist s
auth entication
s vg
b its
Re present
Ref actoring
N ormal
I RECT
current ly
NAM ES
POS SIB
ul ator
n a
ation al
aw n
Z ip
Con sole
LE FT
e -
RI CT
compar ator
i id
le ar
g d
FOR MAT
D et
h old
cess ary
SERV ICES
V ec
ill a
our s
b io
H orizontal
p a
t w
0.0 f
o x
P M
m acro
system s
a ion
T ip
Ac cept
R T
re ply
Or acle
li er
sup p
d im
vel ope
T wo
de ploy
Al ert
ex tra
Dat aset
Ty ped
B ACK
m ask
RO OT
rece ive
pre ference
m ule
need ed
Bro ker
ir d
us ive
id den
AD D
Process ing
inter faces
Sub scription
n or
t f
Termin al
d le
n avig
Mach ine
5 00
t ile
ex ec
ID E
fin der
n d
th on
sh utdown
IN ESS
VI E
re main
C ause
p w
Co okie
Part ition
Emb ed
Met rics
7 0
sign ed
TRAN S
f w
i ed
de precated
IT UTE
IS O
In ner
BUS INESS
An t
Res tr
M id
c rypt
y les
C ss
nex pected
Rel ative
am az
er ies
An imation
Re ferences
9 5
consum e
GO O
v ector
b s
clou d
g s
In fi
pl ac
se mb
de pth
Vert ical
t ip
s model
ath er
g gle
en a
D art
pri ority
F ill
B al
SEQU ENTIAL
Fin ish
Sh eet
BAS E
LOG GER
E core
Ex ample
Bin der
In stant
In dic
com ing
al th
ST RICT
m i
Al fresco
ma ster
j av
amaz on
er ializ
mon th
Spec ification
FIL L
re produce
ri end
8 4
i vate
m ic
e very
Comp any
ad ing
J MS
Un der
v ing
ec raft
occur s
M ON
mo st
Prep ared
Pe er
S lot
am odel
andid ate
k ed
code haus
Sw ing
Ob server
er o
em e
CON SEQUENTIAL
12 3
h istory
valid ator
C ATION
L ex
Comp ilation
NU MBER
in c
pre d
de leted
ad cast
calcul ate
POSSIB ILITY
AS E
s ca
pre ferences
IND IRECT
Redistribut ion
layout s
X Y
attr s
EV EN
an a
Regist ration
Fi g
os m
ow l
INC IDENT
R UP
HEAD ER
cip ient
Has htable
mark s
over ride
Ph one
al le
Prof ession
mploy ee
200 3
ne ver
B L
Co uld
vel op
Pr ice
Mer ge
en coded
n one
M T
vid ence
w ould
ferenc ed
iv al
L ight
pay load
nb sp
filter s
Comp iler
par sed
12 8
AD VIS
g c
t c
orig in
le v
Dist ance
G oo
p ng
ic o
ar ies
pri or
Ch anges
S ocial
7 4
M aster
SUB ST
d etail
am l
po sed
Proto s
jo urnal
restr iction
mp t
av or
contain ed
T x
Univers ity
y et
al loc
PROF ITS
y per
b tn
sing leton
t ax
Cl ause
A ware
iter als
INCIDENT AL
ADVIS ED
rel ated
co des
m x
comp at
B R
us age
TR UE
L ib
doc s
add r
Profession al
Dr ag
Mult iple
PAR AM
f c
un known
DAM AGE
Sn apshot
Analy zer
per i
Frame work
M ask
c ases
w izard
te iid
di agnost
correspon ding
Ge ometry
fail ure
Con s
7 6
block s
C UP
URE MENT
En ter
METHO D
ro om
es c
C md
L oop
record s
dest roy
Un able
z k
INTER RUP
led ge
Man ifest
S afe
ateg ories
VIE W
M IS
CA USED
Pro gram
tim es
HO WE
Rad io
HOWE VER
M AR
ak ai
THE ORY
ub e
pre f
Fig ure
sm art
Check ed
al gorithm
z e
8 5
b ig
iv ot
bro ker
Can vas
i ator
ate way
CON FI
UN I
res p
9 0
render er
analy sis
per iod
RE MO
in side
convert er
it al
M al
resol ver
P ut
pe ction
L T
string s
SUBST ITUTE
GEN CE
Add ed
arch ive
im ages
LI GENCE
k ing
E qu
test ing
Run ning
NEG LIGENCE
CLAIM ED
M ix
En coder
J s
Part icipant
B und
Draw able
S av
con sole
kn ow
cat alog
Lin es
wr apper
W T
G o
Pro posal
inter val
ad le
EX EMP
Con current
n io
L ARY
GOO DS
for ward
V m
INTERRUP TION
PROC UREMENT
uplic ate
Prod ucer
mis sing
DIS CLAIMED
Check er
e jb
Valid ate
l ar
e ver
b rowser
EXEMP LARY
c z
C LO
el et
E E
So ap
c as
00 2
is n
ist ic
DA Y
aw s
request ed
6 1
For ward
G ui
connect or
constraint s
execut or
M ime
RE QU
xs d
Ex it
Al t
Edit ing
s ax
List s
J B
serial ize
ch or
etr ice
B its
L ONG
transl ate
trans ition
Ex tr
ch oice
m ob
CENT ER
5 09
Ex change
S ING
Evalu ator
i er
match ed
v ia
S el
W atch
M ule
Block s
or b
1. 1
connect ed
xt ure
PO ST
im ate
CE P
al es
Set up
F ilename
Option al
ri ev
std lib
A st
unt il
P atient
Im ages
Util ity
ad get
pri se
Persist ent
al pha
Navig ation
thread s
R GB
g a
Allow ed
Coordin ate
TO K
OP TION
format s
ent ion
Collect or
custom er
part ition
f n
Check s
bus iness
ext ended
need s
un ity
H ex
start ing
li es
p ur
ial ect
om eth
In dent
s lot
med iate
G ap
F amily
Ob serv
Th ere
quest ion
S cal
AR RAY
RES ULT
B ind
I AST
alle l
ometh ing
EN ABLE
S ide
U uid
HOLDER S
U CT
En able
m any
Se q
DO CU
Ref resh
e q
Id x
M M
wh o
comp ut
0 f
pl ain
v es
LO AD
SIG N
or es
DOCU MENT
de ployment
m ut
Res et
ne cessary
s cal
re c
f ocus
r df
ar r
path s
product s
eb ay
Nam ing
jp a
k s
P lease
Up load
Incl ude
B A
un set
s q
sh al
f actor
own ed
DE FIN
test ng
M ed
O C
Cre dentials
in dependent
Execut e
go ing
In ventory
mem bers
Ph ase
Dispatch er
Re ply
W ID
